[PAD]	0
[UNK]	0
[CLS]	0
[SEP]	0
[MASK]	0
▁t	-0
▁a	-1
in	-2
he	-3
at	-4
re	-5
on	-6
▁w	-7
er	-8
▁c	-9
▁s	-10
is	-11
▁the	-12
▁o	-13
es	-14
an	-15
or	-16
▁d	-17
▁f	-18
▁p	-19
en	-20
▁m	-21
▁b	-22
it	-23
al	-24
ou	-25
ar	-26
▁in	-27
▁of	-28
▁is	-29
ed	-30
▁wh	-31
ic	-32
▁an	-33
▁h	-34
ing	-35
▁to	-36
ion	-37
▁l	-38
ro	-39
as	-40
▁what	-41
▁and	-42
le	-43
ow	-44
▁n	-45
us	-46
il	-47
om	-48
▁e	-49
ct	-50
ent	-51
▁g	-52
▁y	-53
et	-54
▁re	-55
st	-56
ve	-57
▁for	-58
id	-59
▁T	-60
▁th	-61
ol	-62
▁you	-63
am	-64
el	-65
▁do	-66
ur	-67
▁how	-68
ch	-69
ot	-70
▁on	-71
ation	-72
ay	-73
ig	-74
▁st	-75
▁S	-76
▁A	-77
ver	-78
ce	-79
im	-80
ut	-81
▁C	-82
ge	-83
ly	-84
ra	-85
▁are	-86
▁be	-87
▁or	-88
od	-89
▁I	-90
▁de	-91
un	-92
ul	-93
um	-94
▁1	-95
ir	-96
if	-97
ad	-98
oun	-99
▁The	-100
▁pro	-101
ter	-102
os	-103
▁con	-104
▁can	-105
ith	-106
ate	-107
th	-108
▁(	-109
▁it	-110
▁as	-111
est	-112
▁M	-113
ke	-114
▁v	-115
her	-116
▁2	-117
▁whe	-118
ost	-119
▁with	-120
▁r	-121
▁that	-122
▁P	-123
em	-124
▁does	-125
ers	-126
ab	-127
op	-128
▁al	-129
▁com	-130
▁us	-131
rom	-132
ill	-133
ac	-134
ist	-135
▁B	-136
▁he	-137
age	-138
ri	-139
ure	-140
ess	-141
qu	-142
▁your	-143
and	-144
▁ch	-145
ment	-146
▁F	-147
ect	-148
▁D	-149
ine	-150
▁W	-151
oc	-152
igh	-153
ore	-154
pp	-155
▁ex	-156
all	-157
▁me	-158
▁ha	-159
ity	-160
▁from	-161
ant	-162
ain	-163
ition	-164
▁at	-165
▁se	-166
ive	-167
art	-168
se	-169
▁H	-170
▁ne	-171
ies	-172
▁ca	-173
ld	-174
▁sh	-175
ong	-176
00	-177
▁R	-178
▁we	-179
▁by	-180
ort	-181
res	-182
▁k	-183
▁sp	-184
▁was	-185
ood	-186
▁def	-187
ren	-188
▁E	-189
pt	-190
ell	-191
ount	-192
▁L	-193
▁pl	-194
▁su	-195
end	-196
ight	-197
▁N	-198
ast	-199
ia	-200
ich	-201
▁le	-202
per	-203
our	-204
ome	-205
▁have	-206
▁ma	-207
ber	-208
ard	-209
ical	-210
red	-211
iv	-212
▁wor	-213
ary	-214
▁man	-215
ice	-216
one	-217
ial	-218
ip	-219
ame	-220
▁when	-221
▁j	-222
▁O	-223
ide	-224
▁un	-225
▁per	-226
ud	-227
ear	-228
▁G	-229
▁who	-230
ated	-231
▁mean	-232
ff	-233
▁ta	-234
ust	-235
▁In	-236
▁which	-237
og	-238
up	-239
▁3	-240
▁long	-241
out	-242
iz	-243
▁cost	-244
act	-245
ound	-246
ag	-247
▁sy	-248
▁ab	-249
▁comp	-250
ind	-251
▁defin	-252
ie	-253
▁not	-254
cc	-255
▁caus	-256
▁where	-257
▁U	-258
▁ad	-259
▁cl	-260
orm	-261
yp	-262
ans	-263
pl	-264
▁bl	-265
▁inc	-266
▁dis	-267
▁cont	-268
ase	-269
▁definition	-270
du	-271
ok	-272
ould	-273
te	-274
▁mu	-275
ance	-276
▁will	-277
▁many	-278
ass	-279
ction	-280
ry	-281
ens	-282
ec	-283
ick	-284
der	-285
ime	-286
▁ar	-287
ru	-288
ire	-289
▁much	-290
ater	-291
ib	-292
verage	-293
ack	-294
▁ro	-295
	-296
..	-297
gh	-298
▁fl	-299
▁en	-300
ther	-301
ep	-302
▁all	-303
▁$	-304
▁co	-305
able	-306
▁this	-307
▁col	-308
▁pr	-309
ous	-310
▁num	-311
ress	-312
fe	-313
ree	-314
▁year	-315
ual	-316
▁typ	-317
▁sc	-318
▁has	-319
▁â	-320
ck	-321
▁res	-322
ue	-323
▁average	-324
▁app	-325
ult	-326
▁one	-327
ates	-328
ile	-329
ough	-330
vel	-331
▁te	-332
▁J	-333
ace	-334
own	-335
▁up	-336
▁ph	-337
▁20	-338
▁im	-339
▁St	-340
ord	-341
we	-342
ach	-343
▁fe	-344
ap	-345
are	-346
so	-347
▁Th	-348
▁used	-349
▁int	-350
erm	-351
▁name	-352
ak	-353
▁out	-354
▁4	-355
ail	-356
▁get	-357
ub	-358
▁inf	-359
ite	-360
▁more	-361
ose	-362
erv	-363
av	-364
▁am	-365
ish	-366
▁number	-367
▁most	-368
ions	-369
▁Y	-370
reat	-371
port	-372
feren	-373
▁did	-374
▁but	-375
ne	-376
ph	-377
▁li	-378
▁use	-379
▁comm	-380
▁bet	-381
ign	-382
▁tr	-383
ays	-384
▁qu	-385
▁dif	-386
▁car	-387
▁med	-388
▁time	-389
▁pre	-390
ang	-391
).	-392
▁other	-393
ounty	-394
▁i	-395
ian	-396
ations	-397
ors	-398
▁work	-399
▁so	-400
▁gr	-401
▁part	-402
▁sal	-403
▁may	-404
▁pe	-405
▁5	-406
ild	-407
▁tra	-408
ark	-409
▁mo	-410
les	-411
▁go	-412
row	-413
ents	-414
▁V	-415
▁201	-416
▁It	-417
▁if	-418
ll	-419
▁need	-420
ings	-421
▁form	-422
irst	-423
ric	-424
int	-425
__	-426
ory	-427
▁acc	-428
▁about	-429
▁off	-430
▁also	-431
ature	-432
▁ra	-433
▁rec	-434
ence	-435
▁differen	-436
ffect	-437
ween	-438
ond	-439
▁che	-440
ook	-441
▁make	-442
ons	-443
anc	-444
lect	-445
ange	-446
▁than	-447
▁between	-448
very	-449
▁loc	-450
▁An	-451
▁em	-452
▁they	-453
ob	-454
ef	-455
▁should	-456
fter	-457
▁call	-458
▁my	-459
▁cal	-460
▁tw	-461
▁first	-462
lud	-463
▁-	-464
urn	-465
▁ind	-466
▁K	-467
▁meaning	-468
stem	-469
▁new	-470
amp	-471
▁take	-472
▁their	-473
ft	-474
oll	-475
▁over	-476
▁kn	-477
▁water	-478
ys	-479
▁19	-480
▁some	-481
its	-482
ular	-483
▁ac	-484
aw	-485
orn	-486
eral	-487
▁why	-488
▁This	-489
ven	-490
iss	-491
▁produ	-492
▁includ	-493
▁blood	-494
land	-495
▁causes	-496
▁ag	-497
▁act	-498
▁gen	-499
▁cause	-500
▁tem	-501
▁cons	-502
ific	-503
▁mon	-504
▁min	-505
ody	-506
▁into	-507
vers	-508
ert	-509
▁cell	-510
▁sym	-511
olog	-512
ople	-513
▁after	-514
▁ear	-515
▁any	-516
lic	-517
old	-518
▁sm	-519
▁bec	-520
▁its	-521
oms	-522
tern	-523
ink	-524
ather	-525
cess	-526
hes	-527
rit	-528
ower	-529
▁di	-530
▁system	-531
▁two	-532
ock	-533
ath	-534
▁ins	-535
▁If	-536
oy	-537
ade	-538
▁6	-539
▁bu	-540
▁there	-541
000	-542
▁food	-543
▁Ch	-544
alth	-545
▁add	-546
mer	-547
▁Un	-548
▁people	-549
ts	-550
▁des	-551
▁county	-552
ram	-553
ank	-554
▁serv	-555
ating	-556
arg	-557
ium	-558
▁day	-559
▁pay	-560
ments	-561
ove	-562
▁reg	-563
ited	-564
oth	-565
▁po	-566
erson	-567
▁body	-568
▁tax	-569
▁trans	-570
▁hel	-571
inal	-572
▁fun	-573
ins	-574
ork	-575
ely	-576
▁called	-577
▁sur	-578
ix	-579
▁ass	-580
▁spec	-581
▁br	-582
▁mus	-583
▁exp	-584
hen	-585
▁pop	-586
ps	-587
ces	-588
cle	-589
▁type	-590
▁test	-591
▁sk	-592
gs	-593
ari	-594
▁hour	-595
eth	-596
▁state	-597
ten	-598
),	-599
▁dep	-600
▁pain	-601
ont	-602
▁years	-603
use	-604
▁pa	-605
▁sub	-606
ym	-607
ics	-608
▁inst	-609
ton	-610
gan	-611
▁like	-612
rib	-613
▁sa	-614
uring	-615
ise	-616
▁rel	-617
▁sympt	-618
wn	-619
▁prov	-620
ually	-621
cy	-622
▁ref	-623
ject	-624
ows	-625
▁bas	-626
▁temper	-627
▁10	-628
als	-629
io	-630
▁requ	-631
▁under	-632
ee	-633
ool	-634
▁rem	-635
ative	-636
▁bo	-637
▁common	-638
rough	-639
▁You	-640
▁7	-641
ulation	-642
ices	-643
▁temperature	-644
oss	-645
ational	-646
any	-647
▁sec	-648
▁person	-649
▁good	-650
▁Wh	-651
▁start	-652
▁pres	-653
rop	-654
ake	-655
ract	-656
ty	-657
▁effect	-658
ient	-659
ize	-660
▁air	-661
▁only	-662
ting	-663
erg	-664
▁symptoms	-665
ible	-666
ident	-667
▁ke	-668
ode	-669
ced	-670
▁age	-671
ines	-672
▁were	-673
▁health	-674
▁8	-675
fore	-676
▁term	-677
▁no	-678
ew	-679
vent	-680
ility	-681
hed	-682
▁through	-683
,000	-684
ale	-685
ily	-686
▁He	-687
▁found	-688
▁made	-689
▁back	-690
ism	-691
▁dise	-692
ss	-693
ex	-694
▁For	-695
▁his	-696
ness	-697
▁play	-698
▁set	-699
▁char	-700
▁been	-701
gn	-702
cent	-703
ities	-704
ble	-705
iew	-706
▁mil	-707
ek	-708
▁month	-709
ash	-710
▁price	-711
ict	-712
▁such	-713
ormation	-714
▁cur	-715
▁home	-716
▁them	-717
▁rep	-718
▁ben	-719
▁att	-720
ection	-721
bs	-722
▁val	-723
ife	-724
▁help	-725
▁Re	-726
▁det	-727
▁old	-728
▁different	-729
ied	-730
ouse	-731
dition	-732
▁bel	-733
▁word	-734
co	-735
ally	-736
cl	-737
▁En	-738
▁cre	-739
▁supp	-740
▁would	-741
ants	-742
▁child	-743
▁ret	-744
let	-745
ull	-746
ories	-747
ause	-748
▁pol	-749
▁world	-750
▁process	-751
▁z	-752
▁gl	-753
▁types	-754
▁our	-755
rent	-756
▁salary	-757
▁last	-758
▁sl	-759
▁high	-760
▁treat	-761
▁dist	-762
iness	-763
▁level	-764
▁sign	-765
ution	-766
▁her	-767
▁stud	-768
▁stand	-769
tle	-770
▁before	-771
ning	-772
▁pat	-773
▁find	-774
ollow	-775
▁define	-776
arm	-777
uc	-778
▁occ	-779
▁weather	-780
arch	-781
▁op	-782
ption	-783
ah	-784
▁ent	-785
cer	-786
▁best	-787
ov	-788
	-789
▁grow	-790
▁located	-791
	-792
ars	-793
ploy	-794
▁just	-795
rain	-796
acter	-797
▁end	-798
meric	-799
ases	-800
▁down	-801
▁dri	-802
▁sim	-803
ages	-804
▁bre	-805
com	-806
▁then	-807
▁right	-808
▁How	-809
▁each	-810
▁We	-811
chool	-812
ful	-813
▁met	-814
▁list	-815
kes	-816
oot	-817
ology	-818
▁during	-819
▁organ	-820
ator	-821
day	-822
imes	-823
▁days	-824
▁elect	-825
▁cent	-826
▁9	-827
outh	-828
▁est	-829
ically	-830
▁ser	-831
▁$1	-832
▁information	-833
hip	-834
▁hum	-835
air	-836
▁mem	-837
other	-838
ug	-839
ox	-840
▁Com	-841
▁fil	-842
ax	-843
▁these	-844
▁care	-845
▁medic	-846
▁fam	-847
ral	-848
▁pur	-849
ata	-850
els	-851
▁resp	-852
0.	-853
ample	-854
ger	-855
▁imp	-856
velop	-857
▁cr	-858
▁aut	-859
▁inter	-860
▁gra	-861
ious	-862
▁own	-863
▁ext	-864
▁Al	-865
▁well	-866
▁Americ	-867
▁bus	-868
▁small	-869
▁disease	-870
gram	-871
oup	-872
	-873
____	-874
▁hours	-875
▁Cl	-876
king	-877
▁Pro	-878
▁follow	-879
▁ve	-880
▁inv	-881
gl	-882
▁function	-883
▁known	-884
ron	-885
ural	-886
▁difference	-887
▁week	-888
ute	-889
ets	-890
▁vari	-891
▁ed	-892
▁cells	-893
▁law	-894
▁pass	-895
▁av	-896
▁see	-897
▁benef	-898
▁often	-899
▁County	-900
reen	-901
▁same	-902
yl	-903
way	-904
▁cook	-905
▁ob	-906
▁area	-907
▁Ex	-908
▁she	-909
...	-910
iod	-911
ids	-912
▁main	-913
ane	-914
ving	-915
▁New	-916
▁phone	-917
irect	-918
▁sw	-919
▁import	-920
▁fr	-921
gen	-922
eld	-923
ason	-924
ures	-925
▁leg	-926
▁gu	-927
form	-928
▁heart	-929
ized	-930
ave	-931
ense	-932
ital	-933
▁account	-934
▁way	-935
▁card	-936
ats	-937
▁equ	-938
oci	-939
▁rate	-940
▁cor	-941
▁sol	-942
▁contain	-943
cul	-944
▁kind	-945
ired	-946
▁every	-947
▁mod	-948
▁orig	-949
redit	-950
▁count	-951
▁dec	-952
▁city	-953
▁develop	-954
get	-955
▁Ad	-956
▁skin	-957
▁200	-958
▁change	-959
yd	-960
bers	-961
▁Sp	-962
▁side	-963
▁period	-964
▁ey	-965
▁condition	-966
▁There	-967
▁population	-968
▁cle	-969
urs	-970
ormal	-971
ased	-972
▁proper	-973
ience	-974
▁vis	-975
▁As	-976
ever	-977
▁employ	-978
ms	-979
line	-980
▁deg	-981
50	-982
▁life	-983
rol	-984
ides	-985
▁medical	-986
▁color	-987
▁press	-988
▁United	-989
▁18	-990
▁&	-991
▁percent	-992
▁To	-993
▁mark	-994
▁incre	-995
▁result	-996
ames	-997
▁mar	-998
▁amount	-999
▁three	-1000
▁look	-1001
▁lo	-1002
▁very	-1003
▁open	-1004
▁around	-1005
▁product	-1006
▁service	-1007
ety	-1008
orth	-1009
ivers	-1010
▁free	-1011
▁head	-1012
▁had	-1013
▁larg	-1014
az	-1015
▁affect	-1016
▁oil	-1017
▁means	-1018
ergy	-1019
▁cour	-1020
▁using	-1021
▁know	-1022
ters	-1023
arge	-1024
xt	-1025
▁usually	-1026
▁fact	-1027
▁business	-1028
ier	-1029
▁don	-1030
▁size	-1031
vern	-1032
ney	-1033
▁school	-1034
▁calories	-1035
ues	-1036
ones	-1037
▁run	-1038
▁must	-1039
▁light	-1040
▁weight	-1041
na	-1042
▁include	-1043
ives	-1044
▁net	-1045
oney	-1046
▁example	-1047
▁bab	-1048
▁ele	-1049
▁come	-1050
▁wom	-1051
ina	-1052
▁12	-1053
▁check	-1054
▁dr	-1055
▁str	-1056
tic	-1057
▁States	-1058
▁pot	-1059
▁const	-1060
▁class	-1061
chn	-1062
ward	-1063
ield	-1064
▁low	-1065
▁program	-1066
▁want	-1067
▁Sh	-1068
▁hig	-1069
ublic	-1070
▁jo	-1071
▁lit	-1072
▁point	-1073
▁plan	-1074
mon	-1075
▁squ	-1076
▁ev	-1077
elf	-1078
	-1079
ists	-1080
ruct	-1081
de	-1082
▁hand	-1083
▁eat	-1084
ency	-1085
▁cert	-1086
utes	-1087
▁important	-1088
▁record	-1089
▁exper	-1090
▁because	-1091
▁wind	-1092
▁u	-1093
▁show	-1094
ams	-1095
▁happ	-1096
▁lead	-1097
▁syn	-1098
rap	-1099
man	-1100
▁top	-1101
ury	-1102
urance	-1103
br	-1104
ille	-1105
cept	-1106
▁lim	-1107
▁Se	-1108
uter	-1109
▁som	-1110
▁hot	-1111
▁sug	-1112
▁place	-1113
▁On	-1114
▁meas	-1115
▁Pl	-1116
▁code	-1117
▁general	-1118
▁1.	-1119
▁el	-1120
ior	-1121
ved	-1122
▁while	-1123
▁eng	-1124
▁When	-1125
▁data	-1126
tal	-1127
▁ur	-1128
rest	-1129
imum	-1130
▁range	-1131
▁eg	-1132
▁company	-1133
▁direct	-1134
▁men	-1135
▁both	-1136
▁build	-1137
gin	-1138
ivid	-1139
▁ir	-1140
lo	-1141
▁disc	-1142
▁sing	-1143
▁prot	-1144
▁following	-1145
▁eas	-1146
ince	-1147
▁ant	-1148
20	-1149
▁credit	-1150
atch	-1151
▁big	-1152
▁foot	-1153
work	-1154
▁house	-1155
ner	-1156
▁par	-1157
glish	-1158
▁live	-1159
▁less	-1160
▁prof	-1161
▁depend	-1162
ple	-1163
▁become	-1164
▁What	-1165
▁bro	-1166
▁keep	-1167
▁power	-1168
ional	-1169
ted	-1170
▁proble	-1171
▁ann	-1172
ified	-1173
▁energy	-1174
ump	-1175
inc	-1176
▁ste	-1177
sw	-1178
▁war	-1179
▁even	-1180
view	-1181
▁(1	-1182
▁including	-1183
▁move	-1184
▁install	-1185
ustom	-1186
ross	-1187
ocial	-1188
ration	-1189
▁current	-1190
osp	-1191
here	-1192
iver	-1193
▁without	-1194
▁effects	-1195
▁report	-1196
▁rest	-1197
▁being	-1198
und	-1199
▁prote	-1200
ves	-1201
osis	-1202
▁cap	-1203
▁spe	-1204
▁mill	-1205
▁second	-1206
erc	-1207
eng	-1208
angu	-1209
▁benefits	-1210
▁design	-1211
▁normal	-1212
pr	-1213
▁foods	-1214
amin	-1215
▁post	-1216
▁rece	-1217
▁del	-1218
▁govern	-1219
▁job	-1220
▁15	-1221
▁bi	-1222
read	-1223
▁Ar	-1224
▁De	-1225
▁family	-1226
crib	-1227
fer	-1228
▁chem	-1229
ider	-1230
▁Â	-1231
▁conn	-1232
▁'	-1233
ote	-1234
ley	-1235
ization	-1236
less	-1237
au	-1238
▁phys	-1239
▁cy	-1240
▁fin	-1241
▁US	-1242
▁another	-1243
▁gas	-1244
▁large	-1245
▁oper	-1246
▁within	-1247
▁fat	-1248
itis	-1249
▁pressure	-1250
▁non	-1251
bo	-1252
▁plant	-1253
eter	-1254
iving	-1255
▁dev	-1256
lex	-1257
▁appro	-1258
▁flu	-1259
▁group	-1260
▁now	-1261
atic	-1262
▁baby	-1263
ries	-1264
▁insurance	-1265
▁file	-1266
▁money	-1267
of	-1268
jor	-1269
▁techn	-1270
▁real	-1271
ana	-1272
ctor	-1273
▁land	-1274
▁great	-1275
▁require	-1276
▁Sc	-1277
▁hist	-1278
▁inte	-1279
▁repl	-1280
lor	-1281
▁vol	-1282
to	-1283
▁miles	-1284
osed	-1285
atter	-1286
the	-1287
▁minutes	-1288
▁bir	-1289
ring	-1290
▁largest	-1291
ental	-1292
▁hard	-1293
▁based	-1294
▁avail	-1295
▁muscle	-1296
▁Con	-1297
eric	-1298
ify	-1299
▁red	-1300
▁four	-1301
ability	-1302
▁Q	-1303
ision	-1304
▁could	-1305
▁Bl	-1306
ential	-1307
▁below	-1308
▁rele	-1309
▁read	-1310
▁lab	-1311
▁anim	-1312
▁American	-1313
rees	-1314
ately	-1315
idered	-1316
ients	-1317
oid	-1318
▁full	-1319
▁es	-1320
▁qual	-1321
ered	-1322
por	-1323
-1	-1324
▁rad	-1325
▁colle	-1326
ann	-1327
▁x	-1328
▁fore	-1329
▁total	-1330
yn	-1331
amm	-1332
enn	-1333
▁considered	-1334
urity	-1335
▁commun	-1336
▁ver	-1337
▁.	-1338
▁support	-1339
▁states	-1340
▁human	-1341
▁Ph	-1342
▁intern	-1343
sc	-1344
ott	-1345
hest	-1346
ining	-1347
ctions	-1348
▁standard	-1349
une	-1350
ida	-1351
▁income	-1352
mit	-1353
....	-1354
ball	-1355
icro	-1356
▁langu	-1357
ville	-1358
▁Cal	-1359
ison	-1360
▁custom	-1361
ret	-1362
▁nat	-1363
▁dru	-1364
▁put	-1365
raph	-1366
min	-1367
▁Ind	-1368
con	-1369
▁order	-1370
led	-1371
▁vir	-1372
▁makes	-1373
▁control	-1374
▁pos	-1375
▁major	-1376
▁30	-1377
▁unt	-1378
uss	-1379
▁pregn	-1380
▁mater	-1381
▁available	-1382
▁partic	-1383
li	-1384
▁turn	-1385
▁bank	-1386
▁chang	-1387
▁far	-1388
▁treatment	-1389
▁bar	-1390
▁date	-1391
ots	-1392
▁measure	-1393
▁special	-1394
omes	-1395
▁Med	-1396
▁store	-1397
▁They	-1398
▁pri	-1399
▁All	-1400
▁occur	-1401
▁white	-1402
cum	-1403
▁determ	-1404
iversity	-1405
▁infl	-1406
ording	-1407
▁imm	-1408
▁computer	-1409
▁2.	-1410
▁feet	-1411
▁cancer	-1412
▁At	-1413
gest	-1414
▁those	-1415
ederal	-1416
2.	-1417
▁let	-1418
cel	-1419
▁adv	-1420
raw	-1421
itive	-1422
▁mot	-1423
▁Le	-1424
▁poss	-1425
ware	-1426
isk	-1427
▁character	-1428
ipp	-1429
▁lic	-1430
▁fast	-1431
iation	-1432
▁square	-1433
sy	-1434
▁again	-1435
▁Be	-1436
▁sour	-1437
aries	-1438
▁brain	-1439
▁women	-1440
▁writ	-1441
▁engine	-1442
▁costs	-1443
iforn	-1444
▁ox	-1445
▁contin	-1446
▁Z	-1447
ancy	-1448
▁prim	-1449
▁tri	-1450
ifornia	-1451
▁conf	-1452
ino	-1453
5.	-1454
ected	-1455
hing	-1456
ification	-1457
ds	-1458
▁caused	-1459
▁material	-1460
ling	-1461
ination	-1462
▁short	-1463
▁perform	-1464
▁lower	-1465
ills	-1466
ounds	-1467
etic	-1468
ik	-1469
--	-1470
▁black	-1471
¦	-1472
▁government	-1473
▁meth	-1474
que	-1475
▁sugar	-1476
icken	-1477
alk	-1478
▁few	-1479
▁until	-1480
par	-1481
▁fre	-1482
▁line	-1483
▁11	-1484
▁children	-1485
iven	-1486
▁Car	-1487
▁port	-1488
ada	-1489
ission	-1490
▁vit	-1491
▁dig	-1492
▁And	-1493
▁protein	-1494
tain	-1495
▁Col	-1496
▁times	-1497
▁la	-1498
▁ep	-1499
▁/	-1500
▁expl	-1501
▁English	-1502
▁struct	-1503
▁sn	-1504
ished	-1505
aim	-1506
imate	-1507
▁stat	-1508
iction	-1509
▁cat	-1510
ined	-1511
▁give	-1512
▁tiss	-1513
sh	-1514
▁applic	-1515
▁activ	-1516
ean	-1517
uck	-1518
▁return	-1519
▁degree	-1520
ared	-1521
▁social	-1522
▁eye	-1523
▁market	-1524
son	-1525
face	-1526
▁value	-1527
alf	-1528
▁born	-1529
▁cut	-1530
hol	-1531
▁book	-1532
▁earn	-1533
▁hair	-1534
hn	-1535
▁purp	-1536
ern	-1537
▁near	-1538
▁cop	-1539
▁ge	-1540
▁lear	-1541
▁ren	-1542
rem	-1543
▁associ	-1544
ule	-1545
oes	-1546
erve	-1547
▁services	-1548
ividual	-1549
▁These	-1550
ways	-1551
3.	-1552
▁buy	-1553
ables	-1554
▁$2	-1555
▁redu	-1556
▁soft	-1557
▁cir	-1558
▁ce	-1559
▁But	-1560
▁months	-1561
▁still	-1562
▁Or	-1563
NA	-1564
ially	-1565
▁song	-1566
▁rock	-1567
▁Tr	-1568
▁comb	-1569
▁0	-1570
▁beh	-1571
▁provide	-1572
▁infection	-1573
▁public	-1574
▁cho	-1575
▁diet	-1576
4.	-1577
▁mov	-1578
▁doctor	-1579
roid	-1580
▁dog	-1581
▁click	-1582
▁left	-1583
▁lay	-1584
lete	-1585
▁wa	-1586
▁win	-1587
▁[	-1588
oph	-1589
roll	-1590
▁calcul	-1591
▁language	-1592
rodu	-1593
gr	-1594
sp	-1595
umb	-1596
cri	-1597
▁popular	-1598
▁Your	-1599
▁feel	-1600
▁ap	-1601
▁due	-1602
▁mult	-1603
▁required	-1604
▁er	-1605
idge	-1606
aster	-1607
▁dam	-1608
▁appear	-1609
▁drink	-1610
bon	-1611
▁16	-1612
▁here	-1613
▁sit	-1614
▁dry	-1615
fl	-1616
▁chemical	-1617
▁allow	-1618
idd	-1619
ume	-1620
30	-1621
▁sever	-1622
ains	-1623
▁too	-1624
▁early	-1625
▁origin	-1626
▁sum	-1627
ask	-1628
▁season	-1629
▁heat	-1630
▁bacter	-1631
▁say	-1632
swer	-1633
▁iss	-1634
▁contact	-1635
▁sun	-1636
ength	-1637
eds	-1638
atory	-1639
hor	-1640
ended	-1641
7.	-1642
ograph	-1643
▁break	-1644
▁tru	-1645
cles	-1646
ived	-1647
▁addition	-1648
▁burn	-1649
▁levels	-1650
ffic	-1651
rown	-1652
pper	-1653
▁bill	-1654
▁individual	-1655
▁interest	-1656
▁100	-1657
▁property	-1658
ding	-1659
▁fall	-1660
agement	-1661
▁phot	-1662
ma	-1663
▁specific	-1664
▁worth	-1665
aly	-1666
▁earth	-1667
▁Is	-1668
order	-1669
The	-1670
▁kid	-1671
▁death	-1672
▁someone	-1673
1.	-1674
ething	-1675
ung	-1676
oor	-1677
omy	-1678
ender	-1679
▁contract	-1680
▁offic	-1681
▁mass	-1682
ese	-1683
ips	-1684
▁page	-1685
ither	-1686
▁game	-1687
▁address	-1688
▁wr	-1689
▁react	-1690
elling	-1691
▁project	-1692
▁Fr	-1693
ai	-1694
▁max	-1695
▁step	-1696
▁hold	-1697
▁Res	-1698
▁quest	-1699
▁repres	-1700
▁describ	-1701
irl	-1702
urop	-1703
▁single	-1704
▁:	-1705
▁docum	-1706
▁weeks	-1707
ement	-1708
▁fac	-1709
▁little	-1710
▁2016	-1711
▁clean	-1712
ples	-1713
▁art	-1714
af	-1715
▁dia	-1716
▁loss	-1717
ken	-1718
▁president	-1719
▁Acc	-1720
riend	-1721
▁begin	-1722
ush	-1723
▁natural	-1724
▁travel	-1725
▁invol	-1726
▁table	-1727
▁subst	-1728
▁=	-1729
▁history	-1730
▁chicken	-1731
▁17	-1732
▁above	-1733
▁americ	-1734
omm	-1735
▁educ	-1736
▁words	-1737
▁Some	-1738
aves	-1739
ateg	-1740
▁case	-1741
ole	-1742
▁plants	-1743
▁profess	-1744
▁bra	-1745
▁least	-1746
▁nut	-1747
▁Cent	-1748
▁cold	-1749
▁given	-1750
dom	-1751
hic	-1752
▁City	-1753
gery	-1754
▁adult	-1755
▁acid	-1756
▁method	-1757
ER	-1758
▁claim	-1759
▁might	-1760
▁hyd	-1761
▁stay	-1762
▁stop	-1763
▁Cont	-1764
▁key	-1765
▁score	-1766
3,	-1767
▁products	-1768
▁50	-1769
▁With	-1770
▁several	-1771
▁highest	-1772
▁million	-1773
▁local	-1774
vert	-1775
▁ill	-1776
sych	-1777
raft	-1778
▁view	-1779
cohol	-1780
ently	-1781
▁rese	-1782
▁think	-1783
fact	-1784
ression	-1785
▁experience	-1786
▁increase	-1787
ift	-1788
rome	-1789
▁federal	-1790
4,	-1791
ilar	-1792
▁ident	-1793
ances	-1794
rict	-1795
▁Can	-1796
▁Pr	-1797
▁park	-1798
▁something	-1799
▁Def	-1800
40	-1801
▁|	-1802
▁sle	-1803
▁wall	-1804
▁Ab	-1805
▁though	-1806
▁drive	-1807
▁pract	-1808
▁green	-1809
▁access	-1810
▁abs	-1811
▁risk	-1812
▁base	-1813
▁Most	-1814
▁distance	-1815
5,	-1816
▁One	-1817
▁connect	-1818
isc	-1819
▁charge	-1820
bol	-1821
▁pan	-1822
▁However	-1823
1,	-1824
▁online	-1825
ember	-1826
artment	-1827
▁present	-1828
▁ide	-1829
▁Rep	-1830
vir	-1831
ula	-1832
▁arm	-1833
aily	-1834
by	-1835
▁opt	-1836
▁paid	-1837
▁conditions	-1838
▁network	-1839
▁vide	-1840
ering	-1841
▁et	-1842
▁fire	-1843
po	-1844
▁won	-1845
▁mole	-1846
etimes	-1847
▁div	-1848
▁vac	-1849
ails	-1850
▁block	-1851
▁birth	-1852
▁App	-1853
ler	-1854
ama	-1855
▁fish	-1856
▁create	-1857
ien	-1858
▁certain	-1859
hern	-1860
yle	-1861
ilt	-1862
▁past	-1863
ried	-1864
▁things	-1865
▁higher	-1866
▁indust	-1867
▁State	-1868
oles	-1869
side	-1870
▁problems	-1871
▁office	-1872
aring	-1873
▁vers	-1874
epend	-1875
▁field	-1876
▁music	-1877
▁bad	-1878
▁fem	-1879
▁Gr	-1880
60	-1881
▁original	-1882
▁super	-1883
anch	-1884
▁3.	-1885
ucle	-1886
▁said	-1887
▁needed	-1888
▁select	-1889
▁remove	-1890
ream	-1891
▁Am	-1892
aking	-1893
▁--	-1894
▁rout	-1895
▁legal	-1896
stand	-1897
9.	-1898
▁horm	-1899
▁Jo	-1900
▁better	-1901
▁replace	-1902
▁flow	-1903
▁micro	-1904
▁today	-1905
iber	-1906
lands	-1907
▁tissue	-1908
▁stock	-1909
▁surgery	-1910
▁lot	-1911
▁Ste	-1912
▁199	-1913
▁hy	-1914
▁since	-1915
▁therap	-1916
lease	-1917
▁minimum	-1918
▁study	-1919
▁...	-1920
▁fee	-1921
▁vehic	-1922
▁respons	-1923
▁refer	-1924
▁provid	-1925
ygen	-1926
▁North	-1927
▁So	-1928
▁unit	-1929
edu	-1930
▁pregnancy	-1931
▁night	-1932
▁object	-1933
▁star	-1934
ires	-1935
icy	-1936
▁dom	-1937
▁Wind	-1938
▁apply	-1939
▁gre	-1940
▁country	-1941
▁surface	-1942
tt	-1943
▁next	-1944
▁indic	-1945
▁court	-1946
▁numbers	-1947
istics	-1948
▁mix	-1949
▁sex	-1950
arr	-1951
▁personal	-1952
2,	-1953
▁limit	-1954
▁liver	-1955
▁location	-1956
▁text	-1957
rench	-1958
8.	-1959
oma	-1960
▁exam	-1961
▁security	-1962
viron	-1963
▁X	-1964
▁purpose	-1965
▁away	-1966
▁eggs	-1967
▁either	-1968
▁sens	-1969
▁college	-1970
load	-1971
▁Ass	-1972
▁Comp	-1973
amed	-1974
ivil	-1975
▁box	-1976
▁members	-1977
▁inj	-1978
itch	-1979
▁half	-1980
mber	-1981
▁happens	-1982
ude	-1983
▁possible	-1984
ze	-1985
val	-1986
▁alcohol	-1987
ians	-1988
▁Serv	-1989
ems	-1990
▁feature	-1991
▁link	-1992
▁ess	-1993
ension	-1994
wood	-1995
ape	-1996
▁bal	-1997
▁muscles	-1998
▁sales	-1999
▁stom	-2000
▁length	-2001
▁mount	-2002
ured	-2003
▁national	-2004
ges	-2005
▁town	-2006
▁related	-2007
▁movie	-2008
▁living	-2009
▁conc	-2010
▁space	-2011
▁sure	-2012
▁species	-2013
ta	-2014
bur	-2015
IN	-2016
10	-2017
▁toget	-2018
▁license	-2019
▁together	-2020
iting	-2021
▁speed	-2022
odes	-2023
▁Su	-2024
not	-2025
▁tit	-2026
▁having	-2027
▁40	-2028
▁econ	-2029
reg	-2030
▁five	-2031
▁physical	-2032
▁dem	-2033
rist	-2034
▁tur	-2035
fric	-2036
aut	-2037
▁similar	-2038
▁Che	-2039
▁cast	-2040
▁always	-2041
ica	-2042
▁manag	-2043
▁oven	-2044
over	-2045
▁ang	-2046
itution	-2047
▁making	-2048
▁Man	-2049
▁prob	-2050
▁prevent	-2051
ico	-2052
▁annual	-2053
▁cup	-2054
▁cult	-2055
atin	-2056
▁terms	-2057
book	-2058
▁deb	-2059
acy	-2060
▁psych	-2061
▁electric	-2062
▁Go	-2063
ird	-2064
▁along	-2065
▁needs	-2066
▁urine	-2067
▁role	-2068
▁stomach	-2069
▁research	-2070
ference	-2071
reek	-2072
▁die	-2073
▁face	-2074
▁names	-2075
pe	-2076
▁results	-2077
▁created	-2078
6.	-2079
▁daily	-2080
ands	-2081
▁invent	-2082
▁south	-2083
▁mat	-2084
▁center	-2085
▁sleep	-2086
AT	-2087
▁parts	-2088
▁degrees	-2089
▁site	-2090
▁tell	-2091
▁milk	-2092
▁Te	-2093
rig	-2094
▁represent	-2095
▁My	-2096
ably	-2097
lished	-2098
vironment	-2099
▁blue	-2100
itary	-2101
▁author	-2102
▁plac	-2103
▁Mar	-2104
itor	-2105
ene	-2106
iddle	-2107
ees	-2108
ysis	-2109
ruction	-2110
▁changes	-2111
▁film	-2112
▁clos	-2113
▁comes	-2114
hyd	-2115
▁pack	-2116
omic	-2117
▁webs	-2118
▁mal	-2119
rect	-2120
▁position	-2121
▁cover	-2122
for	-2123
ancial	-2124
▁dogs	-2125
▁team	-2126
▁Intern	-2127
ster	-2128
though	-2129
▁joint	-2130
▁works	-2131
▁oxygen	-2132
▁tool	-2133
ey	-2134
▁York	-2135
▁tall	-2136
▁quick	-2137
▁invest	-2138
uses	-2139
▁May	-2140
▁north	-2141
cing	-2142
▁try	-2143
▁screen	-2144
▁growth	-2145
▁medication	-2146
▁assist	-2147
▁tex	-2148
▁primary	-2149
▁development	-2150
iff	-2151
ches	-2152
▁building	-2153
▁bond	-2154
ober	-2155
▁really	-2156
asc	-2157
ites	-2158
▁purch	-2159
▁meat	-2160
ww	-2161
▁opp	-2162
▁diff	-2163
minist	-2164
▁able	-2165
▁2015	-2166
▁hosp	-2167
▁girl	-2168
▁esp	-2169
▁pen	-2170
▁contrib	-2171
▁customer	-2172
▁nucle	-2173
▁typically	-2174
▁education	-2175
yroid	-2176
▁liqu	-2177
ufact	-2178
cription	-2179
▁produce	-2180
▁done	-2181
▁against	-2182
▁25	-2183
ards	-2184
rag	-2185
▁Qu	-2186
▁South	-2187
▁Windows	-2188
ope	-2189
▁,	-2190
▁windows	-2191
▁contains	-2192
▁1,	-2193
▁areas	-2194
▁taxes	-2195
key	-2196
ights	-2197
▁learn	-2198
▁airport	-2199
________	-2200
▁series	-2201
ellow	-2202
▁search	-2203
ache	-2204
▁patients	-2205
▁prom	-2206
▁tele	-2207
▁remov	-2208
▁hydro	-2209
go	-2210
▁expens	-2211
▁problem	-2212
▁recomm	-2213
▁management	-2214
org	-2215
resh	-2216
80	-2217
▁Sec	-2218
▁associated	-2219
▁impro	-2220
▁simple	-2221
▁14	-2222
inition	-2223
▁according	-2224
▁bacteria	-2225
▁log	-2226
▁Ear	-2227
orld	-2228
ological	-2229
▁easy	-2230
▁batter	-2231
▁fluid	-2232
▁students	-2233
▁sil	-2234
time	-2235
▁bow	-2236
▁symbol	-2237
▁nerve	-2238
▁him	-2239
ules	-2240
▁ever	-2241
▁room	-2242
ections	-2243
▁device	-2244
▁uses	-2245
▁rat	-2246
▁structure	-2247
.,	-2248
eding	-2249
▁pow	-2250
ustral	-2251
▁frequ	-2252
▁cit	-2253
▁sche	-2254
ique	-2255
▁friend	-2256
▁provides	-2257
usion	-2258
▁safe	-2259
ON	-2260
▁source	-2261
▁commonly	-2262
thing	-2263
bre	-2264
most	-2265
ray	-2266
▁forms	-2267
▁going	-2268
akes	-2269
▁tree	-2270
▁cases	-2271
aur	-2272
▁includes	-2273
▁mouth	-2274
▁takes	-2275
ised	-2276
▁video	-2277
▁ip	-2278
▁swe	-2279
▁gener	-2280
▁youâ	-2281
▁american	-2282
▁24	-2283
onym	-2284
xim	-2285
▁flor	-2286
▁complete	-2287
iple	-2288
iana	-2289
▁carbon	-2290
▁happen	-2291
▁hor	-2292
▁environment	-2293
▁inches	-2294
▁hem	-2295
edi	-2296
illed	-2297
ony	-2298
bor	-2299
rum	-2300
▁gar	-2301
▁proced	-2302
▁diagn	-2303
▁transfer	-2304
cast	-2305
500	-2306
▁helps	-2307
▁lik	-2308
▁priv	-2309
▁mess	-2310
▁Co	-2311
ister	-2312
ST	-2313
▁breat	-2314
7,	-2315
app	-2316
idence	-2317
avor	-2318
▁sent	-2319
▁six	-2320
che	-2321
▁artic	-2322
▁strong	-2323
▁dedu	-2324
ecially	-2325
▁Gen	-2326
▁By	-2327
▁inside	-2328
ado	-2329
ils	-2330
▁America	-2331
▁eyes	-2332
▁Off	-2333
▁drug	-2334
abet	-2335
ault	-2336
▁exerc	-2337
▁particular	-2338
25	-2339
▁ut	-2340
▁training	-2341
▁+	-2342
▁pie	-2343
▁receive	-2344
ival	-2345
▁har	-2346
▁occurs	-2347
6,	-2348
▁ways	-2349
▁effective	-2350
▁Fe	-2351
▁generally	-2352
▁quality	-2353
ictionary	-2354
self	-2355
▁$3	-2356
▁That	-2357
ief	-2358
▁damage	-2359
ery	-2360
ising	-2361
▁youn	-2362
▁maximum	-2363
¢	-2364
dule	-2365
▁website	-2366
ieve	-2367
▁0.	-2368
ead	-2369
oud	-2370
▁course	-2371
otic	-2372
▁clear	-2373
▁manufact	-2374
▁Gu	-2375
lement	-2376
room	-2377
be	-2378
▁Em	-2379
ike	-2380
uff	-2381
▁healthy	-2382
▁prop	-2383
aches	-2384
ccess	-2385
▁paper	-2386
▁region	-2387
hone	-2388
▁gall	-2389
▁loan	-2390
▁texas	-2391
▁Here	-2392
▁leave	-2393
▁records	-2394
▁disorder	-2395
▁vitamin	-2396
rete	-2397
vere	-2398
ention	-2399
gress	-2400
▁requirements	-2401
▁later	-2402
▁ground	-2403
▁magn	-2404
▁necess	-2405
▁gold	-2406
▁protect	-2407
▁meet	-2408
▁separ	-2409
ronic	-2410
▁corn	-2411
ilities	-2412
▁once	-2413
▁prices	-2414
ises	-2415
▁hyp	-2416
▁systems	-2417
▁fix	-2418
▁university	-2419
duct	-2420
▁document	-2421
ties	-2422
▁patient	-2423
▁organism	-2424
▁mach	-2425
▁application	-2426
ouble	-2427
▁Inst	-2428
RE	-2429
ae	-2430
soft	-2431
▁tend	-2432
▁Rec	-2433
▁Click	-2434
mission	-2435
▁vehicle	-2436
▁Fl	-2437
uel	-2438
ystem	-2439
avy	-2440
▁Act	-2441
▁Definition	-2442
▁rain	-2443
▁wal	-2444
▁ten	-2445
▁animals	-2446
▁sometimes	-2447
▁tub	-2448
▁Us	-2449
▁basic	-2450
ming	-2451
▁Sal	-2452
▁exc	-2453
pril	-2454
▁teeth	-2455
▁collect	-2456
▁close	-2457
ugust	-2458
▁front	-2459
▁fit	-2460
▁rib	-2461
ensus	-2462
▁others	-2463
pa	-2464
▁World	-2465
ibr	-2466
▁Im	-2467
▁egg	-2468
▁produced	-2469
▁defined	-2470
▁civil	-2471
▁National	-2472
ona	-2473
▁enough	-2474
▁Inc	-2475
ators	-2476
▁Tra	-2477
▁review	-2478
state	-2479
▁Dep	-2480
▁bur	-2481
bl	-2482
▁wood	-2483
▁bott	-2484
▁tick	-2485
ipe	-2486
▁florida	-2487
▁taking	-2488
orts	-2489
▁13	-2490
▁working	-2491
uly	-2492
▁regist	-2493
drome	-2494
▁Ne	-2495
▁California	-2496
olution	-2497
wh	-2498
▁(2	-2499
▁estab	-2500
me	-2501
▁Jan	-2502
dd	-2503
ype	-2504
▁calc	-2505
▁likely	-2506
▁software	-2507
▁2010	-2508
astic	-2509
ending	-2510
9,	-2511
▁factors	-2512
▁diseases	-2513
apan	-2514
ros	-2515
▁coun	-2516
▁points	-2517
▁financial	-2518
▁roast	-2519
▁drugs	-2520
utions	-2521
iam	-2522
▁love	-2523
▁especially	-2524
▁shows	-2525
▁She	-2526
▁sell	-2527
▁depending	-2528
▁consum	-2529
	-2530
▁Tex	-2531
▁offer	-2532
▁Dis	-2533
▁ask	-2534
▁From	-2535
▁late	-2536
hio	-2537
▁enter	-2538
▁variety	-2539
▁Pres	-2540
▁boil	-2541
▁understand	-2542
▁share	-2543
▁arter	-2544
▁See	-2545
▁veget	-2546
▁After	-2547
uary	-2548
▁rates	-2549
▁labor	-2550
▁movement	-2551
▁wid	-2552
inary	-2553
▁determine	-2554
▁Find	-2555
▁regular	-2556
▁across	-2557
▁floor	-2558
umber	-2559
▁Ge	-2560
8,	-2561
▁played	-2562
▁Inf	-2563
▁adj	-2564
▁etc	-2565
▁island	-2566
▁various	-2567
▁vi	-2568
aste	-2569
hers	-2570
▁creat	-2571
▁kidney	-2572
▁reason	-2573
▁community	-2574
att	-2575
chan	-2576
▁Pre	-2577
70	-2578
▁email	-2579
▁rights	-2580
▁nurs	-2581
▁60	-2582
▁heal	-2583
▁der	-2584
▁aud	-2585
▁quiz	-2586
▁whole	-2587
itude	-2588
▁doll	-2589
ication	-2590
▁ter	-2591
▁relations	-2592
oon	-2593
rate	-2594
▁host	-2595
▁autom	-2596
▁cycle	-2597
▁model	-2598
▁longer	-2599
ogn	-2600
ili	-2601
▁sat	-2602
▁kne	-2603
▁electr	-2604
▁Do	-2605
▁cool	-2606
▁thing	-2607
ximately	-2608
inn	-2609
▁active	-2610
irm	-2611
▁force	-2612
▁success	-2613
▁warm	-2614
▁deep	-2615
▁charg	-2616
▁signific	-2617
▁neg	-2618
ington	-2619
uation	-2620
▁scient	-2621
▁path	-2622
▁policy	-2623
▁vary	-2624
▁payment	-2625
▁fees	-2626
▁crit	-2627
▁kit	-2628
▁Des	-2629
▁height	-2630
▁complet	-2631
▁No	-2632
▁production	-2633
hold	-2634
cean	-2635
▁Use	-2636
▁bone	-2637
vious	-2638
▁woman	-2639
otes	-2640
▁web	-2641
▁animal	-2642
▁Germ	-2643
▁lym	-2644
▁sound	-2645
▁salt	-2646
▁event	-2647
▁iron	-2648
gra	-2649
▁outside	-2650
▁4.	-2651
▁estim	-2652
▁War	-2653
▁hol	-2654
oo	-2655
▁lun	-2656
▁mel	-2657
▁compan	-2658
▁Reg	-2659
▁#	-2660
aff	-2661
▁coll	-2662
▁cannot	-2663
▁california	-2664
pro	-2665
▁released	-2666
▁camp	-2667
▁Health	-2668
▁Europ	-2669
▁equal	-2670
▁liquid	-2671
▁consider	-2672
▁wide	-2673
ks	-2674
asons	-2675
▁miss	-2676
RA	-2677
ician	-2678
▁formed	-2679
▁sav	-2680
99	-2681
ologist	-2682
▁percentage	-2683
▁Add	-2684
▁Br	-2685
▁motor	-2686
▁deal	-2687
▁actually	-2688
▁doesn	-2689
▁hospital	-2690
-2	-2691
▁ny	-2692
▁files	-2693
light	-2694
▁glass	-2695
attle	-2696
▁pred	-2697
▁upd	-2698
▁pet	-2699
ota	-2700
▁ic	-2701
▁mineral	-2702
▁University	-2703
▁Air	-2704
▁cam	-2705
▁colon	-2706
▁mg	-2707
ops	-2708
pect	-2709
12	-2710
▁visit	-2711
▁saf	-2712
IC	-2713
rel	-2714
▁Pe	-2715
▁Per	-2716
▁gluc	-2717
urse	-2718
▁syndrome	-2719
mat	-2720
▁written	-2721
▁built	-2722
▁died	-2723
fort	-2724
▁soil	-2725
▁behav	-2726
▁never	-2727
▁dead	-2728
▁typical	-2729
▁professional	-2730
▁final	-2731
▁employees	-2732
▁sod	-2733
▁science	-2734
where	-2735
▁lif	-2736
wards	-2737
▁While	-2738
▁bag	-2739
▁industry	-2740
▁1/	-2741
▁attack	-2742
▁digest	-2743
SA	-2744
rim	-2745
▁ing	-2746
oice	-2747
▁however	-2748
omet	-2749
▁Park	-2750
▁schedule	-2751
▁potat	-2752
▁says	-2753
▁DNA	-2754
▁fig	-2755
oint	-2756
▁nerv	-2757
▁exist	-2758
icult	-2759
head	-2760
▁Trans	-2761
▁grams	-2762
▁answer	-2763
▁ago	-2764
▁named	-2765
▁getting	-2766
▁medicine	-2767
istic	-2768
riger	-2769
play	-2770
reet	-2771
earch	-2772
▁action	-2773
▁king	-2774
▁reduce	-2775
▁John	-2776
▁cra	-2777
▁zone	-2778
▁accept	-2779
ju	-2780
▁button	-2781
ores	-2782
▁copy	-2783
▁countries	-2784
▁bit	-2785
▁subject	-2786
anish	-2787
ibility	-2788
▁essential	-2789
anger	-2790
▁wire	-2791
▁taken	-2792
rote	-2793
▁chrom	-2794
▁influ	-2795
▁stress	-2796
▁pron	-2797
▁Other	-2798
fect	-2799
▁extra	-2800
▁wage	-2801
▁central	-2802
▁anal	-2803
la	-2804
▁bul	-2805
▁fail	-2806
gage	-2807
▁estate	-2808
▁approximately	-2809
ns	-2810
rents	-2811
▁true	-2812
▁spread	-2813
▁Brit	-2814
▁colors	-2815
▁Oct	-2816
▁expect	-2817
▁battery	-2818
▁therapy	-2819
▁pork	-2820
▁quizlet	-2821
▁jud	-2822
▁pub	-2823
▁sand	-2824
lin	-2825
▁Get	-2826
▁upper	-2827
▁sea	-2828
▁independ	-2829
ruit	-2830
▁regul	-2831
▁lat	-2832
▁neck	-2833
bit	-2834
▁brown	-2835
abetes	-2836
▁polit	-2837
▁ble	-2838
like	-2839
asing	-2840
▁tradition	-2841
▁eating	-2842
olf	-2843
▁Cor	-2844
▁mail	-2845
▁bed	-2846
▁among	-2847
AR	-2848
▁whether	-2849
▁employee	-2850
▁carry	-2851
▁correct	-2852
▁responsible	-2853
▁wed	-2854
estern	-2855
▁mort	-2856
▁TV	-2857
▁tests	-2858
▁fiber	-2859
▁female	-2860
▁prem	-2861
ply	-2862
▁anc	-2863
▁repair	-2864
▁military	-2865
burg	-2866
▁aff	-2867
▁routing	-2868
▁kids	-2869
▁ly	-2870
ogle	-2871
▁appl	-2872
▁pick	-2873
▁distrib	-2874
▁element	-2875
▁activity	-2876
▁print	-2877
▁pers	-2878
▁theory	-2879
▁administ	-2880
ham	-2881
▁init	-2882
▁Texas	-2883
▁fresh	-2884
▁signs	-2885
▁pu	-2886
▁companies	-2887
ha	-2888
▁excel	-2889
my	-2890
sel	-2891
▁stri	-2892
▁cross	-2893
▁middle	-2894
▁severe	-2895
▁river	-2896
▁self	-2897
▁laws	-2898
▁version	-2899
▁198	-2900
zym	-2901
ste	-2902
verse	-2903
........	-2904
▁Bo	-2905
▁elements	-2906
▁maintain	-2907
▁injury	-2908
▁resour	-2909
▁Best	-2910
▁yellow	-2911
▁functions	-2912
▁third	-2913
▁humans	-2914
ford	-2915
▁antib	-2916
▁ju	-2917
▁exercise	-2918
▁dest	-2919
▁relationship	-2920
▁vs	-2921
▁Me	-2922
AN	-2923
▁dark	-2924
▁rot	-2925
▁biggest	-2926
ued	-2927
▁ice	-2928
inger	-2929
▁membr	-2930
ba	-2931
▁dna	-2932
▁hormone	-2933
▁foc	-2934
ptember	-2935
▁Ro	-2936
▁paint	-2937
▁serious	-2938
▁necessary	-2939
▁Many	-2940
11	-2941
▁reaction	-2942
azon	-2943
gal	-2944
▁Ac	-2945
ritis	-2946
▁convert	-2947
▁inflamm	-2948
75	-2949
▁improve	-2950
ulf	-2951
▁germ	-2952
ses	-2953
▁photos	-2954
ux	-2955
▁player	-2956
care	-2957
board	-2958
▁prep	-2959
▁July	-2960
year	-2961
ored	-2962
▁sold	-2963
▁commerc	-2964
▁slow	-2965
▁soon	-2966
▁Pol	-2967
ius	-2968
▁pict	-2969
▁refriger	-2970
//	-2971
▁rare	-2972
▁circ	-2973
ership	-2974
▁adults	-2975
▁glob	-2976
ogen	-2977
▁send	-2978
▁Office	-2979
▁section	-2980
▁format	-2981
lation	-2982
ached	-2983
▁release	-2984
▁calculate	-2985
▁vess	-2986
▁directly	-2987
▁gradu	-2988
▁track	-2989
▁potential	-2990
ania	-2991
▁Our	-2992
▁materials	-2993
▁April	-2994
oses	-2995
▁bud	-2996
▁High	-2997
▁plays	-2998
▁summer	-2999
▁mid	-3000
▁roof	-3001
▁bottom	-3002
▁united	-3003
▁cab	-3004
▁More	-3005
▁chest	-3006
▁*	-3007
ales	-3008
▁concrete	-3009
vis	-3010
▁eth	-3011
▁respir	-3012
▁sem	-3013
iency	-3014
ecut	-3015
▁thyroid	-3016
▁male	-3017
▁difficult	-3018
▁pal	-3019
▁alb	-3020
▁pul	-3021
▁benefit	-3022
olina	-3023
▁married	-3024
▁student	-3025
▁According	-3026
ald	-3027
▁brand	-3028
▁capital	-3029
▁butter	-3030
▁Time	-3031
▁fly	-3032
▁speak	-3033
▁entire	-3034
▁corpor	-3035
▁got	-3036
▁Center	-3037
▁option	-3038
▁sen	-3039
rial	-3040
▁First	-3041
▁Sun	-3042
▁question	-3043
▁Ed	-3044
▁du	-3045
▁temperatures	-3046
put	-3047
▁mechan	-3048
▁international	-3049
izes	-3050
izz	-3051
▁mob	-3052
ustralia	-3053
ening	-3054
▁Afric	-3055
▁lymph	-3056
▁medium	-3057
://	-3058
▁arch	-3059
▁metal	-3060
-3	-3061
▁196	-3062
▁wear	-3063
▁infections	-3064
▁princ	-3065
▁technology	-3066
▁rid	-3067
ginia	-3068
▁id	-3069
▁write	-3070
oe	-3071
▁itâ	-3072
word	-3073
ched	-3074
▁washing	-3075
ror	-3076
▁party	-3077
▁Answer	-3078
hel	-3079
iles	-3080
▁tea	-3081
▁Home	-3082
change	-3083
▁cities	-3084
▁clin	-3085
▁dire	-3086
iday	-3087
▁plate	-3088
▁$4	-3089
▁tre	-3090
▁allows	-3091
▁vacc	-3092
ara	-3093
▁mac	-3094
idents	-3095
▁examples	-3096
iet	-3097
uk	-3098
▁mag	-3099
▁System	-3100
▁rh	-3101
▁Lear	-3102
rows	-3103
▁lines	-3104
▁January	-3105
▁ham	-3106
ography	-3107
ads	-3108
oups	-3109
▁refers	-3110
▁content	-3111
pat	-3112
▁Not	-3113
▁choose	-3114
▁Wash	-3115
inois	-3116
▁smell	-3117
aps	-3118
ought	-3119
▁bring	-3120
▁compet	-3121
15	-3122
used	-3123
▁band	-3124
▁organization	-3125
oster	-3126
▁thick	-3127
▁Eng	-3128
▁wrote	-3129
igan	-3130
▁Cour	-3131
itation	-3132
▁median	-3133
▁Cost	-3134
▁absor	-3135
▁synonym	-3136
▁Mon	-3137
▁save	-3138
▁seen	-3139
AL	-3140
▁ingred	-3141
▁bath	-3142
▁pounds	-3143
▁breast	-3144
▁additional	-3145
▁beef	-3146
▁glucose	-3147
▁fro	-3148
arily	-3149
ground	-3150
▁board	-3151
▁commercial	-3152
apt	-3153
new	-3154
▁beaut	-3155
top	-3156
▁lake	-3157
ago	-3158
▁layer	-3159
▁volume	-3160
▁started	-3161
▁positive	-3162
▁programs	-3163
▁starting	-3164
▁fib	-3165
▁article	-3166
ouch	-3167
▁features	-3168
empt	-3169
juana	-3170
▁pool	-3171
▁weigh	-3172
▁den	-3173
▁famous	-3174
▁letter	-3175
anced	-3176
▁Dr	-3177
▁km	-3178
▁almost	-3179
▁hyper	-3180
▁reach	-3181
▁flight	-3182
onse	-3183
▁draw	-3184
▁West	-3185
▁Gl	-3186
▁chart	-3187
▁soci	-3188
▁nurse	-3189
▁story	-3190
▁root	-3191
craft	-3192
▁French	-3193
▁consist	-3194
▁procedure	-3195
▁$5	-3196
▁cash	-3197
oke	-3198
▁Val	-3199
hib	-3200
▁Service	-3201
▁depos	-3202
▁diabetes	-3203
▁August	-3204
▁cand	-3205
▁Flor	-3206
ny	-3207
▁rank	-3208
▁fol	-3209
▁divid	-3210
▁offers	-3211
▁remain	-3212
arijuana	-3213
ffee	-3214
▁cry	-3215
▁Sw	-3216
▁complex	-3217
▁spring	-3218
▁90	-3219
▁john	-3220
▁prec	-3221
▁trees	-3222
rics	-3223
▁Rem	-3224
▁tooth	-3225
▁became	-3226
▁impact	-3227
pan	-3228
adder	-3229
rency	-3230
▁flag	-3231
▁Canada	-3232
▁manager	-3233
▁mother	-3234
▁transport	-3235
▁thro	-3236
▁title	-3237
▁zip	-3238
▁throughout	-3239
▁Sm	-3240
▁member	-3241
can	-3242
▁tv	-3243
▁designed	-3244
▁Earth	-3245
▁young	-3246
▁driving	-3247
iac	-3248
hea	-3249
ocr	-3250
▁solar	-3251
▁private	-3252
▁roll	-3253
▁Part	-3254
orders	-3255
▁official	-3256
▁questions	-3257
▁avoid	-3258
ES	-3259
OR	-3260
vered	-3261
▁kil	-3262
▁March	-3263
vey	-3264
▁assess	-3265
▁looking	-3266
▁monthly	-3267
▁enzym	-3268
▁Tw	-3269
annel	-3270
amb	-3271
▁San	-3272
▁categ	-3273
▁tu	-3274
cules	-3275
▁Sk	-3276
▁hur	-3277
▁matter	-3278
▁cub	-3279
▁provided	-3280
▁significant	-3281
rogen	-3282
▁Vir	-3283
▁gain	-3284
▁style	-3285
▁describe	-3286
set	-3287
▁tour	-3288
ocol	-3289
▁driver	-3290
▁molec	-3291
reng	-3292
field	-3293
▁behavior	-3294
sa	-3295
rition	-3296
▁School	-3297
▁son	-3298
▁Bar	-3299
▁spr	-3300
▁taste	-3301
▁steps	-3302
▁ability	-3303
▁Day	-3304
▁feed	-3305
▁obs	-3306
▁King	-3307
▁stra	-3308
▁beach	-3309
abol	-3310
ague	-3311
▁units	-3312
▁harm	-3313
▁window	-3314
▁multiple	-3315
▁extrem	-3316
▁weak	-3317
EN	-3318
▁mor	-3319
ship	-3320
▁statement	-3321
▁status	-3322
In	-3323
tes	-3324
▁fur	-3325
▁solution	-3326
look	-3327
ready	-3328
▁dose	-3329
▁Mean	-3330
▁double	-3331
▁obtain	-3332
mark	-3333
hesis	-3334
▁decre	-3335
adem	-3336
▁mind	-3337
▁Bu	-3338
ouis	-3339
▁enc	-3340
▁Net	-3341
▁impl	-3342
orthern	-3343
▁President	-3344
▁running	-3345
▁listed	-3346
▁21	-3347
▁invented	-3348
▁practice	-3349
▁pound	-3350
▁cere	-3351
▁5.	-3352
▁agre	-3353
▁Florida	-3354
orage	-3355
▁Read	-3356
phone	-3357
▁legs	-3358
orgia	-3359
▁drop	-3360
▁formula	-3361
ivity	-3362
▁leaves	-3363
▁items	-3364
▁balance	-3365
▁nc	-3366
▁Over	-3367
▁lose	-3368
▁June	-3369
▁machine	-3370
▁htt	-3371
back	-3372
▁seat	-3373
▁relative	-3374
roph	-3375
▁temp	-3376
▁gland	-3377
▁ach	-3378
▁map	-3379
unity	-3380
▁explain	-3381
▁lip	-3382
ston	-3383
▁oun	-3384
▁exact	-3385
▁compon	-3386
edia	-3387
era	-3388
ooth	-3389
▁Of	-3390
augh	-3391
▁suggest	-3392
▁door	-3393
unction	-3394
▁referred	-3395
▁included	-3396
▁homes	-3397
▁liter	-3398
orge	-3399
▁hands	-3400
▁covered	-3401
ged	-3402
▁sale	-3403
90	-3404
▁ball	-3405
▁already	-3406
▁horse	-3407
▁walk	-3408
▁added	-3409
▁Don	-3410
▁General	-3411
▁express	-3412
tings	-3413
ichigan	-3414
▁passport	-3415
▁teac	-3416
ulin	-3417
▁fever	-3418
ensity	-3419
vision	-3420
▁writing	-3421
ropri	-3422
▁increased	-3423
IT	-3424
aska	-3425
▁cart	-3426
▁genetic	-3427
-8	-3428
▁san	-3429
thritis	-3430
▁rich	-3431
amins	-3432
outhern	-3433
▁climate	-3434
box	-3435
rew	-3436
▁simply	-3437
▁wedding	-3438
▁mile	-3439
▁notice	-3440
▁goes	-3441
▁round	-3442
▁marijuana	-3443
uit	-3444
▁request	-3445
ext	-3446
umn	-3447
venue	-3448
▁noun	-3449
▁resist	-3450
▁ov	-3451
▁century	-3452
IS	-3453
▁mer	-3454
▁response	-3455
▁pull	-3456
▁larger	-3457
▁introdu	-3458
athy	-3459
▁cream	-3460
▁excess	-3461
▁depends	-3462
xi	-3463
cember	-3464
ansas	-3465
osure	-3466
▁intest	-3467
▁quickly	-3468
aged	-3469
▁options	-3470
▁October	-3471
▁pregnant	-3472
▁watch	-3473
▁probably	-3474
round	-3475
▁games	-3476
▁groups	-3477
inter	-3478
▁elev	-3479
rant	-3480
):	-3481
▁virus	-3482
▁developed	-3483
▁user	-3484
▁Op	-3485
▁values	-3486
▁grass	-3487
osition	-3488
▁perfect	-3489
▁Will	-3490
▁knee	-3491
▁rang	-3492
▁prior	-3493
▁chromos	-3494
ends	-3495
▁behind	-3496
come	-3497
▁fill	-3498
----	-3499
▁sus	-3500
▁Form	-3501
▁Check	-3502
terol	-3503
▁negative	-3504
▁Are	-3505
▁coc	-3506
▁came	-3507
eration	-3508
▁medications	-3509
osph	-3510
▁retire	-3511
▁Department	-3512
▁Washington	-3513
▁fut	-3514
gar	-3515
▁hit	-3516
▁coffee	-3517
▁calcium	-3518
▁parents	-3519
▁farm	-3520
▁nutri	-3521
▁controll	-3522
▁fair	-3523
▁dental	-3524
ipment	-3525
▁nursing	-3526
▁older	-3527
▁safety	-3528
ael	-3529
inate	-3530
▁House	-3531
▁ocean	-3532
▁suff	-3533
▁idea	-3534
▁stim	-3535
▁hotel	-3536
▁illness	-3537
riz	-3538
▁renew	-3539
asm	-3540
▁broad	-3541
olesterol	-3542
▁hom	-3543
▁decl	-3544
nes	-3545
▁jack	-3546
rs	-3547
ging	-3548
unk	-3549
▁regard	-3550
▁lungs	-3551
ively	-3552
▁concent	-3553
▁purchase	-3554
.)	-3555
▁norm	-3556
AC	-3557
▁Loc	-3558
▁citiz	-3559
▁pump	-3560
▁involved	-3561
▁tum	-3562
▁fund	-3563
met	-3564
▁amend	-3565
lection	-3566
▁streng	-3567
▁mi	-3568
rates	-3569
▁Each	-3570
atives	-3571
▁Sym	-3572
▁sources	-3573
olar	-3574
▁jobs	-3575
▁poly	-3576
▁cheese	-3577
▁stick	-3578
▁grand	-3579
▁surv	-3580
▁197	-3581
▁org	-3582
▁upon	-3583
unt	-3584
▁father	-3585
▁Just	-3586
▁road	-3587
rm	-3588
▁fuel	-3589
▁inflammation	-3590
▁supply	-3591
▁neu	-3592
▁wait	-3593
pir	-3594
zer	-3595
▁download	-3596
▁growing	-3597
iment	-3598
▁Stud	-3599
▁itself	-3600
▁modern	-3601
▁currently	-3602
,000.	-3603
▁Step	-3604
▁culture	-3605
lines	-3606
▁Also	-3607
place	-3608
▁Top	-3609
▁news	-3610
▁Medic	-3611
eal	-3612
izing	-3613
▁El	-3614
▁Aut	-3615
▁Up	-3616
▁skills	-3617
▁Security	-3618
▁molecules	-3619
▁shot	-3620
▁sweet	-3621
▁testing	-3622
▁vitamins	-3623
net	-3624
▁established	-3625
nam	-3626
amps	-3627
lant	-3628
rive	-3629
▁Out	-3630
▁las	-3631
▁tow	-3632
▁wild	-3633
ception	-3634
▁Ben	-3635
▁held	-3636
▁radio	-3637
▁defic	-3638
▁easily	-3639
alt	-3640
omb	-3641
▁gives	-3642
▁requires	-3643
umin	-3644
▁sch	-3645
▁cort	-3646
▁stage	-3647
▁throat	-3648
ovember	-3649
16	-3650
AS	-3651
▁internal	-3652
ava	-3653
bohyd	-3654
▁Micro	-3655
▁display	-3656
▁About	-3657
▁concept	-3658
▁Hist	-3659
▁load	-3660
▁abdom	-3661
▁inject	-3662
▁Bec	-3663
▁plus	-3664
▁favor	-3665
▁altern	-3666
▁canada	-3667
▁deduct	-3668
ena	-3669
ID	-3670
▁longest	-3671
▁dro	-3672
▁ft	-3673
▁grill	-3674
▁performance	-3675
▁tx	-3676
▁Min	-3677
▁gard	-3678
▁media	-3679
▁construction	-3680
ocy	-3681
▁hous	-3682
▁execut	-3683
▁currency	-3684
▁membrane	-3685
▁emb	-3686
uch	-3687
west	-3688
urch	-3689
▁80	-3690
▁dut	-3691
▁ratio	-3692
aint	-3693
▁ult	-3694
▁Christ	-3695
▁smaller	-3696
OT	-3697
bru	-3698
oul	-3699
▁schools	-3700
riage	-3701
▁cooking	-3702
▁branch	-3703
itute	-3704
▁vent	-3705
▁Greek	-3706
▁basis	-3707
▁parent	-3708
▁ast	-3709
▁sodium	-3710
▁River	-3711
▁expensive	-3712
▁quar	-3713
▁emerg	-3714
aving	-3715
▁scale	-3716
▁auto	-3717
▁flat	-3718
▁rules	-3719
born	-3720
▁properties	-3721
aces	-3722
▁Dist	-3723
▁ok	-3724
▁kill	-3725
▁mobile	-3726
▁unique	-3727
▁organisms	-3728
hood	-3729
▁yourself	-3730
5%	-3731
ondon	-3732
mitted	-3733
onic	-3734
▁Int	-3735
▁ens	-3736
▁useful	-3737
▁Although	-3738
osphere	-3739
och	-3740
▁bound	-3741
▁shape	-3742
▁football	-3743
▁washington	-3744
imal	-3745
▁iphone	-3746
▁discuss	-3747
▁September	-3748
ias	-3749
▁seeds	-3750
▁dim	-3751
uration	-3752
▁winter	-3753
ker	-3754
▁Please	-3755
▁previous	-3756
▁iP	-3757
▁cru	-3758
xiety	-3759
▁seed	-3760
ipation	-3761
oxide	-3762
▁rule	-3763
▁adjust	-3764
▁swelling	-3765
▁2017	-3766
▁analysis	-3767
▁cholesterol	-3768
▁sense	-3769
▁Mex	-3770
bruary	-3771
▁poison	-3772
▁70	-3773
▁View	-3774
▁stone	-3775
abit	-3776
ares	-3777
▁Bank	-3778
00.	-3779
▁apple	-3780
▁career	-3781
ED	-3782
▁bot	-3783
▁eff	-3784
▁2000	-3785
▁political	-3786
▁Pa	-3787
▁doing	-3788
▁Ser	-3789
▁tab	-3790
▁coup	-3791
▁Learn	-3792
his	-3793
uted	-3794
▁global	-3795
▁conduct	-3796
▁sq	-3797
▁shoulder	-3798
▁founded	-3799
▁ec	-3800
ences	-3801
▁viol	-3802
▁instead	-3803
▁Sub	-3804
▁2,	-3805
▁bor	-3806
▁Now	-3807
▁Pop	-3808
▁nit	-3809
arrhea	-3810
▁coverage	-3811
iqu	-3812
▁pair	-3813
▁salaries	-3814
▁graph	-3815
raction	-3816
yth	-3817
▁via	-3818
▁Comm	-3819
iot	-3820
▁CO	-3821
▁Pat	-3822
cus	-3823
draw	-3824
fficient	-3825
▁dat	-3826
-$	-3827
▁Bro	-3828
▁Sur	-3829
▁medicare	-3830
▁east	-3831
▁electrical	-3832
▁rev	-3833
▁cooked	-3834
▁ring	-3835
istry	-3836
▁ohio	-3837
▁conver	-3838
▁dictionary	-3839
▁mountain	-3840
▁Post	-3841
▁Number	-3842
▁station	-3843
cies	-3844
vity	-3845
▁analy	-3846
▁issues	-3847
▁disability	-3848
▁limited	-3849
▁secret	-3850
▁diam	-3851
▁powder	-3852
▁activities	-3853
off	-3854
▁atm	-3855
▁epis	-3856
▁agent	-3857
ades	-3858
▁mut	-3859
▁Char	-3860
▁fert	-3861
▁steak	-3862
▁trust	-3863
▁Ca	-3864
▁tank	-3865
ounced	-3866
ching	-3867
▁affected	-3868
▁drain	-3869
▁nation	-3870
▁pattern	-3871
▁Europe	-3872
▁organs	-3873
▁strateg	-3874
▁Bel	-3875
arian	-3876
▁accur	-3877
▁rather	-3878
▁Web	-3879
▁talk	-3880
▁mental	-3881
▁causing	-3882
ledge	-3883
▁please	-3884
▁metabol	-3885
▁Code	-3886
wide	-3887
estic	-3888
iful	-3889
oming	-3890
13	-3891
▁pharm	-3892
ogram	-3893
▁Social	-3894
▁menu	-3895
▁concer	-3896
▁provider	-3897
OS	-3898
▁beg	-3899
▁cord	-3900
▁donâ	-3901
▁traditional	-3902
▁trade	-3903
14	-3904
▁2014	-3905
▁phil	-3906
▁spl	-3907
▁wat	-3908
▁began	-3909
▁shown	-3910
chen	-3911
▁tox	-3912
ris	-3913
▁Ang	-3914
▁recogn	-3915
ping	-3916
-4	-3917
▁serve	-3918
▁learning	-3919
▁Ke	-3920
▁west	-3921
.	-3922
▁cards	-3923
▁leading	-3924
osing	-3925
right	-3926
▁spot	-3927
▁wine	-3928
▁immedi	-3929
neys	-3930
rier	-3931
▁allerg	-3932
▁individuals	-3933
zen	-3934
▁future	-3935
▁certific	-3936
▁reported	-3937
▁chlor	-3938
▁voice	-3939
▁thin	-3940
rupt	-3941
▁(3	-3942
▁mex	-3943
▁disorders	-3944
tr	-3945
▁tim	-3946
▁truck	-3947
▁command	-3948
rab	-3949
▁gets	-3950
arc	-3951
iter	-3952
vest	-3953
▁spir	-3954
▁mortgage	-3955
▁gene	-3956
▁users	-3957
regon	-3958
▁recommended	-3959
▁image	-3960
▁combination	-3961
▁Mus	-3962
▁nose	-3963
▁sings	-3964
▁refund	-3965
▁isn	-3966
▁heavy	-3967
term	-3968
ella	-3969
▁train	-3970
▁replacement	-3971
▁cm	-3972
ropriate	-3973
ios	-3974
opy	-3975
iding	-3976
▁counter	-3977
▁installation	-3978
▁stimul	-3979
▁shop	-3980
ero	-3981
joy	-3982
▁substance	-3983
lish	-3984
▁anxiety	-3985
aging	-3986
▁steel	-3987
▁storage	-3988
RS	-3989
icago	-3990
now	-3991
rad	-3992
▁babies	-3993
▁stored	-3994
ects	-3995
eech	-3996
▁Har	-3997
orning	-3998
▁pit	-3999
▁ol	-4000
▁disp	-4001
uous	-4002
▁Mc	-4003
▁mic	-4004
▁tong	-4005
overed	-4006
rizona	-4007
uce	-4008
▁ga	-4009
down	-4010
▁mom	-4011
▁bones	-4012
▁devices	-4013
ban	-4014
based	-4015
▁places	-4016
▁factor	-4017
▁compared	-4018
▁Ins	-4019
▁2013	-4020
▁elig	-4021
▁equipment	-4022
ria	-4023
▁carbohyd	-4024
▁estimated	-4025
▁resources	-4026
IP	-4027
▁Japan	-4028
▁trig	-4029
▁note	-4030
▁diarrhea	-4031
▁detail	-4032
ylv	-4033
▁danger	-4034
▁increases	-4035
▁stool	-4036
water	-4037
▁histor	-4038
▁english	-4039
▁Latin	-4040
▁experien	-4041
▁constitution	-4042
▁diss	-4043
▁cro	-4044
▁rent	-4045
emia	-4046
▁gal	-4047
▁________	-4048
▁moon	-4049
▁wave	-4050
ightly	-4051
▁affects	-4052
▁rub	-4053
▁Water	-4054
▁depression	-4055
DA	-4056
▁events	-4057
ears	-4058
▁http	-4059
ipal	-4060
▁Tax	-4061
▁registered	-4062
▁Care	-4063
▁internet	-4064
▁cats	-4065
▁beans	-4066
▁details	-4067
▁II	-4068
▁lack	-4069
▁anything	-4070
▁Once	-4071
▁carp	-4072
ket	-4073
inct	-4074
▁va	-4075
▁estimate	-4076
▁proteins	-4077
▁processes	-4078
pped	-4079
▁German	-4080
▁British	-4081
▁consists	-4082
▁eval	-4083
ciation	-4084
▁reference	-4085
▁ingredients	-4086
▁Par	-4087
▁frame	-4088
▁mis	-4089
▁expenses	-4090
▁issue	-4091
▁tal	-4092
▁piece	-4093
▁tables	-4094
▁greater	-4095
▁vessels	-4096
▁economic	-4097
erk	-4098
ounce	-4099
▁dial	-4100
▁Since	-4101
▁withdraw	-4102
roke	-4103
▁sin	-4104
▁switch	-4105
▁documents	-4106
hens	-4107
▁December	-4108
▁drinking	-4109
▁Food	-4110
▁census	-4111
▁fel	-4112
▁ple	-4113
▁ancient	-4114
▁exchange	-4115
▁Information	-4116
▁Work	-4117
▁bake	-4118
▁Cur	-4119
▁Del	-4120
▁union	-4121
▁thought	-4122
▁manufacture	-4123
▁panc	-4124
▁tuition	-4125
▁arg	-4126
▁rap	-4127
▁tools	-4128
▁workers	-4129
▁interact	-4130
ka	-4131
stone	-4132
edy	-4133
▁quant	-4134
▁moving	-4135
▁poll	-4136
▁dress	-4137
▁employer	-4138
▁characteristics	-4139
▁Cong	-4140
BC	-4141
▁Sim	-4142
arget	-4143
▁minute	-4144
▁International	-4145
▁Spec	-4146
▁fruit	-4147
▁Mark	-4148
osite	-4149
▁Medical	-4150
lim	-4151
▁?	-4152
lebr	-4153
▁gro	-4154
▁tract	-4155
nd	-4156
▁Lake	-4157
▁operating	-4158
▁boy	-4159
▁sports	-4160
▁hearing	-4161
▁surround	-4162
▁Search	-4163
▁insert	-4164
▁restaur	-4165
▁cred	-4166
abor	-4167
65	-4168
▁lapt	-4169
▁carbs	-4170
▁nutrition	-4171
BA	-4172
▁occup	-4173
▁commit	-4174
▁touch	-4175
▁received	-4176
▁Microsoft	-4177
ned	-4178
inese	-4179
▁Miss	-4180
▁belong	-4181
iny	-4182
ully	-4183
▁Fam	-4184
▁mit	-4185
▁usa	-4186
abase	-4187
▁recent	-4188
▁reasons	-4189
▁cars	-4190
▁immune	-4191
▁constant	-4192
▁capac	-4193
▁phr	-4194
▁police	-4195
cript	-4196
▁Stand	-4197
▁ax	-4198
▁seven	-4199
emb	-4200
▁Port	-4201
▁smok	-4202
▁cable	-4203
▁server	-4204
▁Associ	-4205
▁ton	-4206
▁Stat	-4207
▁Cons	-4208
▁snow	-4209
▁tongue	-4210
▁Internet	-4211
▁22	-4212
▁Town	-4213
▁album	-4214
▁plans	-4215
▁spend	-4216
▁strength	-4217
erate	-4218
ylvania	-4219
▁applied	-4220
▁separate	-4221
▁led	-4222
▁beginning	-4223
▁23	-4224
odies	-4225
▁channel	-4226
▁Open	-4227
thesis	-4228
▁Black	-4229
▁Mount	-4230
▁molecule	-4231
▁variable	-4232
▁bon	-4233
▁staff	-4234
▁People	-4235
ema	-4236
sts	-4237
▁cough	-4238
▁debt	-4239
▁players	-4240
cell	-4241
▁lost	-4242
▁coast	-4243
▁Ma	-4244
▁direction	-4245
▁Ag	-4246
assium	-4247
▁evidence	-4248
▁army	-4249
enns	-4250
▁retirement	-4251
17	-4252
aker	-4253
▁ban	-4254
ira	-4255
see	-4256
▁Set	-4257
▁took	-4258
normal	-4259
▁therm	-4260
▁chronic	-4261
zz	-4262
▁Island	-4263
ye	-4264
▁Red	-4265
▁york	-4266
▁Under	-4267
▁composed	-4268
PA	-4269
▁Const	-4270
▁serving	-4271
▁Ir	-4272
▁forecast	-4273
▁refrigerator	-4274
▁billion	-4275
iate	-4276
▁flex	-4277
▁Sympt	-4278
▁advant	-4279
▁Hot	-4280
▁scan	-4281
CT	-4282
▁guide	-4283
omas	-4284
▁Det	-4285
▁actor	-4286
▁potatoes	-4287
'.	-4288
▁Place	-4289
▁White	-4290
▁agreement	-4291
▁Then	-4292
▁valid	-4293
eles	-4294
▁lung	-4295
▁failure	-4296
▁November	-4297
▁sed	-4298
▁Free	-4299
▁club	-4300
▁fort	-4301
▁vegetables	-4302
▁nature	-4303
▁vision	-4304
▁motion	-4305
▁figure	-4306
▁speech	-4307
▁nervous	-4308
▁protection	-4309
▁produces	-4310
opl	-4311
▁28	-4312
house	-4313
▁anti	-4314
imb	-4315
▁6.	-4316
▁wife	-4317
▁native	-4318
▁although	-4319
▁row	-4320
▁Select	-4321
▁stores	-4322
▁household	-4323
▁doct	-4324
▁breath	-4325
▁memory	-4326
gas	-4327
alty	-4328
▁message	-4329
col	-4330
▁allowed	-4331
cut	-4332
aching	-4333
▁codes	-4334
▁phosph	-4335
ga	-4336
▁inn	-4337
ipping	-4338
▁owner	-4339
▁reprodu	-4340
▁installed	-4341
▁Met	-4342
▁eight	-4343
▁During	-4344
inated	-4345
▁Services	-4346
ensive	-4347
mia	-4348
▁fer	-4349
ichael	-4350
▁straight	-4351
▁afric	-4352
ION	-4353
town	-4354
▁Rel	-4355
▁bowl	-4356
▁blo	-4357
▁hormones	-4358
iers	-4359
▁glands	-4360
▁Weather	-4361
▁respect	-4362
▁oz	-4363
brev	-4364
ennsylvania	-4365
▁hip	-4366
▁rice	-4367
▁Colle	-4368
▁column	-4369
▁anywhere	-4370
▁else	-4371
▁Court	-4372
▁Note	-4373
▁scientific	-4374
St	-4375
▁marg	-4376
ructions	-4377
▁amendment	-4378
▁CA	-4379
illa	-4380
▁arthritis	-4381
▁customers	-4382
ament	-4383
ivery	-4384
▁passed	-4385
▁recorded	-4386
gy	-4387
ders	-4388
▁aid	-4389
▁core	-4390
▁grant	-4391
18	-4392
atur	-4393
▁identify	-4394
olve	-4395
ascular	-4396
cers	-4397
iling	-4398
▁crim	-4399
▁default	-4400
▁instrum	-4401
des	-4402
force	-4403
ffe	-4404
▁India	-4405
▁Old	-4406
▁East	-4407
▁hourly	-4408
iring	-4409
lying	-4410
▁apart	-4411
▁appropriate	-4412
▁$10	-4413
▁foll	-4414
▁ship	-4415
▁focus	-4416
▁index	-4417
▁uk	-4418
▁ven	-4419
▁waste	-4420
▁independent	-4421
▁Great	-4422
19	-4423
▁sequ	-4424
▁juice	-4425
**	-4426
▁Vis	-4427
press	-4428
▁further	-4429
▁500	-4430
▁fo	-4431
vant	-4432
▁Bus	-4433
▁Meaning	-4434
22	-4435
▁broken	-4436
▁organic	-4437
%.	-4438
▁mc	-4439
▁pupp	-4440
▁methods	-4441
▁ye	-4442
reas	-4443
▁trump	-4444
▁setting	-4445
▁beautiful	-4446
LE	-4447
lier	-4448
alian	-4449
▁kitchen	-4450
▁sick	-4451
▁cryst	-4452
▁solid	-4453
cin	-4454
unch	-4455
▁studies	-4456
▁vaccine	-4457
▁Carolina	-4458
▁az	-4459
pire	-4460
▁goal	-4461
▁divor	-4462
▁match	-4463
▁Federal	-4464
rh	-4465
▁perman	-4466
▁accounts	-4467
fall	-4468
▁portion	-4469
▁Virginia	-4470
▁$6	-4471
▁Ret	-4472
▁fridge	-4473
band	-4474
ource	-4475
▁Color	-4476
▁choice	-4477
▁opening	-4478
45	-4479
orial	-4480
▁lyrics	-4481
▁acids	-4482
▁Because	-4483
▁yet	-4484
▁vict	-4485
▁vote	-4486
▁foreign	-4487
▁moist	-4488
▁rough	-4489
▁begins	-4490
▁radiation	-4491
idel	-4492
▁Name	-4493
igation	-4494
▁coming	-4495
▁derived	-4496
▁removed	-4497
avid	-4498
▁Law	-4499
▁licens	-4500
▁master	-4501
▁sheet	-4502
▁differences	-4503
▁py	-4504
lets	-4505
▁owns	-4506
▁ira	-4507
▁stre	-4508
▁task	-4509
acific	-4510
▁bleeding	-4511
▁payments	-4512
:00	-4513
omen	-4514
▁vag	-4515
▁published	-4516
www	-4517
▁bread	-4518
▁dip	-4519
▁entry	-4520
▁February	-4521
▁rash	-4522
▁laptop	-4523
ensation	-4524
osc	-4525
gers	-4526
PS	-4527
ened	-4528
▁waves	-4529
▁electricity	-4530
dy	-4531
rated	-4532
▁Word	-4533
▁spinal	-4534
▁Average	-4535
-5	-4536
amine	-4537
▁clot	-4538
▁brows	-4539
rie	-4540
▁warrant	-4541
▁stream	-4542
▁chain	-4543
▁detect	-4544
▁recommend	-4545
oln	-4546
lock	-4547
▁Sen	-4548
▁fab	-4549
▁morning	-4550
▁Start	-4551
▁officer	-4552
▁tun	-4553
overy	-4554
▁earned	-4555
▁opport	-4556
▁assistant	-4557
▁locations	-4558
aughter	-4559
▁flower	-4560
▁friends	-4561
isp	-4562
iest	-4563
ady	-4564
bed	-4565
▁enjoy	-4566
▁tender	-4567
▁department	-4568
▁completely	-4569
anes	-4570
ture	-4571
▁pap	-4572
▁silver	-4573
▁sore	-4574
▁thous	-4575
▁Let	-4576
isco	-4577
▁changed	-4578
▁successful	-4579
▁capt	-4580
ani	-4581
▁Mac	-4582
ality	-4583
ilies	-4584
▁former	-4585
▁expected	-4586
▁certificate	-4587
uries	-4588
▁starts	-4589
▁burning	-4590
part	-4591
ession	-4592
▁sample	-4593
ette	-4594
isions	-4595
▁1/2	-4596
▁Cle	-4597
▁drag	-4598
incoln	-4599
▁tissues	-4600
▁nutrients	-4601
▁tom	-4602
▁legis	-4603
▁stars	-4604
▁rab	-4605
▁rom	-4606
▁item	-4607
▁nearly	-4608
het	-4609
▁45	-4610
▁mig	-4611
ersey	-4612
▁normally	-4613
iology	-4614
▁Make	-4615
▁wheel	-4616
▁communication	-4617
▁battle	-4618
ployment	-4619
iant	-4620
▁His	-4621
▁observ	-4622
▁insulin	-4623
▁verb	-4624
▁plastic	-4625
▁kidneys	-4626
IV	-4627
▁7.	-4628
fish	-4629
▁Report	-4630
▁artery	-4631
gment	-4632
pping	-4633
▁minor	-4634
▁northern	-4635
▁surn	-4636
▁UK	-4637
▁dent	-4638
terior	-4639
▁Congress	-4640
▁pc	-4641
umps	-4642
ternal	-4643
▁Rock	-4644
▁meal	-4645
▁budget	-4646
▁reflect	-4647
pes	-4648
▁8.	-4649
▁irs	-4650
swers	-4651
▁vine	-4652
▁lives	-4653
▁academ	-4654
▁actual	-4655
tenance	-4656
▁forward	-4657
hal	-4658
▁quite	-4659
▁reading	-4660
95	-4661
▁sides	-4662
ican	-4663
▁progress	-4664
▁USA	-4665
▁Mexico	-4666
▁agency	-4667
▁believe	-4668
▁overall	-4669
▁prescrib	-4670
obe	-4671
▁TH	-4672
▁gly	-4673
acing	-4674
▁cond	-4675
▁mild	-4676
▁raw	-4677
▁PC	-4678
▁consult	-4679
▁qualify	-4680
clus	-4681
▁List	-4682
▁district	-4683
▁breathing	-4684
ager	-4685
▁cas	-4686
▁emot	-4687
▁fight	-4688
▁resident	-4689
▁rob	-4690
▁furn	-4691
▁potassium	-4692
va	-4693
▁math	-4694
▁shall	-4695
▁Ill	-4696
▁flo	-4697
▁hon	-4698
ester	-4699
▁accom	-4700
▁ready	-4701
▁Dictionary	-4702
▁limits	-4703
▁becomes	-4704
▁picture	-4705
▁clinical	-4706
35	-4707
nown	-4708
▁reb	-4709
amples	-4710
onia	-4711
▁acqu	-4712
▁inch	-4713
▁phase	-4714
▁amounts	-4715
▁collection	-4716
nel	-4717
▁celebr	-4718
▁feeling	-4719
▁quarter	-4720
▁planning	-4721
▁everything	-4722
▁gast	-4723
▁prostate	-4724
da	-4725
ners	-4726
▁Any	-4727
▁gum	-4728
▁Central	-4729
▁195	-4730
▁wonder	-4731
▁measured	-4732
itan	-4733
▁appears	-4734
▁television	-4735
▁ul	-4736
adian	-4737
▁aw	-4738
▁latest	-4739
▁nj	-4740
▁target	-4741
▁frequency	-4742
▁distribution	-4743
▁je	-4744
▁knowledge	-4745
US	-4746
nal	-4747
▁van	-4748
point	-4749
▁Supp	-4750
▁approved	-4751
▁nor	-4752
▁mamm	-4753
▁Green	-4754
▁Street	-4755
▁garden	-4756
▁dollars	-4757
▁veter	-4758
cont	-4759
zing	-4760
▁biology	-4761
▁indicate	-4762
▁structures	-4763
ca	-4764
ertain	-4765
▁Power	-4766
▁symptom	-4767
▁sentence	-4768
uth	-4769
▁Pay	-4770
encies	-4771
▁Area	-4772
nessee	-4773
selves	-4774
▁password	-4775
▁determined	-4776
cal	-4777
amic	-4778
onut	-4779
▁trail	-4780
▁compound	-4781
▁purposes	-4782
gg	-4783
▁Sum	-4784
▁ank	-4785
leg	-4786
▁adop	-4787
▁Enter	-4788
▁books	-4789
▁economy	-4790
▁marriage	-4791
▁dependent	-4792
orney	-4793
▁Direct	-4794
▁mexico	-4795
24	-4796
wise	-4797
▁Hol	-4798
▁hun	-4799
▁plat	-4800
atically	-4801
▁Dec	-4802
▁bridge	-4803
▁abnormal	-4804
sequ	-4805
▁firm	-4806
za	-4807
ras	-4808
▁Itâ	-4809
icial	-4810
ibrary	-4811
lements	-4812
▁Census	-4813
ube	-4814
▁basket	-4815
▁volcan	-4816
▁initial	-4817
▁minerals	-4818
▁Sl	-4819
eria	-4820
▁criminal	-4821
▁pun	-4822
▁sac	-4823
▁Hum	-4824
▁golf	-4825
▁database	-4826
▁performed	-4827
ING	-4828
MS	-4829
sm	-4830
-20	-4831
▁leader	-4832
▁retail	-4833
▁majority	-4834
ander	-4835
▁Africa	-4836
pm	-4837
▁26	-4838
▁assign	-4839
▁killed	-4840
▁accounting	-4841
ript	-4842
▁summ	-4843
▁Beach	-4844
▁virt	-4845
▁smart	-4846
▁Program	-4847
▁southern	-4848
oper	-4849
▁smooth	-4850
▁shel	-4851
▁ounces	-4852
▁Ob	-4853
ahren	-4854
▁mold	-4855
▁neut	-4856
▁fully	-4857
▁singer	-4858
▁Blue	-4859
▁tomat	-4860
▁Typ	-4861
▁transl	-4862
▁connection	-4863
bert	-4864
▁cloud	-4865
▁delivery	-4866
ola	-4867
▁fung	-4868
▁sauce	-4869
▁divided	-4870
▁diagnosis	-4871
▁haw	-4872
abama	-4873
ensions	-4874
▁Test	-4875
▁girls	-4876
▁originally	-4877
▁crime	-4878
▁hydrogen	-4879
▁seal	-4880
▁35	-4881
▁relig	-4882
ayer	-4883
ucky	-4884
illage	-4885
▁alone	-4886
▁telephone	-4887
cil	-4888
▁AT	-4889
▁Conn	-4890
▁Class	-4891
▁habit	-4892
▁whose	-4893
▁amazon	-4894
▁2012	-4895
▁joints	-4896
▁convers	-4897
▁settings	-4898
ora	-4899
▁swim	-4900
▁ST	-4901
arant	-4902
itect	-4903
▁turkey	-4904
▁gift	-4905
▁194	-4906
▁disney	-4907
eless	-4908
iated	-4909
▁microsoft	-4910
▁hall	-4911
▁dangerous	-4912
etts	-4913
▁pig	-4914
▁rise	-4915
▁attend	-4916
▁salmon	-4917
▁applications	-4918
▁chall	-4919
▁coord	-4920
▁planet	-4921
▁domestic	-4922
▁oral	-4923
▁fertil	-4924
▁brother	-4925
▁deficiency	-4926
aced	-4927
rine	-4928
▁rocks	-4929
▁width	-4930
▁neigh	-4931
▁properly	-4932
▁fine	-4933
▁went	-4934
▁residents	-4935
oring	-4936
▁phen	-4937
▁stret	-4938
▁Ve	-4939
rast	-4940
urally	-4941
▁q	-4942
irt	-4943
▁lem	-4944
apter	-4945
▁tube	-4946
It	-4947
▁abbrev	-4948
▁deposit	-4949
heit	-4950
▁society	-4951
▁pil	-4952
▁reserv	-4953
▁claims	-4954
▁faster	-4955
-6	-4956
33	-4957
▁favorite	-4958
ls	-4959
ded	-4960
onsin	-4961
▁fixed	-4962
quar	-4963
▁nar	-4964
▁teacher	-4965
cher	-4966
▁Its	-4967
ument	-4968
▁mostly	-4969
▁tempor	-4970
▁density	-4971
].	-4972
▁frozen	-4973
▁airlines	-4974
▁discovered	-4975
▁engineering	-4976
77	-4977
▁il	-4978
▁transact	-4979
iat	-4980
ophy	-4981
orms	-4982
▁adapt	-4983
▁rou	-4984
▁Jack	-4985
▁Mass	-4986
▁Plan	-4987
▁Every	-4988
▁cabin	-4989
▁rapid	-4990
isconsin	-4991
▁Som	-4992
▁News	-4993
▁mode	-4994
elcome	-4995
▁india	-4996
▁reports	-4997
88	-4998
bra	-4999
achus	-5000
▁trip	-5001
▁continue	-5002
▁fra	-5003
active	-5004
▁Techn	-5005
▁baseball	-5006
▁psychology	-5007
▁Bill	-5008
▁visa	-5009
▁valve	-5010
▁ticket	-5011
▁walking	-5012
▁ones	-5013
▁walls	-5014
▁Business	-5015
▁measures	-5016
▁slightly	-5017
▁primarily	-5018
ii	-5019
oston	-5020
▁Down	-5021
izations	-5022
agen	-5023
oman	-5024
▁Long	-5025
▁Russ	-5026
▁lowest	-5027
▁nuclear	-5028
ahrenheit	-5029
▁Symptoms	-5030
▁dys	-5031
▁Fire	-5032
▁dish	-5033
▁demand	-5034
▁trying	-5035
▁operation	-5036
lob	-5037
roy	-5038
edic	-5039
poon	-5040
▁appoint	-5041
▁monitor	-5042
▁seconds	-5043
▁decision	-5044
aii	-5045
▁Hel	-5046
▁placed	-5047
▁fastest	-5048
▁premium	-5049
▁eligible	-5050
eed	-5051
▁highly	-5052
▁orange	-5053
▁Orig	-5054
▁disco	-5055
▁Company	-5056
▁japan	-5057
▁shoot	-5058
achusetts	-5059
▁Fore	-5060
▁breed	-5061
▁executive	-5062
▁anyone	-5063
vin	-5064
▁meant	-5065
▁College	-5066
▁Her	-5067
▁immig	-5068
▁profit	-5069
▁treated	-5070
orie	-5071
▁spect	-5072
▁marketing	-5073
charge	-5074
▁raise	-5075
▁couple	-5076
▁bladder	-5077
▁citizens	-5078
▁administr	-5079
ided	-5080
berry	-5081
▁served	-5082
▁certification	-5083
▁Public	-5084
▁England	-5085
▁wireless	-5086
▁jour	-5087
▁prime	-5088
▁congress	-5089
▁Elect	-5090
▁dioxide	-5091
dem	-5092
▁describes	-5093
▁pel	-5094
▁pret	-5095
▁employment	-5096
▁division	-5097
den	-5098
▁neur	-5099
▁compar	-5100
▁emergency	-5101
▁Dem	-5102
▁lock	-5103
▁prefer	-5104
▁atmosphere	-5105
aph	-5106
▁wet	-5107
ET	-5108
arp	-5109
▁3,	-5110
orpor	-5111
▁critical	-5112
▁particip	-5113
▁Australia	-5114
▁healthcare	-5115
ita	-5116
▁IN	-5117
▁cloth	-5118
▁surname	-5119
▁CD	-5120
RO	-5121
efore	-5122
▁connected	-5123
▁fa	-5124
more	-5125
mond	-5126
▁google	-5127
▁paying	-5128
▁(4	-5129
icks	-5130
aked	-5131
▁Treat	-5132
▁yeast	-5133
▁folder	-5134
airs	-5135
▁acute	-5136
vention	-5137
▁recovery	-5138
▁ske	-5139
▁Google	-5140
▁classes	-5141
▁profession	-5142
ini	-5143
▁Whe	-5144
▁Face	-5145
▁vert	-5146
▁Credit	-5147
▁Id	-5148
ouri	-5149
▁dates	-5150
▁pepper	-5151
▁signed	-5152
▁capacity	-5153
dden	-5154
▁tile	-5155
▁ribs	-5156
duc	-5157
osa	-5158
▁La	-5159
▁tor	-5160
▁except	-5161
comp	-5162
▁ranges	-5163
▁michigan	-5164
inant	-5165
▁Expl	-5166
▁involves	-5167
▁Fin	-5168
▁fract	-5169
iotic	-5170
▁poor	-5171
▁falls	-5172
EL	-5173
also	-5174
▁sudden	-5175
▁boat	-5176
▁communic	-5177
iotics	-5178
izer	-5179
▁desert	-5180
▁finish	-5181
▁originate	-5182
▁widely	-5183
▁flowers	-5184
▁savings	-5185
▁languages	-5186
ausea	-5187
▁Phot	-5188
▁nick	-5189
amsung	-5190
▁respiratory	-5191
ky	-5192
▁AM	-5193
▁Spanish	-5194
▁certified	-5195
▁pin	-5196
▁____	-5197
▁dollar	-5198
ours	-5199
▁cake	-5200
▁existing	-5201
▁susp	-5202
▁funds	-5203
▁bacterial	-5204
▁Prof	-5205
▁fing	-5206
▁Press	-5207
▁digital	-5208
asma	-5209
▁cod	-5210
▁edge	-5211
▁sexual	-5212
▁providing	-5213
AM	-5214
tra	-5215
free	-5216
▁Child	-5217
ario	-5218
▁Bra	-5219
▁deck	-5220
▁uter	-5221
▁irrit	-5222
▁pieces	-5223
▁hus	-5224
▁Sign	-5225
▁Common	-5226
▁followed	-5227
▁delete	-5228
▁ensure	-5229
▁issued	-5230
▁package	-5231
▁Mem	-5232
▁Super	-5233
▁attempt	-5234
▁regions	-5235
▁western	-5236
▁director	-5237
▁background	-5238
▁investment	-5239
▁Mag	-5240
▁Syn	-5241
ureau	-5242
▁Mary	-5243
▁hors	-5244
▁looks	-5245
▁earnings	-5246
▁digestive	-5247
fr	-5248
well	-5249
▁fle	-5250
cular	-5251
▁tips	-5252
▁described	-5253
▁insp	-5254
▁enzyme	-5255
▁maintenance	-5256
▁prescription	-5257
uts	-5258
▁ml	-5259
▁seem	-5260
▁shell	-5261
▁equival	-5262
mic	-5263
reme	-5264
▁finger	-5265
▁happened	-5266
owa	-5267
▁bowel	-5268
▁od	-5269
▁bonds	-5270
▁french	-5271
▁exactly	-5272
apor	-5273
ouston	-5274
▁periods	-5275
iary	-5276
▁themselves	-5277
known	-5278
oz	-5279
▁Ohio	-5280
▁wrong	-5281
▁Americans	-5282
▁Cook	-5283
▁shing	-5284
▁hotels	-5285
▁Tod	-5286
▁seek	-5287
▁owned	-5288
▁History	-5289
▁parking	-5290
▁votes	-5291
▁components	-5292
dale	-5293
▁Phil	-5294
▁pink	-5295
▁complic	-5296
▁exposure	-5297
▁physician	-5298
▁arr	-5299
▁dos	-5300
▁mine	-5301
▁movies	-5302
▁measurement	-5303
car	-5304
▁bron	-5305
▁angle	-5306
▁filter	-5307
▁coconut	-5308
igue	-5309
rehens	-5310
undred	-5311
▁caffe	-5312
▁humid	-5313
▁steam	-5314
odel	-5315
oglob	-5316
▁actress	-5317
▁comfort	-5318
▁doctors	-5319
▁powerful	-5320
▁constipation	-5321
32	-5322
▁27	-5323
▁oldest	-5324
44	-5325
hab	-5326
▁Mil	-5327
▁Call	-5328
▁frequently	-5329
▁Pri	-5330
▁leaf	-5331
▁trop	-5332
▁influence	-5333
▁Card	-5334
▁Educ	-5335
▁teas	-5336
▁phrase	-5337
▁copper	-5338
aby	-5339
rapy	-5340
eline	-5341
CA	-5342
asion	-5343
▁bottle	-5344
▁carbohydrates	-5345
ingu	-5346
▁Vol	-5347
▁atoms	-5348
▁chromosomes	-5349
200	-5350
anks	-5351
ceed	-5352
▁IRS	-5353
ieved	-5354
▁panel	-5355
▁potato	-5356
▁James	-5357
▁duct	-5358
axy	-5359
kal	-5360
▁Av	-5361
▁Union	-5362
▁mixture	-5363
▁daughter	-5364
▁contribute	-5365
▁din	-5366
▁China	-5367
▁gross	-5368
▁label	-5369
ologists	-5370
▁approach	-5371
▁$7	-5372
▁subs	-5373
▁divorce	-5374
▁naturally	-5375
▁basketball	-5376
inder	-5377
▁grade	-5378
ipes	-5379
▁giving	-5380
▁reactions	-5381
▁appearance	-5382
▁respiration	-5383
▁vot	-5384
▁$8	-5385
▁Even	-5386
▁beer	-5387
▁Republic	-5388
alle	-5389
▁intake	-5390
uge	-5391
▁tap	-5392
aped	-5393
▁Cam	-5394
gical	-5395
▁Back	-5396
▁china	-5397
▁spirit	-5398
▁mand	-5399
▁sang	-5400
▁scores	-5401
▁browser	-5402
▁containing	-5403
▁Association	-5404
organ	-5405
bal	-5406
▁$1,	-5407
▁mad	-5408
▁bird	-5409
▁situ	-5410
▁ideal	-5411
▁substances	-5412
rid	-5413
astern	-5414
▁update	-5415
rey	-5416
elly	-5417
unes	-5418
▁onto	-5419
▁suppl	-5420
▁hear	-5421
▁interp	-5422
▁revenue	-5423
▁Standard	-5424
▁presence	-5425
▁Ann	-5426
esium	-5427
▁award	-5428
▁iPhone	-5429
▁vinegar	-5430
oub	-5431
▁AN	-5432
▁32	-5433
ocolate	-5434
▁bat	-5435
▁multip	-5436
▁aer	-5437
icians	-5438
▁filing	-5439
▁drivers	-5440
▁selection	-5441
▁ms	-5442
▁Illinois	-5443
▁category	-5444
night	-5445
▁Like	-5446
▁electron	-5447
▁flash	-5448
▁facility	-5449
▁cow	-5450
▁Fact	-5451
▁everyone	-5452
▁gran	-5453
▁thor	-5454
issions	-5455
▁caffeine	-5456
▁Ant	-5457
▁cos	-5458
▁street	-5459
▁removal	-5460
▁recently	-5461
▁supplement	-5462
▁pages	-5463
▁survey	-5464
oh	-5465
nia	-5466
ifically	-5467
▁immediately	-5468
39	-5469
onday	-5470
▁rect	-5471
oli	-5472
▁Star	-5473
▁split	-5474
▁trial	-5475
▁closing	-5476
▁univers	-5477
▁Take	-5478
▁plug	-5479
▁engineer	-5480
▁stem	-5481
▁Amazon	-5482
erous	-5483
▁stain	-5484
▁covers	-5485
▁fabric	-5486
▁Inter	-5487
▁australia	-5488
▁mm	-5489
enty	-5490
▁worked	-5491
▁accurate	-5492
▁arteries	-5493
▁families	-5494
▁headache	-5495
▁enl	-5496
▁assessment	-5497
BS	-5498
▁unc	-5499
itors	-5500
▁flavor	-5501
▁attached	-5502
▁instructions	-5503
▁Lo	-5504
ords	-5505
▁Fort	-5506
▁standards	-5507
hem	-5508
▁God	-5509
ollen	-5510
▁lact	-5511
▁toile	-5512
▁comput	-5513
▁penalty	-5514
▁illinois	-5515
▁permanent	-5516
▁statistics	-5517
igure	-5518
▁Show	-5519
▁intestine	-5520
imm	-5521
enders	-5522
▁inner	-5523
▁photo	-5524
▁forces	-5525
▁Two	-5526
▁spok	-5527
▁sperm	-5528
▁nerves	-5529
▁translation	-5530
▁suit	-5531
▁shock	-5532
▁housing	-5533
▁nucleus	-5534
▁spanish	-5535
▁Medicare	-5536
66	-5537
▁mur	-5538
▁vom	-5539
nic	-5540
▁Wik	-5541
▁mas	-5542
▁magnesium	-5543
▁Louis	-5544
▁hp	-5545
▁Ten	-5546
▁haz	-5547
ographic	-5548
▁respond	-5549
▁colorado	-5550
▁external	-5551
................	-5552
mail	-5553
otal	-5554
ometer	-5555
▁liber	-5556
▁chance	-5557
▁interview	-5558
▁plane	-5559
▁increasing	-5560
ests	-5561
▁pure	-5562
▁cellular	-5563
▁runs	-5564
▁draft	-5565
ano	-5566
▁PA	-5567
▁nail	-5568
▁achieve	-5569
▁voc	-5570
▁Data	-5571
▁peak	-5572
▁repe	-5573
▁shut	-5574
▁examin	-5575
▁chemicals	-5576
▁Ã	-5577
▁arms	-5578
▁desk	-5579
▁Custom	-5580
▁London	-5581
▁introduced	-5582
ml	-5583
ped	-5584
▁confirm	-5585
▁republic	-5586
rage	-5587
under	-5588
achelor	-5589
▁prison	-5590
▁rental	-5591
▁georgia	-5592
▁architect	-5593
▁bri	-5594
▁relatively	-5595
LC	-5596
▁oste	-5597
▁facts	-5598
▁toxic	-5599
▁Airport	-5600
RI	-5601
▁ps	-5602
aper	-5603
▁hen	-5604
▁tail	-5605
▁easier	-5606
▁charges	-5607
▁transmission	-5608
ere	-5609
▁derm	-5610
▁dream	-5611
▁formal	-5612
▁playing	-5613
▁situation	-5614
▁Cr	-5615
▁Gra	-5616
▁rail	-5617
ulated	-5618
▁filmed	-5619
▁operations	-5620
uma	-5621
arts	-5622
atto	-5623
allas	-5624
▁$100	-5625
▁advert	-5626
ura	-5627
▁nom	-5628
ruits	-5629
▁aspect	-5630
▁300	-5631
▁jail	-5632
issipp	-5633
▁cancel	-5634
neum	-5635
▁(19	-5636
▁honey	-5637
▁Indian	-5638
▁characterized	-5639
mp	-5640
▁IRA	-5641
▁bay	-5642
▁verte	-5643
▁border	-5644
▁resistance	-5645
▁Los	-5646
▁stands	-5647
▁prepare	-5648
▁messages	-5649
▁represents	-5650
▁nic	-5651
▁Pass	-5652
▁Review	-5653
▁signal	-5654
▁attention	-5655
▁Before	-5656
▁circuit	-5657
▁episode	-5658
▁indiana	-5659
▁esc	-5660
▁Excel	-5661
▁string	-5662
▁controls	-5663
▁abdominal	-5664
ya	-5665
writ	-5666
ancing	-5667
▁gallon	-5668
▁bathroom	-5669
▁withdrawal	-5670
ala	-5671
▁birds	-5672
▁europ	-5673
▁bind	-5674
▁recept	-5675
▁ion	-5676
▁race	-5677
▁baking	-5678
▁attorney	-5679
▁equivalent	-5680
lah	-5681
▁processing	-5682
ugh	-5683
▁Tem	-5684
▁dil	-5685
▁understanding	-5686
▁AP	-5687
▁DV	-5688
▁Bas	-5689
▁didn	-5690
acters	-5691
▁varies	-5692
▁hundred	-5693
▁meeting	-5694
▁changing	-5695
▁membership	-5696
▁particularly	-5697
/20	-5698
kin	-5699
▁sky	-5700
▁rose	-5701
▁opposite	-5702
▁cust	-5703
issippi	-5704
▁decrease	-5705
▁synonyms	-5706
▁industrial	-5707
cial	-5708
ishes	-5709
aneous	-5710
▁Govern	-5711
▁ow	-5712
airy	-5713
angle	-5714
rolog	-5715
▁guarant	-5716
▁AD	-5717
CD	-5718
▁formation	-5719
▁tip	-5720
▁electro	-5721
▁Page	-5722
▁grown	-5723
▁sport	-5724
▁bright	-5725
▁gender	-5726
▁corporate	-5727
asty	-5728
prise	-5729
▁wash	-5730
▁crack	-5731
▁profile	-5732
inson	-5733
▁Play	-5734
▁ends	-5735
▁Count	-5736
▁camera	-5737
▁oh	-5738
orer	-5739
▁tight	-5740
▁lights	-5741
▁procedures	-5742
▁definitions	-5743
df	-5744
▁god	-5745
▁ages	-5746
▁outer	-5747
▁roots	-5748
▁nausea	-5749
aa	-5750
uminum	-5751
▁unless	-5752
▁visual	-5753
inations	-5754
▁bey	-5755
▁pine	-5756
▁adding	-5757
iced	-5758
▁businesses	-5759
▁ille	-5760
▁volt	-5761
▁yard	-5762
▁horses	-5763
▁detailed	-5764
▁foundation	-5765
monary	-5766
▁hepat	-5767
▁layers	-5768
aryn	-5769
▁36	-5770
▁Land	-5771
▁cerv	-5772
ricult	-5773
▁Group	-5774
▁kinds	-5775
▁Monday	-5776
▁permit	-5777
▁mention	-5778
▁meanings	-5779
▁treatments	-5780
▁description	-5781
▁compensation	-5782
onda	-5783
ptic	-5784
▁garage	-5785
▁cleaning	-5786
▁corporation	-5787
▁registration	-5788
yer	-5789
▁dra	-5790
heast	-5791
rence	-5792
▁garlic	-5793
▁Facebook	-5794
▁concentration	-5795
resp	-5796
▁Mad	-5797
▁alt	-5798
▁rating	-5799
47	-5800
fit	-5801
▁Je	-5802
▁Look	-5803
▁beat	-5804
▁output	-5805
▁objects	-5806
vy	-5807
icing	-5808
isher	-5809
▁sizes	-5810
▁spray	-5811
▁nothing	-5812
▁Administ	-5813
EM	-5814
IL	-5815
▁4,	-5816
▁dyn	-5817
▁yog	-5818
▁lawn	-5819
ipedia	-5820
▁christ	-5821
▁personality	-5822
▁atom	-5823
aid	-5824
obic	-5825
▁Type	-5826
▁epid	-5827
lahoma	-5828
▁mn	-5829
unic	-5830
plant	-5831
▁automatically	-5832
burn	-5833
othe	-5834
▁por	-5835
▁acre	-5836
▁error	-5837
▁goods	-5838
▁stroke	-5839
berg	-5840
▁Price	-5841
▁exclus	-5842
▁establish	-5843
▁sup	-5844
inity	-5845
▁2015.	-5846
▁contag	-5847
▁promot	-5848
▁threat	-5849
▁chemistry	-5850
cod	-5851
iled	-5852
uing	-5853
▁Today	-5854
▁nationality	-5855
▁29	-5856
itar	-5857
▁Sher	-5858
▁louis	-5859
verages	-5860
▁domain	-5861
CO	-5862
win	-5863
This	-5864
▁dram	-5865
▁settle	-5866
▁painful	-5867
▁reviews	-5868
▁Sch	-5869
▁hal	-5870
▁bear	-5871
▁chief	-5872
▁recipe	-5873
▁charged	-5874
▁letters	-5875
▁reduced	-5876
▁seasons	-5877
▁traffic	-5878
-7	-5879
▁returns	-5880
▁cot	-5881
▁nav	-5882
▁saw	-5883
grade	-5884
obile	-5885
▁France	-5886
▁Contact	-5887
▁wi	-5888
▁Mal	-5889
▁Gold	-5890
oglobin	-5891
▁Atlant	-5892
▁enroll	-5893
▁taxable	-5894
▁European	-5895
▁Education	-5896
stru	-5897
▁Family	-5898
▁assets	-5899
▁closed	-5900
employment	-5901
▁deductible	-5902
▁lig	-5903
▁crust	-5904
▁extract	-5905
▁vehicles	-5906
AD	-5907
▁Both	-5908
▁novel	-5909
▁attract	-5910
ells	-5911
outs	-5912
olved	-5913
▁prol	-5914
▁Pennsylvania	-5915
▁150	-5916
▁coat	-5917
unciation	-5918
▁calculator	-5919
AP	-5920
▁Road	-5921
▁champ	-5922
▁graduate	-5923
mas	-5924
road	-5925
▁Map	-5926
▁spin	-5927
▁lease	-5928
▁client	-5929
▁pretty	-5930
▁combined	-5931
anda	-5932
▁oregon	-5933
▁toward	-5934
▁Georgia	-5935
▁holiday	-5936
▁distinct	-5937
▁literature	-5938
▁ID	-5939
▁NY	-5940
door	-5941
oline	-5942
▁2017.	-5943
▁mainly	-5944
ying	-5945
artin	-5946
itter	-5947
▁dies	-5948
▁sort	-5949
isters	-5950
▁Account	-5951
▁Haw	-5952
▁fet	-5953
ocket	-5954
▁join	-5955
▁PM	-5956
▁vin	-5957
▁duty	-5958
▁tons	-5959
▁Board	-5960
▁surge	-5961
▁characters	-5962
▁generation	-5963
▁tn	-5964
▁cyst	-5965
men	-5966
agus	-5967
▁Div	-5968
▁Prot	-5969
▁dance	-5970
▁meter	-5971
▁Att	-5972
▁alph	-5973
▁supplements	-5974
erior	-5975
▁restaurant	-5976
rix	-5977
▁Bay	-5978
▁ket	-5979
▁nas	-5980
▁sulf	-5981
▁stuff	-5982
▁African	-5983
▁District	-5984
▁equation	-5985
ifications	-5986
ifies	-5987
▁Causes	-5988
▁router	-5989
▁fatigue	-5990
▁Bet	-5991
▁numb	-5992
▁printer	-5993
▁secondary	-5994
▁ho	-5995
orph	-5996
▁Turn	-5997
▁spine	-5998
▁earlier	-5999
▁thinking	-6000
▁implement	-6001
▁flights	-6002
LS	-6003
ipped	-6004
▁tren	-6005
▁evalu	-6006
▁wound	-6007
▁arrest	-6008
▁mission	-6009
▁reve	-6010
▁seiz	-6011
▁Apple	-6012
▁prepar	-6013
▁completed	-6014
▁contagious	-6015
-10	-6016
▁Rich	-6017
▁Using	-6018
agon	-6019
▁gam	-6020
▁asked	-6021
▁flour	-6022
▁Disney	-6023
▁enzymes	-6024
upt	-6025
mart	-6026
▁tear	-6027
▁compl	-6028
▁lived	-6029
▁circum	-6030
ustralian	-6031
▁thousands	-6032
elle	-6033
dered	-6034
▁neighbor	-6035
▁deduction	-6036
▁prescribed	-6037
23	-6038
urt	-6039
inch	-6040
▁ber	-6041
▁relax	-6042
entucky	-6043
);	-6044
▁iv	-6045
▁Follow	-6046
▁George	-6047
▁anemia	-6048
▁vomiting	-6049
asis	-6050
▁Cap	-6051
▁Spr	-6052
▁ath	-6053
▁Cert	-6054
▁alle	-6055
▁essay	-6056
▁spent	-6057
▁usage	-6058
▁chocolate	-6059
29	-6060
rot	-6061
▁sink	-6062
▁tech	-6063
▁valley	-6064
▁remember	-6065
▁weakness	-6066
▁advantage	-6067
▁resulting	-6068
▁comprehens	-6069
▁oct	-6070
▁trib	-6071
▁golden	-6072
▁heater	-6073
▁Germany	-6074
▁Good	-6075
luding	-6076
▁theme	-6077
▁earthqu	-6078
▁Examples	-6079
▁announced	-6080
ulum	-6081
▁Mer	-6082
iliar	-6083
▁shower	-6084
▁Management	-6085
▁enh	-6086
▁genes	-6087
▁Friday	-6088
▁powers	-6089
etime	-6090
▁opened	-6091
▁retain	-6092
▁Wed	-6093
▁excell	-6094
▁islands	-6095
▁creating	-6096
28	-6097
mm	-6098
iams	-6099
▁fan	-6100
▁Labor	-6101
▁integr	-6102
▁stones	-6103
▁Special	-6104
▁generic	-6105
▁tickets	-6106
▁brake	-6107
▁links	-6108
▁Another	-6109
▁remains	-6110
▁authority	-6111
▁itch	-6112
▁amino	-6113
idelines	-6114
uke	-6115
iami	-6116
equ	-6117
▁Wal	-6118
▁Fall	-6119
▁Term	-6120
▁hurt	-6121
▁candid	-6122
▁facebook	-6123
▁5,	-6124
edom	-6125
▁Ref	-6126
▁2011	-6127
▁Keep	-6128
▁caps	-6129
▁Share	-6130
▁cubic	-6131
▁Connect	-6132
arks	-6133
▁gel	-6134
▁cups	-6135
▁russ	-6136
▁sites	-6137
▁toilet	-6138
▁amb	-6139
▁Mill	-6140
▁Blood	-6141
▁pneum	-6142
▁sinus	-6143
▁Sil	-6144
▁mes	-6145
CH	-6146
SS	-6147
▁gun	-6148
▁shoes	-6149
▁Middle	-6150
▁classified	-6151
ilit	-6152
▁Constitution	-6153
ronym	-6154
ulate	-6155
▁drops	-6156
▁compounds	-6157
▁scal	-6158
▁told	-6159
▁lemon	-6160
▁alternative	-6161
▁Yes	-6162
▁fax	-6163
iques	-6164
▁Population	-6165
▁biological	-6166
do	-6167
▁Cho	-6168
▁sam	-6169
▁foss	-6170
▁Phone	-6171
▁territ	-6172
▁Current	-6173
▁(5	-6174
iable	-6175
▁Frank	-6176
▁Pacific	-6177
▁calculated	-6178
▁environmental	-6179
▁Why	-6180
▁pill	-6181
▁regarding	-6182
▁1:	-6183
▁65	-6184
bral	-6185
▁leak	-6186
▁teams	-6187
▁checks	-6188
▁healing	-6189
▁influen	-6190
▁extremely	-6191
▁controlled	-6192
rug	-6193
▁Rad	-6194
ellig	-6195
▁corner	-6196
▁courses	-6197
27	-6198
TC	-6199
ocks	-6200
aurus	-6201
▁Research	-6202
▁shingles	-6203
▁era	-6204
▁cavity	-6205
▁images	-6206
she	-6207
▁cure	-6208
▁calls	-6209
▁soap	-6210
ighter	-6211
▁catch	-6212
▁differ	-6213
▁10.	-6214
enger	-6215
▁elim	-6216
▁component	-6217
▁specialist	-6218
Cl	-6219
hi	-6220
▁af	-6221
▁loans	-6222
uble	-6223
owing	-6224
▁buff	-6225
▁moved	-6226
▁tatto	-6227
▁Men	-6228
ilton	-6229
▁harmful	-6230
▁nitrogen	-6231
▁ride	-6232
▁sets	-6233
▁ideas	-6234
▁veins	-6235
▁48	-6236
▁Mot	-6237
▁cou	-6238
▁zero	-6239
▁plasma	-6240
▁electrons	-6241
ibly	-6242
▁Asia	-6243
▁moves	-6244
▁spots	-6245
▁therefore	-6246
▁bac	-6247
▁conv	-6248
▁rand	-6249
▁Civil	-6250
▁absol	-6251
▁march	-6252
▁Sunday	-6253
▁FL	-6254
▁Sa	-6255
oria	-6256
▁compress	-6257
▁injection	-6258
▁ster	-6259
▁wish	-6260
▁sched	-6261
▁Bureau	-6262
▁narrow	-6263
▁platform	-6264
26	-6265
mar	-6266
uro	-6267
ashes	-6268
▁Head	-6269
▁disk	-6270
▁Chicago	-6271
▁worldwide	-6272
!!	-6273
▁Low	-6274
▁warranty	-6275
▁fal	-6276
▁fold	-6277
▁artist	-6278
▁peace	-6279
related	-6280
▁expand	-6281
▁moment	-6282
▁swollen	-6283
▁visible	-6284
▁surgical	-6285
▁mechanism	-6286
▁guard	-6287
▁attach	-6288
▁Western	-6289
inine	-6290
▁acts	-6291
▁greek	-6292
▁Contin	-6293
▁manage	-6294
▁outlook	-6295
azine	-6296
▁electronic	-6297
utch	-6298
olitan	-6299
ynthesis	-6300
▁transform	-6301
▁($	-6302
life	-6303
▁alg	-6304
▁cramps	-6305
▁linked	-6306
▁Di	-6307
eties	-6308
lywood	-6309
▁Angeles	-6310
▁Network	-6311
▁hepatitis	-6312
bow	-6313
haps	-6314
uled	-6315
▁ecl	-6316
▁Pain	-6317
▁heav	-6318
▁jump	-6319
▁pictures	-6320
▁fear	-6321
▁kept	-6322
▁Benef	-6323
▁twice	-6324
▁conven	-6325
▁determines	-6326
▁requirement	-6327
rus	-6328
atal	-6329
▁becoming	-6330
friend	-6331
▁ct	-6332
izon	-6333
▁hill	-6334
▁David	-6335
▁stamp	-6336
▁wages	-6337
▁depart	-6338
▁econom	-6339
▁urinary	-6340
85	-6341
what	-6342
▁Rober	-6343
▁subsc	-6344
ML	-6345
endar	-6346
▁Real	-6347
▁afford	-6348
▁technical	-6349
allel	-6350
▁torn	-6351
▁neuro	-6352
▁seems	-6353
▁developing	-6354
▁facilities	-6355
aho	-6356
▁Iâ	-6357
flix	-6358
▁beyond	-6359
lers	-6360
umbia	-6361
ashion	-6362
▁mucus	-6363
aign	-6364
▁roy	-6365
▁Prov	-6366
▁teen	-6367
▁lov	-6368
▁Life	-6369
▁mars	-6370
▁toll	-6371
▁germany	-6372
▁mountains	-6373
▁metabolism	-6374
▁aren	-6375
▁survive	-6376
▁Next	-6377
▁cardiac	-6378
▁illegal	-6379
▁interior	-6380
oral	-6381
▁Pan	-6382
▁demon	-6383
cycl	-6384
▁italy	-6385
▁forest	-6386
▁answers	-6387
▁diamond	-6388
34	-6389
olic	-6390
▁Str	-6391
orter	-6392
▁arri	-6393
▁dehyd	-6394
▁husband	-6395
▁functional	-6396
▁RE	-6397
▁Irish	-6398
ENT	-6399
such	-6400
▁yearly	-6401
▁menstru	-6402
▁mechanical	-6403
36	-6404
▁Ep	-6405
ught	-6406
▁holds	-6407
▁judge	-6408
▁buying	-6409
wall	-6410
▁$50	-6411
▁Proper	-6412
▁legisl	-6413
awn	-6414
▁hop	-6415
▁pad	-6416
iture	-6417
ruptcy	-6418
▁fruits	-6419
▁calorie	-6420
▁aluminum	-6421
uls	-6422
▁acet	-6423
▁bull	-6424
bar	-6425
▁cig	-6426
ipher	-6427
▁Rout	-6428
▁fatty	-6429
▁Jersey	-6430
▁models	-6431
ferences	-6432
quarters	-6433
▁terminal	-6434
ipse	-6435
abled	-6436
▁tire	-6437
▁inher	-6438
▁infected	-6439
▁Army	-6440
▁microw	-6441
--------	-6442
▁historical	-6443
▁pronunciation	-6444
86	-6445
▁cd	-6446
brew	-6447
▁Conf	-6448
▁lens	-6449
▁depth	-6450
▁Valley	-6451
▁marine	-6452
▁fishing	-6453
▁accident	-6454
▁intended	-6455
▁75	-6456
oids	-6457
▁190	-6458
▁fif	-6459
▁boys	-6460
▁alkal	-6461
▁fibers	-6462
▁brought	-6463
▁recover	-6464
▁assistance	-6465
▁specifically	-6466
fered	-6467
▁ears	-6468
▁hatch	-6469
▁meters	-6470
rec	-6471
sec	-6472
paid	-6473
▁bru	-6474
adium	-6475
▁transf	-6476
▁William	-6477
37	-6478
igo	-6479
▁tob	-6480
▁hole	-6481
anches	-6482
▁reset	-6483
▁precip	-6484
▁incorpor	-6485
▁Clin	-6486
▁shared	-6487
▁advance	-6488
▁greatest	-6489
▁importance	-6490
▁organizations	-6491
iance	-6492
kansas	-6493
▁2016.	-6494
▁raised	-6495
▁independence	-6496
eters	-6497
▁pipe	-6498
▁expression	-6499
rin	-6500
▁Tur	-6501
▁cel	-6502
▁carpet	-6503
OU	-6504
▁Age	-6505
▁absorb	-6506
▁Italian	-6507
▁movements	-6508
ua	-6509
but	-6510
heat	-6511
▁ign	-6512
▁Rest	-6513
▁mood	-6514
▁thus	-6515
▁anest	-6516
▁serves	-6517
▁Welcome	-6518
acco	-6519
▁goals	-6520
▁fourth	-6521
▁closest	-6522
▁counsel	-6523
▁holding	-6524
▁roughly	-6525
▁Calories	-6526
▁construct	-6527
▁continuous	-6528
%)	-6529
ih	-6530
anta	-6531
▁dizz	-6532
reens	-6533
▁dairy	-6534
▁selling	-6535
▁continent	-6536
izza	-6537
▁NOT	-6538
▁Hall	-6539
▁puppy	-6540
▁advice	-6541
▁spoken	-6542
IM	-6543
ait	-6544
▁que	-6545
▁Last	-6546
▁apps	-6547
▁icon	-6548
▁guitar	-6549
▁plates	-6550
▁pension	-6551
▁Japanese	-6552
▁Sometimes	-6553
▁Market	-6554
▁agencies	-6555
▁AL	-6556
▁Mel	-6557
▁eld	-6558
itals	-6559
poons	-6560
▁driveway	-6561
2)	-6562
▁deliver	-6563
▁technique	-6564
▁ib	-6565
enny	-6566
▁virginia	-6567
▁container	-6568
▁Cre	-6569
letal	-6570
ancisco	-6571
▁owners	-6572
▁31	-6573
▁Que	-6574
▁bil	-6575
▁implant	-6576
▁Michigan	-6577
▁register	-6578
▁headaches	-6579
▁technician	-6580
-0	-6581
ifier	-6582
▁mary	-6583
▁nine	-6584
▁tumor	-6585
▁cruise	-6586
▁handle	-6587
▁arizona	-6588
▁eastern	-6589
▁advanced	-6590
▁purchased	-6591
▁antibiotics	-6592
rd	-6593
▁Coun	-6594
▁perm	-6595
▁mir	-6596
ochond	-6597
▁canal	-6598
▁africa	-6599
▁strain	-6600
iva	-6601
▁Source	-6602
▁agents	-6603
▁partner	-6604
▁unemployment	-6605
tee	-6606
▁Main	-6607
▁Phys	-6608
▁mixed	-6609
▁injuries	-6610
▁restrict	-6611
card	-6612
▁ure	-6613
atric	-6614
inton	-6615
renal	-6616
▁Corpor	-6617
▁viruses	-6618
▁pulmonary	-6619
▁instrument	-6620
▁Pal	-6621
▁tie	-6622
▁Remove	-6623
▁bodies	-6624
▁linear	-6625
▁follows	-6626
bu	-6627
▁Bur	-6628
ancer	-6629
which	-6630
▁Mont	-6631
▁wil	-6632
▁cham	-6633
▁decide	-6634
ropolitan	-6635
▁extension	-6636
greg	-6637
▁Design	-6638
▁atomic	-6639
▁dosage	-6640
▁showing	-6641
abilities	-6642
▁comprehensive	-6643
▁mph	-6644
olars	-6645
▁instance	-6646
▁indicates	-6647
ati	-6648
rip	-6649
▁lb	-6650
ennis	-6651
▁gram	-6652
▁alaska	-6653
tery	-6654
▁Ver	-6655
plate	-6656
▁jackson	-6657
▁strategy	-6658
▁solutions	-6659
''	-6660
▁dol	-6661
▁hero	-6662
▁cheap	-6663
▁viral	-6664
▁contribution	-6665
asure	-6666
▁secure	-6667
▁senior	-6668
▁Arizona	-6669
▁airline	-6670
▁helpful	-6671
▁carolina	-6672
▁manufacturing	-6673
heim	-6674
stream	-6675
▁Depend	-6676
▁shipping	-6677
▁Requ	-6678
▁ankle	-6679
▁worker	-6680
▁discount	-6681
▁investig	-6682
▁surrounding	-6683
omer	-6684
onald	-6685
▁heard	-6686
▁vegas	-6687
▁philos	-6688
▁submit	-6689
100	-6690
ums	-6691
▁MS	-6692
▁kg	-6693
onin	-6694
rium	-6695
fully	-6696
▁oils	-6697
▁Grand	-6698
▁extended	-6699
▁pancreas	-6700
89	-6701
eck	-6702
▁tet	-6703
reece	-6704
▁deed	-6705
▁Where	-6706
fficiency	-6707
▁cultural	-6708
▁collected	-6709
▁pH	-6710
▁osc	-6711
atural	-6712
▁consumer	-6713
▁therapist	-6714
▁Full	-6715
▁poke	-6716
▁freeze	-6717
▁samsung	-6718
▁voltage	-6719
▁selected	-6720
▁administration	-6721
FL	-6722
▁resid	-6723
▁effort	-6724
▁Control	-6725
▁diameter	-6726
▁simpl	-6727
▁thigh	-6728
▁humidity	-6729
▁120	-6730
▁lists	-6731
▁Engine	-6732
▁Insurance	-6733
ett	-6734
tion	-6735
▁Bre	-6736
edies	-6737
iform	-6738
▁mist	-6739
▁pulse	-6740
▁remote	-6741
ran	-6742
olis	-6743
▁1000	-6744
▁mont	-6745
jective	-6746
respond	-6747
▁franch	-6748
▁uterus	-6749
▁Colorado	-6750
▁resource	-6751
¦.	-6752
onal	-6753
▁Mod	-6754
▁opin	-6755
▁urban	-6756
▁league	-6757
▁offered	-6758
▁academic	-6759
▁allergic	-6760
▁efficient	-6761
▁AC	-6762
▁(20	-6763
▁jew	-6764
▁george	-6765
▁parties	-6766
▁Nor	-6767
duate	-6768
▁Paul	-6769
▁duck	-6770
▁credits	-6771
▁weekend	-6772
▁Organ	-6773
▁encou	-6774
▁inhib	-6775
▁supplies	-6776
mg	-6777
▁dur	-6778
▁surf	-6779
▁sounds	-6780
▁actions	-6781
▁village	-6782
▁excessive	-6783
▁principal	-6784
▁conversion	-6785
alo	-6786
▁church	-6787
▁stages	-6788
▁context	-6789
▁Community	-6790
▁bankruptcy	-6791
▁THE	-6792
▁Book	-6793
▁compr	-6794
▁marks	-6795
▁Salary	-6796
▁Product	-6797
▁updated	-6798
▁sequence	-6799
iser	-6800
▁frank	-6801
▁OF	-6802
fast	-6803
test	-6804
▁conj	-6805
▁gest	-6806
itions	-6807
▁paras	-6808
▁persons	-6809
agn	-6810
ports	-6811
▁Massachusetts	-6812
PD	-6813
eph	-6814
▁Fat	-6815
▁Lim	-6816
▁mini	-6817
▁Guide	-6818
▁vacation	-6819
sl	-6820
▁Ev	-6821
enth	-6822
▁Season	-6823
▁counties	-6824
▁commission	-6825
OL	-6826
▁pm	-6827
▁les	-6828
▁vel	-6829
▁techniques	-6830
-.	-6831
erly	-6832
osal	-6833
▁Wil	-6834
▁lean	-6835
reland	-6836
▁Trump	-6837
▁upload	-6838
oen	-6839
▁ky	-6840
▁Gal	-6841
▁Leg	-6842
▁Lic	-6843
tered	-6844
▁Human	-6845
▁itching	-6846
▁pharmac	-6847
▁parallel	-6848
icies	-6849
▁Build	-6850
▁shares	-6851
▁videos	-6852
▁fingers	-6853
▁liability	-6854
ato	-6855
eek	-6856
▁mt	-6857
▁400	-6858
▁lob	-6859
▁songs	-6860
▁Online	-6861
▁princip	-6862
▁birthday	-6863
▁abbreviation	-6864
▁manufacturer	-6865
kee	-6866
rimp	-6867
wich	-6868
▁fats	-6869
▁spell	-6870
▁gallons	-6871
▁estimates	-6872
55	-6873
unct	-6874
▁10%	-6875
▁eyel	-6876
▁brief	-6877
▁flood	-6878
▁Jackson	-6879
▁poisoning	-6880
▁contributions	-6881
31	-6882
hat	-6883
icle	-6884
▁Sam	-6885
▁rod	-6886
thetic	-6887
▁Exper	-6888
▁finance	-6889
▁heating	-6890
bits	-6891
▁james	-6892
▁entity	-6893
▁$20	-6894
▁guy	-6895
ukary	-6896
▁sole	-6897
▁ancest	-6898
▁Develop	-6899
▁extreme	-6900
roduction	-6901
▁exception	-6902
▁IS	-6903
▁Dif	-6904
▁Lat	-6905
icide	-6906
▁quart	-6907
▁Michael	-6908
▁involve	-6909
asy	-6910
▁newborn	-6911
name	-6912
▁DVD	-6913
▁soc	-6914
▁scar	-6915
▁satis	-6916
▁Applic	-6917
▁digestion	-6918
▁discharge	-6919
▁institution	-6920
▁HD	-6921
▁lots	-6922
▁gases	-6923
▁yield	-6924
berries	-6925
▁inform	-6926
▁prepared	-6927
ogenic	-6928
ushing	-6929
▁Quick	-6930
▁Person	-6931
▁script	-6932
hetic	-6933
▁coal	-6934
▁straw	-6935
▁france	-6936
standing	-6937
▁freezer	-6938
▁residential	-6939
no	-6940
▁tiny	-6941
▁coach	-6942
▁seats	-6943
▁circle	-6944
▁Ireland	-6945
▁dimensions	-6946
str	-6947
ycl	-6948
▁Fre	-6949
▁obl	-6950
21	-6951
su	-6952
ahoo	-6953
pton	-6954
▁lbs	-6955
arged	-6956
▁olive	-6957
▁expense	-6958
▁accepted	-6959
▁projects	-6960
nee	-6961
▁180	-6962
▁array	-6963
▁colour	-6964
▁fields	-6965
▁classic	-6966
▁criteria	-6967
▁Sand	-6968
▁orth	-6969
▁quot	-6970
weight	-6971
▁conserv	-6972
▁predict	-6973
▁Canadian	-6974
▁aircraft	-6975
▁7,	-6976
▁bol	-6977
▁Only	-6978
▁fasc	-6979
▁blocks	-6980
▁VA	-6981
rick	-6982
▁Satur	-6983
▁audio	-6984
▁input	-6985
▁relief	-6986
▁vessel	-6987
▁chicago	-6988
OW	-6989
▁Hy	-6990
with	-6991
trans	-6992
▁ounce	-6993
▁Rights	-6994
▁Kingdom	-6995
▁cutting	-6996
anol	-6997
bone	-6998
▁ford	-6999
anguage	-7000
▁Chinese	-7001
zil	-7002
▁6,	-7003
vada	-7004
opathy	-7005
▁pilot	-7006
▁august	-7007
▁abdomen	-7008
▁Squ	-7009
▁USB	-7010
▁fry	-7011
▁2008	-7012
opause	-7013
comfort	-7014
▁revolution	-7015
ideo	-7016
▁trim	-7017
ifying	-7018
liance	-7019
▁2014.	-7020
▁Scott	-7021
▁freedom	-7022
▁elevated	-7023
▁consumption	-7024
▁Non	-7025
▁ash	-7026
eland	-7027
shire	-7028
▁Year	-7029
▁empt	-7030
▁radi	-7031
▁vacu	-7032
▁leads	-7033
▁sensor	-7034
▁compare	-7035
▁reverse	-7036
▁characteristic	-7037
▁9.	-7038
0.00	-7039
▁Hen	-7040
▁lift	-7041
veland	-7042
▁Total	-7043
▁damaged	-7044
▁particles	-7045
▁vegetable	-7046
anna	-7047
▁Vit	-7048
tario	-7049
▁Wood	-7050
▁crown	-7051
ionship	-7052
▁elected	-7053
▁categories	-7054
▁correspond	-7055
▁TX	-7056
▁ahead	-7057
▁smoke	-7058
▁Science	-7059
duction	-7060
▁photosynthesis	-7061
ij	-7062
▁$9	-7063
▁NE	-7064
▁ll	-7065
▁md	-7066
inst	-7067
umes	-7068
▁nfl	-7069
▁diver	-7070
▁roles	-7071
▁bought	-7072
▁kilomet	-7073
▁microwave	-7074
▁happy	-7075
▁frequent	-7076
▁leadership	-7077
▁Art	-7078
▁Est	-7079
▁Pot	-7080
▁anat	-7081
▁appe	-7082
▁genre	-7083
▁worse	-7084
▁beauty	-7085
▁identity	-7086
bury	-7087
icon	-7088
▁Tom	-7089
▁contrast	-7090
▁directed	-7091
64	-7092
bro	-7093
▁Big	-7094
▁bite	-7095
▁herb	-7096
▁Offic	-7097
▁annually	-7098
una	-7099
▁MD	-7100
cious	-7101
▁gave	-7102
▁hope	-7103
ocratic	-7104
oration	-7105
▁conflic	-7106
aren	-7107
▁lin	-7108
▁Assess	-7109
▁harvest	-7110
vd	-7111
▁MO	-7112
▁Ul	-7113
orrh	-7114
▁banks	-7115
▁resort	-7116
HA	-7117
ups	-7118
▁Equ	-7119
▁Sol	-7120
▁bile	-7121
▁blind	-7122
▁thumb	-7123
▁Calcul	-7124
▁associate	-7125
▁chromosome	-7126
irth	-7127
▁vet	-7128
▁grows	-7129
▁salad	-7130
▁tablet	-7131
osterone	-7132
▁excellent	-7133
azing	-7134
rooms	-7135
▁blank	-7136
▁creates	-7137
▁Institute	-7138
38	-7139
oa	-7140
osen	-7141
uris	-7142
▁saying	-7143
▁attacks	-7144
ints	-7145
ococ	-7146
▁$15	-7147
▁Well	-7148
▁london	-7149
▁tattoo	-7150
▁agricult	-7151
gu	-7152
▁info	-7153
▁Found	-7154
▁listing	-7155
IF	-7156
azz	-7157
▁soy	-7158
▁Hard	-7159
▁cite	-7160
▁nest	-7161
▁Ocean	-7162
estival	-7163
▁Robert	-7164
▁Android	-7165
▁employers	-7166
▁hay	-7167
▁genus	-7168
▁boiled	-7169
▁Install	-7170
▁Outlook	-7171
▁fitness	-7172
▁vaginal	-7173
▁Bi	-7174
▁blu	-7175
bi	-7176
istan	-7177
▁hypot	-7178
▁reached	-7179
▁hemoglobin	-7180
adel	-7181
wing	-7182
▁ord	-7183
▁File	-7184
resent	-7185
▁calendar	-7186
▁hardware	-7187
▁tropical	-7188
▁composition	-7189
ima	-7190
med	-7191
oric	-7192
racy	-7193
▁chinese	-7194
▁campaign	-7195
▁allergies	-7196
▁opportunity	-7197
pi	-7198
▁ss	-7199
ften	-7200
unities	-7201
▁nurses	-7202
▁distingu	-7203
▁protocol	-7204
▁supposed	-7205
-9	-7206
jo	-7207
ricane	-7208
ription	-7209
▁wanted	-7210
▁carrier	-7211
▁finding	-7212
▁tobacco	-7213
▁teachers	-7214
erts	-7215
▁Upd	-7216
▁Related	-7217
▁temporary	-7218
▁regulation	-7219
aria	-7220
yles	-7221
▁branches	-7222
▁dc	-7223
agle	-7224
bage	-7225
umer	-7226
▁50%	-7227
▁Dri	-7228
anges	-7229
▁Dise	-7230
▁bike	-7231
▁huge	-7232
inator	-7233
▁nodes	-7234
▁cotton	-7235
▁doesnâ	-7236
▁reveal	-7237
ilage	-7238
struction	-7239
▁protected	-7240
▁thr	-7241
▁2007	-7242
▁acres	-7243
▁empire	-7244
▁towards	-7245
▁bachelor	-7246
▁standing	-7247
▁ethnic	-7248
▁duration	-7249
▁policies	-7250
▁rainfall	-7251
▁teaching	-7252
▁Tennessee	-7253
ipheral	-7254
▁headquarters	-7255
UN	-7256
▁Hill	-7257
▁rear	-7258
▁Quest	-7259
▁sores	-7260
raining	-7261
▁Senate	-7262
▁defense	-7263
67	-7264
aine	-7265
ursday	-7266
▁Choose	-7267
▁elevation	-7268
▁jaw	-7269
▁cogn	-7270
▁filed	-7271
▁random	-7272
▁producing	-7273
onn	-7274
asant	-7275
estyle	-7276
▁landsc	-7277
▁fracture	-7278
%),	-7279
iasis	-7280
▁Hosp	-7281
▁gray	-7282
▁sett	-7283
otland	-7284
uesday	-7285
▁turns	-7286
▁citizen	-7287
▁Township	-7288
▁moderate	-7289
ustain	-7290
▁keyboard	-7291
idal	-7292
▁chick	-7293
▁sharp	-7294
▁talking	-7295
▁wax	-7296
ading	-7297
uster	-7298
▁deer	-7299
▁esoph	-7300
▁leaving	-7301
▁Southern	-7302
▁articles	-7303
▁boundary	-7304
▁discover	-7305
▁otherwise	-7306
▁sensation	-7307
▁popularity	-7308
▁classification	-7309
CC	-7310
closure	-7311
▁remedies	-7312
▁regulations	-7313
ogs	-7314
▁10,	-7315
▁Saf	-7316
▁pepp	-7317
icular	-7318
▁boost	-7319
▁polar	-7320
▁carries	-7321
▁desktop	-7322
ador	-7323
kins	-7324
▁chair	-7325
▁slowly	-7326
▁ventric	-7327
forcement	-7328
▁contractor	-7329
kg	-7330
fly	-7331
pson	-7332
▁aort	-7333
▁pizza	-7334
istical	-7335
▁clause	-7336
▁updates	-7337
▁replaced	-7338
Ch	-7339
pite	-7340
▁bell	-7341
▁push	-7342
elsius	-7343
▁purple	-7344
▁constit	-7345
▁spectrum	-7346
▁directions	-7347
IG	-7348
fix	-7349
ontal	-7350
rosis	-7351
▁imag	-7352
▁Oregon	-7353
▁expert	-7354
▁tablets	-7355
▁guidelines	-7356
▁transaction	-7357
If	-7358
▁IT	-7359
iger	-7360
star	-7361
▁Minn	-7362
▁Their	-7363
▁Assist	-7364
▁providers	-7365
▁specified	-7366
▁professionals	-7367
87	-7368
iki	-7369
▁buck	-7370
▁epit	-7371
▁myth	-7372
ocytes	-7373
▁asset	-7374
▁athlet	-7375
▁Northern	-7376
▁delta	-7377
▁mouse	-7378
iveness	-7379
▁atlant	-7380
▁deaths	-7381
vascular	-7382
▁mentioned	-7383
En	-7384
cs	-7385
bing	-7386
opic	-7387
agram	-7388
▁tort	-7389
▁Effect	-7390
▁equity	-7391
▁fashion	-7392
▁painting	-7393
▁diagnosed	-7394
▁franchise	-7395
▁RNA	-7396
▁rig	-7397
▁stir	-7398
▁fence	-7399
▁spouse	-7400
▁turned	-7401
▁springs	-7402
▁everyday	-7403
▁underlying	-7404
pass	-7405
▁Key	-7406
▁Club	-7407
▁Know	-7408
▁lawyer	-7409
▁calling	-7410
▁consume	-7411
▁os	-7412
rian	-7413
weet	-7414
▁prev	-7415
▁Point	-7416
▁audit	-7417
▁emotional	-7418
▁sensitive	-7419
▁scientists	-7420
brid	-7421
heum	-7422
orea	-7423
inance	-7424
nesday	-7425
▁plural	-7426
▁flooring	-7427
▁moisture	-7428
▁om	-7429
gypt	-7430
▁Jos	-7431
▁oak	-7432
▁anth	-7433
▁nice	-7434
ediatric	-7435
gent	-7436
▁pays	-7437
▁saus	-7438
▁shift	-7439
▁bronch	-7440
▁eclipse	-7441
▁pronounce	-7442
MP	-7443
rep	-7444
▁carb	-7445
▁Women	-7446
arn	-7447
▁AND	-7448
▁jet	-7449
idden	-7450
▁Fair	-7451
▁dust	-7452
uropathy	-7453
▁Express	-7454
▁alabama	-7455
▁habitat	-7456
▁computers	-7457
▁practition	-7458
▁55	-7459
▁100%	-7460
▁hang	-7461
▁Overview	-7462
▁remaining	-7463
ori	-7464
bell	-7465
foot	-7466
▁Log	-7467
hemat	-7468
▁edit	-7469
emption	-7470
▁divide	-7471
▁illust	-7472
▁virtual	-7473
▁spending	-7474
apes	-7475
▁$1.	-7476
racle	-7477
▁Below	-7478
▁Italy	-7479
▁Lincoln	-7480
▁choices	-7481
▁challeng	-7482
▁minecraft	-7483
▁experienced	-7484
add	-7485
from	-7486
▁boot	-7487
▁Music	-7488
▁Spring	-7489
▁brands	-7490
▁houses	-7491
▁keeping	-7492
▁Thursday	-7493
▁smallest	-7494
▁apartment	-7495
▁batteries	-7496
▁positions	-7497
ki	-7498
ito	-7499
rox	-7500
▁Dig	-7501
▁aim	-7502
▁intra	-7503
▁Administration	-7504
▁tut	-7505
▁uns	-7506
ocrine	-7507
▁bench	-7508
▁notes	-7509
▁Academ	-7510
▁cardio	-7511
▁connective	-7512
▁fram	-7513
▁hook	-7514
▁aspir	-7515
▁pills	-7516
▁route	-7517
▁infant	-7518
▁destroy	-7519
▁neighborhood	-7520
LA	-7521
otype	-7522
▁Mult	-7523
▁rack	-7524
▁curve	-7525
▁laser	-7526
▁League	-7527
▁config	-7528
▁lining	-7529
▁justice	-7530
▁Saturday	-7531
▁Government	-7532
itt	-7533
▁NC	-7534
▁Mat	-7535
▁bun	-7536
▁Oper	-7537
▁rural	-7538
▁closely	-7539
▁stretch	-7540
▁election	-7541
▁comparison	-7542
▁identified	-7543
▁2:	-7544
asia	-7545
stein	-7546
▁stiff	-7547
▁dragon	-7548
unicipal	-7549
▁Tuesday	-7550
▁nations	-7551
host	-7552
lord	-7553
▁1-8	-7554
▁Jew	-7555
▁nba	-7556
lando	-7557
ishing	-7558
oscopy	-7559
velength	-7560
▁forming	-7561
▁workout	-7562
▁dizziness	-7563
rog	-7564
▁mos	-7565
bladder	-7566
▁Support	-7567
▁exposed	-7568
▁clothing	-7569
ista	-7570
▁Travel	-7571
▁bigger	-7572
▁broker	-7573
▁tendon	-7574
ulations	-7575
▁adrenal	-7576
▁2015,	-7577
▁thatâ	-7578
▁circumst	-7579
▁buildings	-7580
▁SE	-7581
igen	-7582
▁15,	-7583
haust	-7584
bridge	-7585
▁nails	-7586
▁newsp	-7587
▁pairs	-7588
▁Access	-7589
▁accompl	-7590
▁intellig	-7591
▁variables	-7592
You	-7593
bec	-7594
▁Who	-7595
▁Alex	-7596
▁fault	-7597
▁migra	-7598
▁spain	-7599
▁lincoln	-7600
▁musical	-7601
▁pneumonia	-7602
▁Fahrenheit	-7603
▁continental	-7604
▁BC	-7605
▁sar	-7606
▁Disc	-7607
▁pean	-7608
saurus	-7609
▁Brown	-7610
▁neutral	-7611
ipt	-7612
▁Bow	-7613
ector	-7614
▁span	-7615
▁association	-7616
▁sap	-7617
ctive	-7618
▁orbit	-7619
▁eukary	-7620
▁patent	-7621
▁licensed	-7622
lyn	-7623
phia	-7624
▁hat	-7625
▁peel	-7626
ibilities	-7627
▁managers	-7628
▁IP	-7629
▁Ut	-7630
iders	-7631
▁scen	-7632
▁incub	-7633
▁filled	-7634
▁smoking	-7635
▁reporting	-7636
uten	-7637
vard	-7638
abeth	-7639
embly	-7640
▁Aust	-7641
▁crow	-7642
▁quad	-7643
▁spark	-7644
▁theat	-7645
▁listings	-7646
mi	-7647
chers	-7648
▁Egypt	-7649
▁wrist	-7650
▁shrimp	-7651
▁gravity	-7652
TA	-7653
yme	-7654
▁(8	-7655
▁nh	-7656
body	-7657
▁Sea	-7658
gency	-7659
▁false	-7660
▁utility	-7661
hma	-7662
ials	-7663
▁250	-7664
▁Exp	-7665
▁whats	-7666
▁exists	-7667
▁infect	-7668
▁Children	-7669
▁34	-7670
argo	-7671
▁Spain	-7672
ocation	-7673
▁breaks	-7674
adelphia	-7675
▁stations	-7676
▁treating	-7677
▁destination	-7678
▁eB	-7679
oxic	-7680
▁Jeff	-7681
▁Roman	-7682
yroidism	-7683
▁centers	-7684
▁TO	-7685
akers	-7686
arest	-7687
aments	-7688
▁tried	-7689
▁galaxy	-7690
▁consequ	-7691
▁menstrual	-7692
▁principles	-7693
▁significance	-7694
▁subscription	-7695
isa	-7696
spec	-7697
power	-7698
atures	-7699
▁2013,	-7700
osystem	-7701
▁Example	-7702
▁Whether	-7703
▁instant	-7704
▁sediment	-7705
▁Den	-7706
▁ire	-7707
▁Foot	-7708
▁flav	-7709
abetic	-7710
▁topic	-7711
▁attrib	-7712
▁wealth	-7713
otherapy	-7714
▁allergy	-7715
▁trading	-7716
▁numerous	-7717
We	-7718
▁FA	-7719
▁Arch	-7720
▁Camp	-7721
▁tires	-7722
▁thread	-7723
▁library	-7724
▁quantity	-7725
IA	-7726
▁(6	-7727
▁bob	-7728
▁wis	-7729
plete	-7730
▁canâ	-7731
▁gear	-7732
▁syll	-7733
▁agree	-7734
▁coron	-7735
▁multi	-7736
▁evolve	-7737
▁metals	-7738
▁polymer	-7739
▁Customer	-7740
▁occasion	-7741
▁wisconsin	-7742
▁representative	-7743
3)	-7744
▁37	-7745
mont	-7746
▁Ham	-7747
▁LLC	-7748
▁butt	-7749
▁font	-7750
▁Artic	-7751
▁zones	-7752
inating	-7753
▁hawaii	-7754
▁applying	-7755
▁Wednesday	-7756
▁%	-7757
esis	-7758
▁Arab	-7759
▁Sing	-7760
▁doub	-7761
▁Second	-7762
▁exempt	-7763
▁passes	-7764
▁believed	-7765
▁swimming	-7766
▁transmitted	-7767
▁precipitation	-7768
bc	-7769
asts	-7770
▁nob	-7771
icles	-7772
▁wars	-7773
ateral	-7774
▁accum	-7775
▁Britain	-7776
▁Sheriff	-7777
▁proport	-7778
▁Therefore	-7779
▁responsibility	-7780
itz	-7781
▁AR	-7782
irty	-7783
lymp	-7784
▁grain	-7785
▁proof	-7786
▁storm	-7787
▁operate	-7788
▁8,	-7789
▁Pub	-7790
antic	-7791
▁subt	-7792
▁clock	-7793
▁belief	-7794
▁pokemon	-7795
▁checking	-7796
▁collagen	-7797
▁episodes	-7798
▁Treatment	-7799
▁universal	-7800
▁interested	-7801
97	-7802
di	-7803
▁Bud	-7804
▁ell	-7805
,000,	-7806
▁Game	-7807
agraph	-7808
▁males	-7809
tension	-7810
▁Mississippi	-7811
▁educational	-7812
war	-7813
iors	-7814
▁dub	-7815
▁fed	-7816
esota	-7817
▁Save	-7818
▁bags	-7819
▁gout	-7820
▁appra	-7821
▁lasts	-7822
ologies	-7823
▁starch	-7824
▁combine	-7825
▁mutation	-7826
▁programming	-7827
CS	-7828
MT	-7829
▁lux	-7830
ocracy	-7831
▁Change	-7832
▁Benefits	-7833
▁millions	-7834
▁practices	-7835
ifer	-7836
▁HIV	-7837
orrow	-7838
▁$500	-7839
▁brit	-7840
▁tells	-7841
▁usual	-7842
▁floors	-7843
▁Manager	-7844
▁females	-7845
py	-7846
vi	-7847
▁scr	-7848
▁vul	-7849
▁soda	-7850
▁wings	-7851
izabeth	-7852
▁Boston	-7853
▁equals	-7854
▁consent	-7855
▁homeown	-7856
▁michael	-7857
▁ana	-7858
▁ray	-7859
▁tro	-7860
ograp	-7861
▁anch	-7862
untary	-7863
▁vinyl	-7864
▁prompt	-7865
▁Eastern	-7866
▁antibiotic	-7867
▁recognized	-7868
ja	-7869
urb	-7870
▁hire	-7871
▁demonst	-7872
▁earthquake	-7873
mo	-7874
▁33	-7875
▁www	-7876
ealand	-7877
▁plain	-7878
▁Kansas	-7879
▁assigned	-7880
▁varieties	-7881
▁transition	-7882
roit	-7883
▁cyl	-7884
▁2013.	-7885
▁delay	-7886
▁dried	-7887
▁snake	-7888
▁exhaust	-7889
▁administrative	-7890
MA	-7891
▁emph	-7892
▁rings	-7893
▁extend	-7894
▁clients	-7895
▁turning	-7896
▁tomatoes	-7897
▁decisions	-7898
84	-7899
sor	-7900
▁Ox	-7901
▁fu	-7902
▁Rev	-7903
▁lies	-7904
▁roth	-7905
▁brush	-7906
▁vital	-7907
▁courts	-7908
▁Statistics	-7909
▁muc	-7910
liest	-7911
oenix	-7912
rants	-7913
▁Roth	-7914
▁hind	-7915
▁factory	-7916
▁expressed	-7917
▁Pet	-7918
▁poet	-7919
▁europe	-7920
▁helped	-7921
▁sharing	-7922
▁vertical	-7923
II	-7924
▁Adv	-7925
▁End	-7926
▁hiv	-7927
▁rooms	-7928
▁gastro	-7929
▁colleges	-7930
▁dominant	-7931
▁seizures	-7932
▁Minnesota	-7933
▁evaluation	-7934
▁circulation	-7935
▁Rh	-7936
▁jury	-7937
▁ceiling	-7938
▁tallest	-7939
▁wavelength	-7940
▁significantly	-7941
eur	-7942
uis	-7943
▁AS	-7944
apse	-7945
bour	-7946
▁lie	-7947
▁sher	-7948
▁Table	-7949
▁meals	-7950
▁Indiana	-7951
▁Profess	-7952
▁promote	-7953
▁offering	-7954
▁transportation	-7955
char	-7956
igram	-7957
▁oxid	-7958
itness	-7959
▁2014,	-7960
▁views	-7961
▁duties	-7962
▁figures	-7963
▁glasses	-7964
▁superior	-7965
▁communities	-7966
ht	-7967
aya	-7968
yst	-7969
▁HP	-7970
iano	-7971
anged	-7972
▁Light	-7973
▁assum	-7974
▁doors	-7975
▁checked	-7976
:30	-7977
aft	-7978
rich	-7979
▁Week	-7980
▁isol	-7981
▁logo	-7982
▁vein	-7983
inally	-7984
▁abund	-7985
▁hypoth	-7986
▁signals	-7987
▁magnetic	-7988
ibl	-7989
▁ech	-7990
▁ped	-7991
glass	-7992
▁loose	-7993
iration	-7994
▁dating	-7995
▁remodel	-7996
▁supports	-7997
▁vascular	-7998
▁entertain	-7999
▁eventually	-8000
▁401	-8001
▁gon	-8002
▁chip	-8003
▁prin	-8004
▁semi	-8005
▁circul	-8006
▁sustain	-8007
▁pharmacy	-8008
▁MA	-8009
▁(1)	-8010
▁Max	-8011
▁beta	-8012
▁gate	-8013
ferent	-8014
▁accel	-8015
▁dedic	-8016
▁innov	-8017
▁orders	-8018
▁android	-8019
▁Commission	-8020
▁Aud	-8021
illin	-8022
▁Link	-8023
codone	-8024
▁algae	-8025
▁throw	-8026
aration	-8027
▁crystal	-8028
▁qualified	-8029
▁PD	-8030
▁Las	-8031
▁gut	-8032
ocity	-8033
▁rust	-8034
▁acidic	-8035
▁ireland	-8036
▁religion	-8037
▁cartilage	-8038
▁principle	-8039
.2	-8040
hot	-8041
bean	-8042
loin	-8043
▁Ter	-8044
▁Baby	-8045
▁cycl	-8046
▁lamb	-8047
▁laun	-8048
▁decor	-8049
▁towns	-8050
▁producer	-8051
▁evolution	-8052
▁transplant	-8053
▁Ok	-8054
▁gym	-8055
▁Photo	-8056
▁giant	-8057
ifts	-8058
▁$2,	-8059
▁2009	-8060
▁Diet	-8061
nership	-8062
▁daylight	-8063
▁immediate	-8064
mel	-8065
rots	-8066
▁imper	-8067
▁slang	-8068
▁sister	-8069
▁Run	-8070
▁pup	-8071
▁acne	-8072
▁rhyth	-8073
▁teach	-8074
▁truth	-8075
▁squash	-8076
▁dietary	-8077
▁partial	-8078
including	-8079
▁controller	-8080
▁gallbladder	-8081
ela	-8082
fen	-8083
▁tag	-8084
umbers	-8085
▁quote	-8086
▁prohib	-8087
▁applies	-8088
▁ram	-8089
▁Veter	-8090
▁keeps	-8091
▁tradem	-8092
▁mileage	-8093
▁offices	-8094
vic	-8095
▁Put	-8096
▁gap	-8097
ostic	-8098
▁Heat	-8099
▁navy	-8100
▁Local	-8101
▁enable	-8102
▁hazard	-8103
▁tested	-8104
▁tumors	-8105
▁possess	-8106
▁surgeon	-8107
reciation	-8108
▁machines	-8109
▁ingredient	-8110
▁OK	-8111
▁$25	-8112
▁800	-8113
▁Rob	-8114
▁Try	-8115
▁pear	-8116
▁ting	-8117
▁empty	-8118
▁onion	-8119
▁drinks	-8120
▁summary	-8121
▁diagnose	-8122
▁estrogen	-8123
▁CT	-8124
▁ig	-8125
rors	-8126
alled	-8127
▁Pric	-8128
▁weld	-8129
▁Watch	-8130
▁bills	-8131
▁Weight	-8132
▁trailer	-8133
▁ecosystem	-8134
▁interface	-8135
▁synthesis	-8136
roe	-8137
▁2)	-8138
anus	-8139
▁Job	-8140
▁cer	-8141
▁ger	-8142
onyms	-8143
rophy	-8144
▁gone	-8145
ennedy	-8146
▁vapor	-8147
▁Depending	-8148
▁americans	-8149
▁appointment	-8150
▁186	-8151
▁apa	-8152
▁bio	-8153
aware	-8154
▁Ford	-8155
▁belt	-8156
▁merc	-8157
▁arrive	-8158
▁margin	-8159
▁legally	-8160
▁outdoor	-8161
▁trigger	-8162
▁younger	-8163
▁relevant	-8164
▁sla	-8165
iverse	-8166
▁Abuse	-8167
▁borrow	-8168
▁tomato	-8169
▁sausage	-8170
▁previously	-8171
how	-8172
▁ot	-8173
▁los	-8174
▁iowa	-8175
hester	-8176
▁titan	-8177
▁wheat	-8178
▁dermat	-8179
▁Section	-8180
▁journal	-8181
▁medicines	-8182
olk	-8183
try	-8184
▁tan	-8185
ivered	-8186
▁flying	-8187
▁literal	-8188
▁officers	-8189
▁reduction	-8190
▁Description	-8191
46	-8192
hour	-8193
icut	-8194
▁Tim	-8195
▁corp	-8196
▁unus	-8197
▁horiz	-8198
▁satur	-8199
▁anesthes	-8200
▁;	-8201
def	-8202
▁1.5	-8203
click	-8204
visor	-8205
▁stab	-8206
▁appet	-8207
▁drill	-8208
ractions	-8209
▁triangle	-8210
▁Financial	-8211
▁receiving	-8212
▁difficulty	-8213
enter	-8214
etics	-8215
▁Hand	-8216
▁cigare	-8217
▁manual	-8218
▁clothes	-8219
▁ZIP	-8220
▁util	-8221
▁zinc	-8222
uitary	-8223
▁_____	-8224
▁admin	-8225
▁brick	-8226
▁integ	-8227
▁Origin	-8228
▁arrange	-8229
▁kingdom	-8230
▁menopause	-8231
▁thickness	-8232
▁circumstances	-8233
law	-8234
▁aqu	-8235
aming	-8236
icate	-8237
ordan	-8238
▁Right	-8239
▁fungi	-8240
▁Employ	-8241
▁ranked	-8242
▁restore	-8243
▁familiar	-8244
▁template	-8245
▁resolution	-8246
▁Introduction	-8247
▁Way	-8248
using	-8249
▁Edit	-8250
▁Line	-8251
graduate	-8252
▁missouri	-8253
▁Christian	-8254
▁breakdown	-8255
▁calculation	-8256
1)	-8257
PM	-8258
▁Mo	-8259
itud	-8260
▁350	-8261
▁Opt	-8262
▁bip	-8263
▁Burn	-8264
▁eBay	-8265
▁lady	-8266
▁onions	-8267
▁stable	-8268
▁obvious	-8269
aylor	-8270
leans	-8271
▁Meth	-8272
▁Plus	-8273
▁axis	-8274
▁poem	-8275
heumat	-8276
opedia	-8277
▁tower	-8278
mentation	-8279
▁laboratory	-8280
yg	-8281
▁pdf	-8282
▁isnâ	-8283
icious	-8284
▁Three	-8285
▁spons	-8286
▁Project	-8287
▁entered	-8288
▁founder	-8289
▁pancreat	-8290
▁processed	-8291
esh	-8292
ila	-8293
▁Ur	-8294
▁Gar	-8295
▁toy	-8296
iosis	-8297
▁alex	-8298
iences	-8299
▁Video	-8300
▁opinion	-8301
▁approval	-8302
▁teaspoon	-8303
▁dedicated	-8304
▁peripheral	-8305
▁Thus	-8306
▁foil	-8307
▁Early	-8308
▁tennis	-8309
▁neuropathy	-8310
▁settlement	-8311
▁presidential	-8312
EO	-8313
lam	-8314
valent	-8315
▁Library	-8316
▁restaurants	-8317
ami	-8318
▁Fil	-8319
▁Have	-8320
▁mush	-8321
akespe	-8322
▁1,000	-8323
▁Drive	-8324
▁baked	-8325
▁recon	-8326
▁leather	-8327
▁competitive	-8328
76	-8329
isis	-8330
anned	-8331
produ	-8332
▁Does	-8333
▁Zone	-8334
▁pasta	-8335
▁dinner	-8336
▁facial	-8337
▁ultras	-8338
▁vacuum	-8339
▁segment	-8340
▁upgrade	-8341
▁Hospital	-8342
Ad	-8343
rub	-8344
▁lifes	-8345
▁herpes	-8346
▁african	-8347
akespeare	-8348
▁obtained	-8349
▁patterns	-8350
gov	-8351
▁Gard	-8352
▁Mail	-8353
▁slic	-8354
uction	-8355
▁Prote	-8356
clusion	-8357
ivation	-8358
▁capable	-8359
▁explains	-8360
▁versions	-8361
▁Generally	-8362
▁pollution	-8363
UT	-8364
pay	-8365
esity	-8366
ontin	-8367
▁Date	-8368
▁Help	-8369
▁lith	-8370
▁Heart	-8371
rection	-8372
unately	-8373
▁weekly	-8374
▁basement	-8375
▁numbness	-8376
▁molecular	-8377
▁boundaries	-8378
▁SS	-8379
phal	-8380
▁11,	-8381
front	-8382
going	-8383
reted	-8384
orical	-8385
▁Coast	-8386
▁noise	-8387
▁toler	-8388
▁wants	-8389
▁neurons	-8390
▁lifetime	-8391
▁receives	-8392
▁measuring	-8393
▁ovulation	-8394
49	-8395
He	-8396
▁hyg	-8397
rowse	-8398
coming	-8399
▁renal	-8400
▁himself	-8401
▁houston	-8402
▁Addition	-8403
▁skeletal	-8404
▁Wikipedia	-8405
▁adjective	-8406
▁hospitals	-8407
oves	-8408
▁Hem	-8409
▁Mid	-8410
uther	-8411
▁flows	-8412
▁honor	-8413
▁dement	-8414
▁explan	-8415
▁rarely	-8416
ashville	-8417
▁analyst	-8418
▁helping	-8419
▁nucleot	-8420
▁Medicine	-8421
▁landlord	-8422
▁furniture	-8423
▁territory	-8424
▁experiment	-8425
▁substitute	-8426
An	-8427
▁fibr	-8428
apolis	-8429
▁Pract	-8430
▁compat	-8431
▁tenant	-8432
▁passing	-8433
▁session	-8434
.).	-8435
For	-8436
oly	-8437
▁38	-8438
▁Ren	-8439
etary	-8440
▁Coll	-8441
▁Dev	-8442
▁Soci	-8443
▁viet	-8444
▁nasal	-8445
▁campus	-8446
▁resume	-8447
▁studio	-8448
▁slavery	-8449
▁tracking	-8450
▁offenders	-8451
dis	-8452
rite	-8453
asive	-8454
phalt	-8455
▁valu	-8456
immune	-8457
▁styles	-8458
▁renewal	-8459
▁contamin	-8460
▁oklahoma	-8461
▁statements	-8462
▁opportunities	-8463
▁identification	-8464
',	-8465
ypt	-8466
cycle	-8467
▁Rate	-8468
▁Sche	-8469
▁ended	-8470
▁grains	-8471
▁manner	-8472
▁unknown	-8473
▁mitochond	-8474
psy	-8475
▁Mor	-8476
▁Tool	-8477
braska	-8478
▁yards	-8479
issance	-8480
▁Download	-8481
▁Mountain	-8482
▁shopping	-8483
▁synthetic	-8484
▁Anc	-8485
flamm	-8486
osion	-8487
▁1980	-8488
▁intel	-8489
ificial	-8490
▁Figure	-8491
▁absolute	-8492
▁township	-8493
▁automatic	-8494
▁tennessee	-8495
PT	-8496
▁$30	-8497
▁Summ	-8498
▁felt	-8499
▁swit	-8500
▁trem	-8501
▁embry	-8502
▁epithel	-8503
▁experts	-8504
▁suggests	-8505
▁lifestyle	-8506
▁efficiency	-8507
▁testosterone	-8508
▁ric	-8509
ittle	-8510
▁drum	-8511
▁lips	-8512
▁ammon	-8513
▁chops	-8514
▁immun	-8515
▁recip	-8516
▁Thomas	-8517
▁divers	-8518
▁instit	-8519
▁waters	-8520
▁Vitamin	-8521
▁preserv	-8522
▁delivered	-8523
▁structural	-8524
noun	-8525
ounter	-8526
▁rehab	-8527
▁german	-8528
▁soccer	-8529
▁ceremon	-8530
▁whereas	-8531
▁experiences	-8532
▁psychological	-8533
Ex	-8534
▁arc	-8535
▁Cast	-8536
▁clay	-8537
▁Plant	-8538
▁fraud	-8539
agnetic	-8540
▁america	-8541
▁aspects	-8542
▁dementia	-8543
▁flexible	-8544
▁removing	-8545
▁Wisconsin	-8546
▁pronounced	-8547
▁examination	-8548
▁47	-8549
link	-8550
▁Jud	-8551
akota	-8552
▁charl	-8553
▁deals	-8554
▁obama	-8555
▁Series	-8556
▁concern	-8557
▁elderly	-8558
▁walmart	-8559
▁correctly	-8560
▁milligram	-8561
ods	-8562
▁IL	-8563
▁mr	-8564
opath	-8565
▁Sale	-8566
▁bacon	-8567
▁craft	-8568
▁recur	-8569
ructure	-8570
▁fungus	-8571
▁volcano	-8572
▁cervical	-8573
▁manufactured	-8574
▁)	-8575
▁PS	-8576
mill	-8577
lycer	-8578
odine	-8579
▁egypt	-8580
▁Division	-8581
▁electrom	-8582
▁literary	-8583
▁consumers	-8584
▁replacing	-8585
▁specialized	-8586
PE	-8587
opher	-8588
▁risks	-8589
▁rubber	-8590
▁snakes	-8591
▁Columbia	-8592
▁contacts	-8593
▁kilogram	-8594
▁shooting	-8595
▁paragraph	-8596
OM	-8597
.	-8598
enge	-8599
▁Cab	-8600
▁pant	-8601
▁Alabama	-8602
▁Natural	-8603
▁interpret	-8604
▁screening	-8605
▁ros	-8606
▁weâ	-8607
icaid	-8608
olves	-8609
▁aids	-8610
▁muse	-8611
▁tone	-8612
▁Portug	-8613
▁boston	-8614
▁cancell	-8615
▁anterior	-8616
▁regularly	-8617
▁immigration	-8618
▁191	-8619
▁Ash	-8620
itely	-8621
▁arts	-8622
▁bulb	-8623
▁Henry	-8624
▁belly	-8625
▁digit	-8626
▁posts	-8627
ellular	-8628
▁prefix	-8629
▁unable	-8630
▁carried	-8631
▁trouble	-8632
▁generate	-8633
▁pituitary	-8634
▁conference	-8635
MD	-8636
sey	-8637
▁da	-8638
▁Hind	-8639
▁aden	-8640
▁pole	-8641
▁turb	-8642
inates	-8643
▁april	-8644
▁expans	-8645
▁Records	-8646
▁adopted	-8647
▁researc	-8648
▁judgment	-8649
▁nutrient	-8650
___	-8651
▁2018	-8652
common	-8653
profit	-8654
▁microsc	-8655
▁reality	-8656
▁Francisco	-8657
▁scientist	-8658
▁inspection	-8659
▁SU	-8660
▁$2.	-8661
▁1960	-8662
▁crab	-8663
osevel	-8664
▁Times	-8665
▁abuse	-8666
▁entit	-8667
▁swall	-8668
▁disapp	-8669
▁hernia	-8670
▁boiling	-8671
▁regional	-8672
▁replication	-8673
aks	-8674
nea	-8675
rup	-8676
▁ES	-8677
▁nort	-8678
▁Charl	-8679
▁juris	-8680
▁custody	-8681
▁waiting	-8682
▁contracts	-8683
▁comfortable	-8684
▁$0.	-8685
▁Box	-8686
▁Cut	-8687
▁Roy	-8688
▁bub	-8689
▁Four	-8690
▁aware	-8691
▁tunnel	-8692
▁physics	-8693
▁installing	-8694
▁ultrasound	-8695
▁Imm	-8696
▁burns	-8697
▁skill	-8698
▁burned	-8699
▁trauma	-8700
▁perhaps	-8701
▁contraction	-8702
/4	-8703
ifi	-8704
▁Nut	-8705
▁Sup	-8706
▁dup	-8707
itage	-8708
▁rated	-8709
▁plenty	-8710
▁rabbits	-8711
▁rapidly	-8712
▁Medicaid	-8713
▁copyright	-8714
▁september	-8715
onto	-8716
▁NBA	-8717
isone	-8718
▁horn	-8719
▁cents	-8720
▁holes	-8721
▁Alaska	-8722
▁Prince	-8723
▁sitting	-8724
▁japanese	-8725
▁Louisiana	-8726
78	-8727
edar	-8728
▁Cub	-8729
▁Hyd	-8730
▁Cond	-8731
▁Live	-8732
▁prince	-8733
▁treaty	-8734
▁Charles	-8735
▁decided	-8736
▁defines	-8737
▁instruct	-8738
▁advantages	-8739
ello	-8740
ults	-8741
▁Which	-8742
▁fluids	-8743
▁mening	-8744
▁acronym	-8745
▁markets	-8746
▁massage	-8747
▁sections	-8748
▁expiration	-8749
▁originated	-8750
43	-8751
▁kin	-8752
illes	-8753
▁Energy	-8754
▁asthma	-8755
▁statute	-8756
ventional	-8757
▁presented	-8758
▁reasonable	-8759
▁Corporation	-8760
inf	-8761
lla	-8762
▁grey	-8763
▁palm	-8764
▁tang	-8765
▁bases	-8766
▁inhal	-8767
▁manif	-8768
▁scalp	-8769
osevelt	-8770
▁relieve	-8771
▁organized	-8772
rink	-8773
▁Cat	-8774
▁Nov	-8775
arent	-8776
▁2005	-8777
▁Farm	-8778
▁wolf	-8779
▁Ident	-8780
▁scene	-8781
▁Commer	-8782
▁desired	-8783
▁greatly	-8784
▁Australian	-8785
TH	-8786
▁na	-8787
adow	-8788
▁Nurs	-8789
▁java	-8790
▁odor	-8791
▁Obama	-8792
▁degen	-8793
▁Russia	-8794
function	-8795
▁Missouri	-8796
▁conflict	-8797
▁relation	-8798
▁interesting	-8799
▁Aug	-8800
▁tam	-8801
level	-8802
ommod	-8803
▁benz	-8804
▁vice	-8805
▁backup	-8806
▁digits	-8807
▁victim	-8808
▁wisdom	-8809
▁writer	-8810
▁Springs	-8811
▁finally	-8812
▁employed	-8813
▁hundreds	-8814
▁blog	-8815
alysis	-8816
imeter	-8817
▁netflix	-8818
▁pediatric	-8819
OC	-8820
agu	-8821
▁1)	-8822
hand	-8823
orus	-8824
▁sir	-8825
▁weap	-8826
▁pyram	-8827
▁Church	-8828
▁joined	-8829
▁unlock	-8830
▁dentist	-8831
▁continues	-8832
▁affordable	-8833
oler	-8834
▁1/4	-8835
▁sear	-8836
etooth	-8837
▁recre	-8838
▁tired	-8839
holders	-8840
▁dealer	-8841
▁traits	-8842
▁exterior	-8843
▁contained	-8844
▁supported	-8845
▁antibodies	-8846
TS	-8847
ags	-8848
dge	-8849
boro	-8850
rical	-8851
heimer	-8852
▁advoc	-8853
▁defend	-8854
▁pricing	-8855
▁Language	-8856
▁fahrenheit	-8857
▁complications	-8858
▁9,	-8859
▁bass	-8860
▁kick	-8861
▁mast	-8862
▁moss	-8863
ements	-8864
estone	-8865
▁eleph	-8866
▁launch	-8867
▁determining	-8868
eg	-8869
▁tar	-8870
leton	-8871
▁snap	-8872
annels	-8873
▁2012,	-8874
▁param	-8875
▁satell	-8876
▁sprink	-8877
outheast	-8878
▁downtown	-8879
▁tablespoon	-8880
▁(200	-8881
▁cock	-8882
▁Psych	-8883
▁felony	-8884
▁ginger	-8885
▁marked	-8886
▁strand	-8887
▁thomas	-8888
▁diagram	-8889
▁putting	-8890
▁absorbed	-8891
▁Represent	-8892
gia	-8893
otive	-8894
imburs	-8895
▁advis	-8896
▁saving	-8897
▁engines	-8898
▁speaking	-8899
▁cognitive	-8900
▁indicated	-8901
▁membranes	-8902
41	-8903
vit	-8904
▁72	-8905
▁usb	-8906
▁1990	-8907
▁fans	-8908
▁keys	-8909
engers	-8910
▁royal	-8911
▁Academy	-8912
▁Houston	-8913
▁metabolic	-8914
▁objective	-8915
▁recording	-8916
cm	-8917
▁Buy	-8918
▁pic	-8919
▁fairly	-8920
▁mature	-8921
▁comment	-8922
▁modified	-8923
▁breakfast	-8924
▁inventory	-8925
▁UN	-8926
agan	-8927
asms	-8928
▁inm	-8929
umbus	-8930
▁Java	-8931
▁pier	-8932
▁till	-8933
▁Hawaii	-8934
olarship	-8935
▁substant	-8936
▁absorption	-8937
▁advertising	-8938
▁limitations	-8939
??	-8940
topl	-8941
▁30,	-8942
eller	-8943
heter	-8944
▁Chem	-8945
▁Hold	-8946
▁Wall	-8947
shaped	-8948
▁Store	-8949
▁worst	-8950
▁Hebrew	-8951
▁appeal	-8952
▁recipes	-8953
▁designer	-8954
▁mathemat	-8955
▁perspect	-8956
48	-8957
cos	-8958
▁CH	-8959
acks	-8960
erman	-8961
ocard	-8962
▁soup	-8963
▁Worth	-8964
▁angles	-8965
▁exceed	-8966
▁rivers	-8967
▁evening	-8968
▁puppies	-8969
▁extensive	-8970
▁religious	-8971
▁spiritual	-8972
vo	-8973
▁2-	-8974
▁Pu	-8975
itus	-8976
▁desc	-8977
▁Level	-8978
▁chips	-8979
▁Dallas	-8980
▁Yellow	-8981
ali	-8982
uity	-8983
▁12.	-8984
▁$200	-8985
▁Inte	-8986
▁hills	-8987
▁slice	-8988
▁defect	-8989
▁fossil	-8990
▁matrix	-8991
▁hardwood	-8992
▁spelling	-8993
▁Ly	-8994
▁vo	-8995
▁drawn	-8996
▁crisis	-8997
▁phones	-8998
▁pulled	-8999
▁infants	-9000
▁chloride	-9001
▁velocity	-9002
lux	-9003
▁Lee	-9004
▁pus	-9005
otine	-9006
▁Song	-9007
ulitis	-9008
▁Media	-9009
▁Small	-9010
▁dough	-9011
▁Master	-9012
▁Safety	-9013
▁promin	-9014
▁leaders	-9015
▁kilometers	-9016
▁officially	-9017
esla	-9018
then	-9019
▁sail	-9020
▁Major	-9021
▁magic	-9022
▁patch	-9023
▁carcin	-9024
▁Maryland	-9025
▁occurred	-9026
▁dehydration	-9027
Al	-9028
iro	-9029
▁OR	-9030
▁OS	-9031
irds	-9032
seud	-9033
▁beds	-9034
▁todd	-9035
▁Author	-9036
▁hemorrh	-9037
▁appeared	-9038
▁creation	-9039
▁diabetic	-9040
▁scheduled	-9041
300	-9042
yan	-9043
isms	-9044
▁ATP	-9045
nings	-9046
▁Prem	-9047
▁clar	-9048
▁jeff	-9049
▁scope	-9050
▁shelf	-9051
▁funeral	-9052
▁supreme	-9053
▁lifespan	-9054
▁reliable	-9055
▁receptors	-9056
isal	-9057
tles	-9058
▁Oil	-9059
▁soluble	-9060
▁allowing	-9061
▁periodic	-9062
▁childhood	-9063
▁consisting	-9064
▁preparation	-9065
▁carbohydrate	-9066
▁reproduction	-9067
▁39	-9068
▁Sn	-9069
list	-9070
ouds	-9071
▁Gas	-9072
▁Auto	-9073
▁Indust	-9074
▁posted	-9075
▁variation	-9076
▁regardless	-9077
DS	-9078
Un	-9079
Wh	-9080
▁ba	-9081
▁maps	-9082
▁Foods	-9083
▁align	-9084
▁anton	-9085
▁shots	-9086
▁Address	-9087
▁insects	-9088
▁managed	-9089
▁origins	-9090
▁appetite	-9091
▁magazine	-9092
▁Development	-9093
acc	-9094
▁DC	-9095
▁Cir	-9096
▁gau	-9097
chlor	-9098
▁cran	-9099
▁2012.	-9100
▁feels	-9101
▁haven	-9102
▁shake	-9103
▁occurring	-9104
▁Tru	-9105
▁cann	-9106
▁Index	-9107
▁bloom	-9108
▁doses	-9109
▁setup	-9110
regular	-9111
▁ending	-9112
▁extent	-9113
▁missing	-9114
▁possibly	-9115
▁proposed	-9116
TV	-9117
nut	-9118
obal	-9119
unte	-9120
riers	-9121
▁candy	-9122
▁clerk	-9123
riction	-9124
▁marrow	-9125
▁amazing	-9126
▁cabinet	-9127
▁averages	-9128
▁covering	-9129
▁fraction	-9130
▁medicaid	-9131
ugs	-9132
isol	-9133
otte	-9134
▁suc	-9135
▁whit	-9136
isation	-9137
isition	-9138
▁Images	-9139
▁Though	-9140
▁Richard	-9141
▁surfaces	-9142
▁exercises	-9143
▁Mic	-9144
▁Base	-9145
▁Norm	-9146
▁jewel	-9147
limited	-9148
▁discip	-9149
▁export	-9150
▁nearby	-9151
▁Usually	-9152
▁sensory	-9153
▁coronary	-9154
▁neurolog	-9155
cyclopedia	-9156
▁phosphate	-9157
▁signature	-9158
▁represented	-9159
▁relationships	-9160
bes	-9161
rael	-9162
▁16,	-9163
▁Cand	-9164
▁frag	-9165
ources	-9166
▁frost	-9167
▁merch	-9168
▁Police	-9169
▁chosen	-9170
▁decades	-9171
▁partners	-9172
▁engineers	-9173
exe	-9174
▁Mr	-9175
▁Mov	-9176
▁Win	-9177
▁copies	-9178
▁banking	-9179
▁ranging	-9180
▁traveling	-9181
NS	-9182
han	-9183
▁DE	-9184
irus	-9185
▁14,	-9186
▁Jim	-9187
umbar	-9188
▁Priv	-9189
▁vast	-9190
▁Based	-9191
▁Daily	-9192
install	-9193
▁panels	-9194
▁Council	-9195
▁asphalt	-9196
▁mammals	-9197
▁stadium	-9198
▁regulate	-9199
▁hurricane	-9200
RL	-9201
beat	-9202
▁Zip	-9203
▁Less	-9204
▁Vict	-9205
▁chop	-9206
▁fell	-9207
▁vene	-9208
▁whom	-9209
▁fewer	-9210
▁slide	-9211
▁tasks	-9212
▁awards	-9213
▁jurisd	-9214
▁learned	-9215
▁breaking	-9216
▁somewhat	-9217
▁allowance	-9218
▁inflation	-9219
▁posterior	-9220
lev	-9221
▁Tri	-9222
▁tin	-9223
ATION	-9224
burgh	-9225
▁Love	-9226
▁Mess	-9227
▁dipl	-9228
▁utah	-9229
▁lakes	-9230
isphere	-9231
▁Server	-9232
▁symbols	-9233
▁drainage	-9234
▁insulation	-9235
▁respectively	-9236
▁46	-9237
alam	-9238
odium	-9239
▁cysts	-9240
▁delet	-9241
▁fifth	-9242
▁stated	-9243
▁Islands	-9244
▁drawing	-9245
▁argument	-9246
▁contents	-9247
▁planting	-9248
▁reducing	-9249
romb	-9250
▁0.0	-9251
▁ker	-9252
▁tot	-9253
ously	-9254
▁coins	-9255
▁clinic	-9256
▁explore	-9257
▁esophagus	-9258
▁autoimmune	-9259
▁legislation	-9260
CP	-9261
rat	-9262
amas	-9263
emade	-9264
▁grocer	-9265
▁recycl	-9266
▁Instead	-9267
▁texture	-9268
▁practical	-9269
▁progressive	-9270
▁representatives	-9271
83	-9272
erto	-9273
opsy	-9274
▁2006	-9275
▁2010,	-9276
▁Force	-9277
▁blade	-9278
▁acting	-9279
▁seller	-9280
▁clearly	-9281
▁falling	-9282
▁obesity	-9283
▁stronger	-9284
▁democracy	-9285
▁reproductive	-9286
yr	-9287
▁12,	-9288
▁Pur	-9289
▁lion	-9290
▁pace	-9291
▁debit	-9292
▁youth	-9293
itative	-9294
▁legend	-9295
▁hunting	-9296
▁liberty	-9297
▁Explorer	-9298
▁converted	-9299
via	-9300
just	-9301
about	-9302
arynx	-9303
Americ	-9304
▁beats	-9305
▁vocal	-9306
▁capill	-9307
▁caught	-9308
▁License	-9309
▁shorter	-9310
▁friendly	-9311
▁situations	-9312
▁intelligence	-9313
aco	-9314
▁CS	-9315
oker	-9316
▁17,	-9317
▁ups	-9318
▁vas	-9319
erald	-9320
oning	-9321
▁Pack	-9322
writer	-9323
▁scler	-9324
▁indian	-9325
▁discrim	-9326
▁inherited	-9327
▁discomfort	-9328
▁partnership	-9329
leen	-9330
▁pra	-9331
▁sql	-9332
acent	-9333
▁Qual	-9334
▁Vegas	-9335
▁honda	-9336
▁winds	-9337
▁advent	-9338
▁closer	-9339
▁ordered	-9340
▁crystals	-9341
▁lup	-9342
icted	-9343
ourse	-9344
▁Types	-9345
▁itchy	-9346
▁mosqu	-9347
▁ulcer	-9348
▁Regist	-9349
▁Disease	-9350
▁ownership	-9351
42	-9352
79	-9353
sis	-9354
▁85	-9355
avis	-9356
ilia	-9357
▁nap	-9358
check	-9359
▁rome	-9360
porary	-9361
▁cramp	-9362
ishment	-9363
▁cement	-9364
▁diesel	-9365
▁privacy	-9366
▁thunder	-9367
▁earliest	-9368
▁enlarged	-9369
mouth	-9370
▁Iowa	-9371
▁Mars	-9372
▁Vari	-9373
itting	-9374
▁Jones	-9375
▁Atlanta	-9376
▁facilit	-9377
▁resting	-9378
▁seattle	-9379
▁classroom	-9380
▁instruments	-9381
exp	-9382
uty	-9383
▁Jr	-9384
▁wra	-9385
▁arth	-9386
▁Short	-9387
▁reaches	-9388
▁reserve	-9389
▁unusual	-9390
▁manufacturers	-9391
GE	-9392
acic	-9393
kary	-9394
umns	-9395
▁Oak	-9396
▁mant	-9397
▁shed	-9398
▁toes	-9399
▁Facts	-9400
▁cattle	-9401
▁comments	-9402
▁deposits	-9403
▁protects	-9404
▁deviation	-9405
▁geography	-9406
▁compliance	-9407
▁nutritional	-9408
nce	-9409
ener	-9410
▁dad	-9411
▁buyer	-9412
▁pitch	-9413
▁sweat	-9414
amental	-9415
iations	-9416
▁Annual	-9417
▁metric	-9418
▁notary	-9419
▁reflex	-9420
▁aspirin	-9421
heumatoid	-9422
▁accommod	-9423
▁convenient	-9424
UI	-9425
ogly	-9426
▁lam	-9427
eping	-9428
▁bomb	-9429
▁mart	-9430
▁latin	-9431
▁polyp	-9432
ococcus	-9433
▁buried	-9434
▁stories	-9435
▁Williams	-9436
▁constitutional	-9437
hr	-9438
awa	-9439
ylum	-9440
▁(10	-9441
▁Blu	-9442
▁cul	-9443
▁gem	-9444
▁toe	-9445
▁cuts	-9446
▁foam	-9447
▁worn	-9448
▁wrap	-9449
▁2,000	-9450
▁preced	-9451
▁blocked	-9452
▁epiderm	-9453
▁Kentucky	-9454
▁entering	-9455
▁finished	-9456
▁concerned	-9457
▁exclusive	-9458
▁overnight	-9459
▁saturated	-9460
▁enforcement	-9461
▁institutions	-9462
▁rn	-9463
▁dvd	-9464
▁jan	-9465
▁Soft	-9466
▁hide	-9467
▁herbs	-9468
▁theyâ	-9469
▁worry	-9470
itivity	-9471
▁subsid	-9472
▁persist	-9473
▁Schedule	-9474
▁nickname	-9475
▁psychiat	-9476
▁returned	-9477
▁sunlight	-9478
▁electroly	-9479
▁professor	-9480
▁resistant	-9481
xy	-9482
Pro	-9483
iti	-9484
rac	-9485
you	-9486
▁bc	-9487
▁NFL	-9488
▁Van	-9489
cribe	-9490
▁Copy	-9491
▁soul	-9492
▁david	-9493
▁saved	-9494
▁brings	-9495
▁binding	-9496
▁Students	-9497
▁thermometer	-9498
CE	-9499
800	-9500
sen	-9501
▁(9	-9502
▁3:	-9503
verb	-9504
worm	-9505
▁adm	-9506
▁bug	-9507
▁displ	-9508
▁exhib	-9509
▁morph	-9510
zheimer	-9511
▁Secret	-9512
▁yogurt	-9513
▁Between	-9514
dam	-9515
▁13,	-9516
▁opens	-9517
▁surpr	-9518
▁Invest	-9519
▁Unlike	-9520
▁astron	-9521
▁recess	-9522
▁compact	-9523
▁clicking	-9524
▁governor	-9525
▁latitude	-9526
▁tomorrow	-9527
▁southwest	-9528
%,	-9529
iaz	-9530
run	-9531
away	-9532
omal	-9533
▁2.5	-9534
▁Dom	-9535
▁hub	-9536
▁sew	-9537
raham	-9538
▁synt	-9539
▁tape	-9540
▁ships	-9541
▁static	-9542
▁enhance	-9543
▁filling	-9544
▁involving	-9545
▁louisiana	-9546
tte	-9547
▁Kit	-9548
indle	-9549
iscal	-9550
▁Comb	-9551
▁Drug	-9552
▁coin	-9553
▁craw	-9554
▁pets	-9555
▁eaten	-9556
▁negot	-9557
▁Create	-9558
▁Silver	-9559
▁expire	-9560
▁twitch	-9561
▁semester	-9562
▁competition	-9563
ERS	-9564
pet	-9565
▁Ap	-9566
▁Side	-9567
▁aust	-9568
▁cher	-9569
▁ment	-9570
asting	-9571
▁spaces	-9572
▁Station	-9573
▁vietnam	-9574
▁arkansas	-9575
▁concepts	-9576
▁preferred	-9577
nâ	-9578
600	-9579
mal	-9580
van	-9581
▁64	-9582
▁11.	-9583
▁pip	-9584
▁Falls	-9585
▁bonus	-9586
▁append	-9587
▁hybrid	-9588
▁Chapter	-9589
▁confused	-9590
▁enterprise	-9591
▁architecture	-9592
-19	-9593
uman	-9594
apple	-9595
▁beet	-9596
▁gums	-9597
▁wifi	-9598
▁Smith	-9599
▁ranch	-9600
▁Temper	-9601
▁ulcers	-9602
▁Reading	-9603
▁cortana	-9604
▁abundant	-9605
▁historic	-9606
▁artificial	-9607
▁improvement	-9608
▁42	-9609
▁ww	-9610
rons	-9611
▁Die	-9612
▁nyc	-9613
green	-9614
▁1970	-9615
▁coating	-9616
▁winning	-9617
▁judicial	-9618
▁admission	-9619
▁affecting	-9620
▁expansion	-9621
zy	-9622
▁DI	-9623
▁eb	-9624
hall	-9625
▁Tit	-9626
▁YouT	-9627
▁defe	-9628
urities	-9629
▁suffix	-9630
▁feeding	-9631
▁alkaline	-9632
▁connects	-9633
▁specialty	-9634
AA	-9635
▁52	-9636
▁MP	-9637
hist	-9638
elect	-9639
▁adequ	-9640
▁biome	-9641
▁dialog	-9642
▁bipolar	-9643
▁furnace	-9644
▁italian	-9645
▁maryland	-9646
▁networks	-9647
▁operated	-9648
▁193	-9649
▁glue	-9650
▁Amend	-9651
▁Pharm	-9652
▁prost	-9653
▁solve	-9654
▁massive	-9655
▁bloating	-9656
▁reimburs	-9657
▁addresses	-9658
▁Hi	-9659
nity	-9660
pers	-9661
▁ink	-9662
▁Writ	-9663
▁lice	-9664
▁2016,	-9665
▁Those	-9666
▁casual	-9667
▁dishes	-9668
▁hygien	-9669
▁develops	-9670
▁province	-9671
▁lightning	-9672
▁pennsylvania	-9673
▁(7	-9674
▁Ext	-9675
orean	-9676
ectomy	-9677
patient	-9678
▁Empire	-9679
▁Income	-9680
▁industries	-9681
Fi	-9682
aze	-9683
pit	-9684
iper	-9685
ocal	-9686
▁cyt	-9687
▁rul	-9688
▁unf	-9689
aniel	-9690
▁carn	-9691
▁gramm	-9692
▁overd	-9693
▁swell	-9694
▁trait	-9695
▁Cancer	-9696
▁dallas	-9697
▁satisf	-9698
▁shapes	-9699
▁Summary	-9700
▁combust	-9701
▁Building	-9702
▁applicable	-9703
▁600	-9704
▁Jul	-9705
▁Rog	-9706
▁dre	-9707
▁var	-9708
ockey	-9709
worth	-9710
▁2003	-9711
osomes	-9712
▁crash	-9713
▁noted	-9714
▁parks	-9715
▁Martin	-9716
▁iodine	-9717
▁Located	-9718
▁payroll	-9719
▁tension	-9720
▁channels	-9721
▁festival	-9722
▁gasoline	-9723
▁sufficient	-9724
▁incorporated	-9725
▁cardiovascular	-9726
dig	-9727
iagn	-9728
range	-9729
toplasm	-9730
▁speeds	-9731
▁talent	-9732
▁Transfer	-9733
▁observed	-9734
▁effectively	-9735
▁necessarily	-9736
56	-9737
HS	-9738
that	-9739
uments	-9740
▁alive	-9741
▁strip	-9742
▁actors	-9743
▁Supreme	-9744
▁universe	-9745
▁milligrams	-9746
QL	-9747
quir	-9748
▁ski	-9749
cover	-9750
▁Navy	-9751
▁Xbox	-9752
▁crop	-9753
insula	-9754
▁Cross	-9755
▁Hotel	-9756
▁tubes	-9757
redited	-9758
▁$1,000	-9759
▁seeing	-9760
▁Atlantic	-9761
▁cerebral	-9762
▁chickens	-9763
▁rainfore	-9764
▁Typically	-9765
▁inflammatory	-9766
▁occupational	-9767
meal	-9768
spect	-9769
▁bund	-9770
▁matt	-9771
ologic	-9772
▁fatal	-9773
▁intent	-9774
▁anatomy	-9775
▁speakers	-9776
▁separated	-9777
▁ON	-9778
▁hd	-9779
iatic	-9780
izard	-9781
owers	-9782
▁cuff	-9783
▁pads	-9784
▁rows	-9785
▁2010.	-9786
▁suffer	-9787
▁Country	-9788
▁sleeping	-9789
▁municipal	-9790
lay	-9791
****	-9792
hors	-9793
irms	-9794
▁18,	-9795
▁20%	-9796
emble	-9797
▁Gall	-9798
▁july	-9799
▁Prices	-9800
▁barrel	-9801
▁benefic	-9802
▁lateral	-9803
▁Training	-9804
▁apparent	-9805
▁indirect	-9806
▁muscular	-9807
▁intestinal	-9808
▁Application	-9809
▁ts	-9810
heet	-9811
ucks	-9812
▁bid	-9813
▁umb	-9814
imize	-9815
▁vill	-9816
▁bears	-9817
▁deriv	-9818
▁heads	-9819
▁heter	-9820
▁paste	-9821
▁kansas	-9822
▁Society	-9823
▁granite	-9824
▁mitosis	-9825
▁protective	-9826
▁cad	-9827
▁dot	-9828
aping	-9829
rones	-9830
ulous	-9831
▁Doll	-9832
▁paul	-9833
▁purs	-9834
▁Order	-9835
▁airpl	-9836
lington	-9837
▁mirror	-9838
▁rabbit	-9839
▁columns	-9840
▁easiest	-9841
▁challenge	-9842
▁displayed	-9843
▁horizontal	-9844
==	-9845
▁GA	-9846
anth	-9847
esus	-9848
▁miami	-9849
▁smith	-9850
▁peanut	-9851
▁cooling	-9852
▁relating	-9853
▁classical	-9854
▁guarantee	-9855
▁integrated	-9856
▁Aff	-9857
▁Tor	-9858
apore	-9859
eness	-9860
otrop	-9861
▁Moon	-9862
▁ampl	-9863
▁fant	-9864
▁Olymp	-9865
▁Print	-9866
▁alter	-9867
▁boxes	-9868
▁worms	-9869
▁Sports	-9870
▁enters	-9871
▁martin	-9872
▁barrier	-9873
▁largely	-9874
▁screens	-9875
▁acquired	-9876
▁charging	-9877
▁framework	-9878
▁influenced	-9879
▁conditioning	-9880
▁Ol	-9881
kers	-9882
▁lac	-9883
▁melt	-9884
▁bands	-9885
ossible	-9886
▁sugars	-9887
▁colonies	-9888
▁creative	-9889
▁nicotine	-9890
▁releases	-9891
▁instruction	-9892
GB	-9893
ji	-9894
hop	-9895
aven	-9896
▁(2)	-9897
▁iOS	-9898
uting	-9899
▁rein	-9900
▁Dutch	-9901
▁jersey	-9902
▁Channel	-9903
▁Highway	-9904
▁encourage	-9905
▁endocrine	-9906
▁pharmacist	-9907
82	-9908
TE	-9909
lu	-9910
-12	-9911
▁3-	-9912
walk	-9913
▁(0.	-9914
▁FOR	-9915
rance	-9916
▁Pers	-9917
▁Visit	-9918
areness	-9919
▁brakes	-9920
▁reader	-9921
▁Johnson	-9922
▁Protein	-9923
▁detected	-9924
▁situated	-9925
▁Christmas	-9926
▁decreased	-9927
▁potentially	-9928
▁undergraduate	-9929
lee	-9930
som	-9931
▁Ber	-9932
▁vibr	-9933
icated	-9934
ailable	-9935
▁castle	-9936
▁wheels	-9937
▁YouTube	-9938
▁meiosis	-9939
▁wearing	-9940
▁sentences	-9941
▁streaming	-9942
pg	-9943
pn	-9944
▁mL	-9945
inea	-9946
oung	-9947
▁hab	-9948
▁mol	-9949
sters	-9950
▁Tour	-9951
▁Viet	-9952
▁bars	-9953
▁indu	-9954
▁tuna	-9955
▁Miami	-9956
▁Princ	-9957
▁Queen	-9958
▁roman	-9959
ilation	-9960
▁granted	-9961
▁catheter	-9962
▁printing	-9963
fa	-9964
▁zo	-9965
▁Ess	-9966
▁Occ	-9967
▁nin	-9968
▁pla	-9969
ricts	-9970
▁enem	-9971
▁Nurse	-9972
▁scott	-9973
▁Andrew	-9974
▁Donald	-9975
▁editor	-9976
▁evapor	-9977
▁carrots	-9978
▁efforts	-9979
▁lactose	-9980
▁ceremony	-9981
▁interval	-9982
▁ligament	-9983
▁enrollment	-9984
▁electromagnetic	-9985
.1	-9986
UL	-9987
▁Fed	-9988
arris	-9989
▁grew	-9990
▁loop	-9991
▁none	-9992
ibbean	-9993
▁Paris	-9994
piration	-9995
▁Russian	-9996
▁reduces	-9997
▁speaker	-9998
▁feelings	-9999
▁intensity	-10000
▁motorcycle	-10001
▁perspective	-10002
▁practitioner	-10003
▁transactions	-10004
▁Az	-10005
▁PO	-10006
▁mri	-10007
▁sor	-10008
ridge	-10009
▁aged	-10010
▁brew	-10011
▁Homes	-10012
▁shark	-10013
▁Avenue	-10014
▁Return	-10015
▁Thanks	-10016
▁Process	-10017
▁damages	-10018
▁planets	-10019
▁postage	-10020
▁broadcast	-10021
▁explanation	-10022
VER	-10023
yon	-10024
aron	-10025
rane	-10026
rost	-10027
elles	-10028
metic	-10029
secut	-10030
▁ions	-10031
▁plot	-10032
called	-10033
▁Chief	-10034
▁maine	-10035
▁Global	-10036
▁aggreg	-10037
▁strict	-10038
transmit	-10039
▁citation	-10040
▁junction	-10041
▁prevents	-10042
▁authorized	-10043
▁diagnostic	-10044
PI	-10045
aro	-10046
tics	-10047
▁jam	-10048
▁jun	-10049
▁Muse	-10050
▁strep	-10051
English	-10052
inction	-10053
▁thanks	-10054
▁designs	-10055
▁roofing	-10056
▁survival	-10057
400	-10058
anny	-10059
ctic	-10060
teen	-10061
oured	-10062
panic	-10063
▁Pict	-10064
▁pros	-10065
burger	-10066
▁museum	-10067
▁cancers	-10068
▁subsequ	-10069
▁Remember	-10070
▁strategies	-10071
▁legislative	-10072
auc	-10073
ref	-10074
▁III	-10075
▁lee	-10076
▁june	-10077
▁lime	-10078
idance	-10079
▁onset	-10080
▁almond	-10081
▁hidden	-10082
▁rhythm	-10083
▁steaks	-10084
▁incident	-10085
▁soldiers	-10086
▁valuable	-10087
▁diffusion	-10088
▁exemption	-10089
▁personnel	-10090
▁workplace	-10091
fortunately	-10092
▁convention	-10093
▁physicians	-10094
▁distributed	-10095
▁interaction	-10096
▁ED	-10097
▁21,	-10098
▁Bob	-10099
worms	-10100
▁bene	-10101
▁bulk	-10102
▁yout	-10103
▁arrow	-10104
▁melan	-10105
▁Brazil	-10106
▁Little	-10107
▁pelvic	-10108
▁Seattle	-10109
▁elastic	-10110
▁Property	-10111
▁tingling	-10112
▁committee	-10113
▁indicator	-10114
▁compression	-10115
▁administered	-10116
ATE	-10117
leb	-10118
ogy	-10119
opa	-10120
real	-10121
▁Dam	-10122
▁Fun	-10123
▁bes	-10124
amaica	-10125
stract	-10126
▁clots	-10127
▁patio	-10128
ometric	-10129
▁interm	-10130
▁basically	-10131
▁deductions	-10132
▁hypertension	-10133
▁occasionally	-10134
/1	-10135
4)	-10136
iph	-10137
▁Er	-10138
gree	-10139
week	-10140
▁Mix	-10141
▁Pen	-10142
▁Cold	-10143
▁uber	-10144
ometry	-10145
▁Field	-10146
▁paris	-10147
▁rises	-10148
▁asking	-10149
▁voting	-10150
▁hottest	-10151
▁ontario	-10152
▁repeated	-10153
▁beneficial	-10154
▁intestines	-10155
▁functioning	-10156
uto	-10157
high	-10158
leep	-10159
▁Bon	-10160
borne	-10161
▁cage	-10162
▁xbox	-10163
▁1-800	-10164
▁Champ	-10165
▁Motor	-10166
▁maybe	-10167
▁serum	-10168
▁senate	-10169
▁permits	-10170
▁freezing	-10171
▁homemade	-10172
▁candidate	-10173
▁entertainment	-10174
▁communications	-10175
asp	-10176
enta	-10177
icit	-10178
onge	-10179
▁Inn	-10180
▁ran	-10181
month	-10182
▁bean	-10183
▁gang	-10184
▁Hyper	-10185
▁Names	-10186
▁lunch	-10187
▁trick	-10188
▁minnes	-10189
▁charles	-10190
▁congest	-10191
▁printed	-10192
▁thermal	-10193
▁blisters	-10194
▁kentucky	-10195
▁launched	-10196
▁performing	-10197
▁transferred	-10198
▁CR	-10199
▁Cy	-10200
▁Wi	-10201
▁asc	-10202
▁lex	-10203
▁rum	-10204
▁antic	-10205
▁drama	-10206
▁maple	-10207
▁oxide	-10208
▁shaft	-10209
▁drives	-10210
▁inters	-10211
▁bedroom	-10212
▁masters	-10213
▁cabinets	-10214
▁operates	-10215
▁visiting	-10216
▁committed	-10217
▁presentation	-10218
olin	-10219
▁Doc	-10220
ained	-10221
▁weed	-10222
▁Basic	-10223
▁Codes	-10224
▁climb	-10225
▁films	-10226
▁merge	-10227
▁shade	-10228
ippines	-10229
▁genital	-10230
▁Settings	-10231
▁lighting	-10232
▁vertebra	-10233
▁directory	-10234
▁irregular	-10235
▁minnesota	-10236
▁researchers	-10237
aha	-10238
cat	-10239
▁Du	-10240
aded	-10241
▁20,	-10242
▁FDA	-10243
▁Rent	-10244
▁bang	-10245
▁nuts	-10246
▁Death	-10247
▁Terms	-10248
▁eagle	-10249
western	-10250
▁centre	-10251
▁losing	-10252
▁Electric	-10253
▁cytoplasm	-10254
▁discussion	-10255
▁homeowners	-10256
▁tablespoons	-10257
▁psychologist	-10258
▁documentation	-10259
▁SD	-10260
anas	-10261
yler	-10262
aired	-10263
issan	-10264
▁Girl	-10265
▁bites	-10266
rations	-10267
zerland	-10268
▁fusion	-10269
▁lesson	-10270
▁shaped	-10271
▁pacific	-10272
▁trained	-10273
operative	-10274
▁Director	-10275
▁entirely	-10276
▁graphics	-10277
▁fundamental	-10278
UR	-10279
arth	-10280
▁Hun	-10281
▁Nav	-10282
▁Own	-10283
▁Sar	-10284
▁Sat	-10285
▁Sep	-10286
▁ken	-10287
hentic	-10288
riculum	-10289
▁braces	-10290
▁routine	-10291
▁william	-10292
▁continued	-10293
▁expectancy	-10294
▁operational	-10295
iox	-10296
▁99	-10297
itic	-10298
quer	-10299
▁llc	-10300
oderm	-10301
▁mall	-10302
▁pint	-10303
▁shirt	-10304
▁sheets	-10305
▁siding	-10306
▁defects	-10307
▁journey	-10308
▁peppers	-10309
▁Continue	-10310
▁operator	-10311
▁suitable	-10312
▁economics	-10313
▁literally	-10314
▁continuing	-10315
▁championship	-10316
tens	-10317
omers	-10318
▁Team	-10319
▁diem	-10320
▁stru	-10321
▁yoga	-10322
lectual	-10323
▁errors	-10324
▁spasms	-10325
▁strike	-10326
▁Twitter	-10327
▁aerobic	-10328
▁cheaper	-10329
▁prokary	-10330
▁feedback	-10331
▁overtime	-10332
▁thousand	-10333
▁depreciation	-10334
mes	-10335
▁SC	-10336
ione	-10337
▁gpa	-10338
▁Broad	-10339
▁decay	-10340
▁pseud	-10341
▁tough	-10342
▁atlanta	-10343
▁beaches	-10344
▁intense	-10345
▁passage	-10346
▁steering	-10347
▁monitoring	-10348
▁philosophy	-10349
SE	-10350
ulu	-10351
▁DO	-10352
illet	-10353
▁Skin	-10354
▁vend	-10355
emeter	-10356
person	-10357
▁2011.	-10358
▁elbow	-10359
▁https	-10360
▁irish	-10361
▁yahoo	-10362
▁Execut	-10363
▁spider	-10364
▁billing	-10365
▁booster	-10366
▁chamber	-10367
▁edition	-10368
▁experim	-10369
▁mercury	-10370
▁october	-10371
▁administrator	-10372
▁cc	-10373
▁Mur	-10374
▁cuc	-10375
▁2011,	-10376
▁renov	-10377
▁stove	-10378
▁approx	-10379
▁greece	-10380
▁Celsius	-10381
▁accompan	-10382
▁assembly	-10383
▁compatible	-10384
bel	-10385
▁59	-10386
▁189	-10387
▁Sav	-10388
ested	-10389
▁lump	-10390
▁pale	-10391
usually	-10392
▁banana	-10393
▁combat	-10394
▁forget	-10395
▁Systems	-10396
▁visitors	-10397
▁composite	-10398
▁measurements	-10399
3%	-10400
▁cs	-10401
odge	-10402
rose	-10403
enses	-10404
▁Corn	-10405
▁Resp	-10406
▁neph	-10407
▁whale	-10408
▁luxury	-10409
▁Popular	-10410
▁receipt	-10411
ilitation	-10412
▁brothers	-10413
▁conscious	-10414
3	-10415
ril	-10416
zed	-10417
aken	-10418
▁Utah	-10419
▁narc	-10420
▁narr	-10421
upiter	-10422
▁Clerk	-10423
▁apples	-10424
▁holder	-10425
▁lumbar	-10426
▁safely	-10427
▁decimal	-10428
▁publish	-10429
▁phenomen	-10430
▁submitted	-10431
▁violation	-10432
▁prevention	-10433
▁metropolitan	-10434
▁HT	-10435
▁OH	-10436
iere	-10437
igma	-10438
▁meg	-10439
▁nod	-10440
books	-10441
works	-10442
▁fried	-10443
▁gauge	-10444
▁wells	-10445
▁stocks	-10446
▁titles	-10447
▁fiction	-10448
▁departments	-10449
▁scholarship	-10450
▁Philadelphia	-10451
sole	-10452
apers	-10453
eries	-10454
print	-10455
shine	-10456
verty	-10457
▁chim	-10458
▁Stock	-10459
estinal	-10460
▁injured	-10461
▁Cleveland	-10462
▁ks	-10463
▁(2.	-10464
ccoli	-10465
ranean	-10466
▁bypass	-10467
▁shrink	-10468
▁academy	-10469
▁volunte	-10470
▁entitled	-10471
▁sexually	-10472
▁carefully	-10473
▁satellite	-10474
▁consistent	-10475
▁injections	-10476
/0	-10477
2	-10478
rob	-10479
▁BM	-10480
noon	-10481
▁Rom	-10482
▁oxy	-10483
heric	-10484
idays	-10485
▁node	-10486
▁wool	-10487
▁cataly	-10488
▁intoler	-10489
▁scratch	-10490
▁landscape	-10491
▁dysfunction	-10492
aga	-10493
▁95	-10494
opes	-10495
rene	-10496
cemia	-10497
tosis	-10498
▁fork	-10499
▁Cover	-10500
▁dense	-10501
▁fetus	-10502
▁tends	-10503
American	-10504
▁Through	-10505
▁suicide	-10506
▁uniform	-10507
lementary	-10508
▁cultures	-10509
▁migraine	-10510
▁thorough	-10511
▁Different	-10512
eps	-10513
oca	-10514
arin	-10515
requ	-10516
▁360	-10517
▁Cit	-10518
icket	-10519
▁Rome	-10520
▁Orange	-10521
▁clouds	-10522
▁versus	-10523
▁earning	-10524
▁evaluate	-10525
▁lymphatic	-10526
▁constantly	-10527
▁transcription	-10528
81	-10529
IR	-10530
UM	-10531
▁PDF	-10532
class	-10533
▁Wild	-10534
▁ease	-10535
▁twin	-10536
arians	-10537
▁punct	-10538
▁cortex	-10539
▁insect	-10540
▁pocket	-10541
▁Members	-10542
▁belongs	-10543
▁diverse	-10544
▁warning	-10545
gie	-10546
pre	-10547
eper	-10548
lude	-10549
▁31,	-10550
▁Born	-10551
▁adds	-10552
▁bugs	-10553
earing	-10554
lights	-10555
onomic	-10556
phones	-10557
reated	-10558
ricted	-10559
▁hemat	-10560
▁looked	-10561
▁nearest	-10562
▁orlando	-10563
▁Scotland	-10564
▁disabled	-10565
▁Hollywood	-10566
▁conducted	-10567
▁Na	-10568
▁Fac	-10569
▁Grow	-10570
▁exit	-10571
iances	-10572
nament	-10573
▁Often	-10574
▁ranks	-10575
▁tears	-10576
▁warts	-10577
version	-10578
▁needle	-10579
▁serial	-10580
▁stabil	-10581
▁stains	-10582
emporary	-10583
iologist	-10584
▁Franklin	-10585
▁adjusted	-10586
▁carrying	-10587
▁multiply	-10588
▁generated	-10589
▁definitely	-10590
▁configuration	-10591
▁WA	-10592
▁iT	-10593
atus	-10594
▁19,	-10595
▁Much	-10596
▁arab	-10597
▁forth	-10598
▁proud	-10599
▁affili	-10600
▁escape	-10601
▁orient	-10602
▁statue	-10603
▁verizon	-10604
▁sandwich	-10605
▁retention	-10606
▁connections	-10607
▁availability	-10608
▁bb	-10609
ixon	-10610
keys	-10611
▁Ros	-10612
erobic	-10613
▁truly	-10614
▁propri	-10615
▁reject	-10616
▁rising	-10617
▁treats	-10618
▁ammonia	-10619
▁decline	-10620
▁canadian	-10621
▁implants	-10622
▁overview	-10623
▁eligibility	-10624
▁NA	-10625
epam	-10626
quin	-10627
▁Lab	-10628
▁rna	-10629
▁$300	-10630
▁Dark	-10631
▁shoe	-10632
▁Month	-10633
▁alpha	-10634
▁lupus	-10635
▁biopsy	-10636
▁colony	-10637
▁listen	-10638
▁symmet	-10639
gressive	-10640
▁fasting	-10641
▁chlorine	-10642
▁thoughts	-10643
▁transmit	-10644
▁anesthesia	-10645
▁neurotransmit	-10646
62	-10647
oxy	-10648
▁Bor	-10649
▁Joe	-10650
▁dye	-10651
ouses	-10652
▁Gram	-10653
▁dual	-10654
▁mask	-10655
▁wing	-10656
health	-10657
▁Birth	-10658
imately	-10659
▁chains	-10660
▁postal	-10661
▁cabbage	-10662
▁jewelry	-10663
▁poverty	-10664
▁announce	-10665
▁behavioral	-10666
▁rheumatoid	-10667
▁refrigerated	-10668
▁massachusetts	-10669
59	-10670
aka	-10671
oar	-10672
▁(#	-10673
▁Ra	-10674
aver	-10675
inse	-10676
romy	-10677
▁luc	-10678
▁rip	-10679
ceeds	-10680
omnia	-10681
pring	-10682
▁loved	-10683
ospheric	-10684
reditary	-10685
▁envelop	-10686
▁creatinine	-10687
▁exclusively	-10688
ika	-10689
▁44	-10690
▁gi	-10691
base	-10692
rator	-10693
stown	-10694
▁Dire	-10695
▁crew	-10696
▁hern	-10697
▁Idaho	-10698
▁adhes	-10699
▁conce	-10700
▁Marine	-10701
▁Policy	-10702
▁poetry	-10703
▁Alcohol	-10704
▁confidence	-10705
69	-10706
eut	-10707
iol	-10708
irk	-10709
▁ty	-10710
claim	-10711
▁aver	-10712
▁misc	-10713
▁syrup	-10714
▁benign	-10715
▁grades	-10716
▁neuron	-10717
▁shield	-10718
▁stools	-10719
▁Answers	-10720
▁absence	-10721
▁kittens	-10722
▁warming	-10723
placement	-10724
▁marginal	-10725
▁prominent	-10726
▁eukaryotic	-10727
▁successfully	-10728
fs	-10729
▁Fund	-10730
▁forg	-10731
▁lent	-10732
▁lobe	-10733
▁stew	-10734
acchar	-10735
▁greens	-10736
herlands	-10737
▁depress	-10738
▁painted	-10739
▁altitude	-10740
▁consumed	-10741
iterranean	-10742
▁butterfly	-10743
▁centuries	-10744
▁converter	-10745
▁heartbeat	-10746
▁surrounded	-10747
tw	-10748
Get	-10749
ete	-10750
ucc	-10751
coin	-10752
▁Cop	-10753
igate	-10754
proof	-10755
sized	-10756
▁Rail	-10757
▁clim	-10758
▁perf	-10759
▁stan	-10760
▁Peter	-10761
▁flush	-10762
▁knows	-10763
▁lipid	-10764
inology	-10765
▁Import	-10766
▁breeds	-10767
▁decomp	-10768
▁donate	-10769
▁iTunes	-10770
▁incred	-10771
ographer	-10772
▁assault	-10773
▁chapter	-10774
▁cleaner	-10775
▁propane	-10776
ographics	-10777
▁tutorial	-10778
▁whatever	-10779
▁Technology	-10780
▁bloodstream	-10781
/2	-10782
,	-10783
▁4:	-10784
▁160	-10785
▁Kid	-10786
▁chi	-10787
ouver	-10788
▁pour	-10789
▁wake	-10790
▁optic	-10791
▁assume	-10792
▁sector	-10793
▁winner	-10794
▁travels	-10795
▁Oklahoma	-10796
▁Personal	-10797
▁uncommon	-10798
▁williams	-10799
▁confirmed	-10800
▁discovery	-10801
▁infectious	-10802
▁probability	-10803
▁introduction	-10804
▁GM	-10805
▁RN	-10806
▁sd	-10807
▁Feb	-10808
▁Gro	-10809
▁gent	-10810
▁Night	-10811
▁idaho	-10812
▁Joseph	-10813
▁fiscal	-10814
▁showed	-10815
▁Independ	-10816
▁cylinder	-10817
▁railroad	-10818
74	-10819
▁49	-10820
▁Po	-10821
▁nm	-10822
ampa	-10823
tail	-10824
▁Bat	-10825
▁mcd	-10826
▁oat	-10827
abies	-10828
isted	-10829
▁glyc	-10830
▁Sales	-10831
▁angel	-10832
▁chase	-10833
▁reflux	-10834
▁valves	-10835
▁Location	-10836
▁thoracic	-10837
▁__________	-10838
▁designated	-10839
▁communicate	-10840
▁essentially	-10841
.3	-10842
BO	-10843
pal	-10844
swe	-10845
▁CP	-10846
rans	-10847
role	-10848
▁mcc	-10849
▁lets	-10850
▁initi	-10851
▁lamin	-10852
▁sheep	-10853
▁Museum	-10854
▁harbor	-10855
▁heated	-10856
▁sulfur	-10857
▁Mexican	-10858
▁tendons	-10859
▁violence	-10860
▁sociology	-10861
▁citizenship	-10862
▁qualifications	-10863
68	-10864
uda	-10865
Rate	-10866
cons	-10867
▁fav	-10868
▁lid	-10869
▁bark	-10870
▁heel	-10871
advant	-10872
illing	-10873
itable	-10874
▁Value	-10875
▁brack	-10876
▁meats	-10877
▁ridge	-10878
▁skull	-10879
▁Posted	-10880
▁russia	-10881
▁verify	-10882
ikipedia	-10883
▁Nursing	-10884
▁extends	-10885
▁veterin	-10886
▁alternate	-10887
▁strategic	-10888
▁hypothesis	-10889
▁irritation	-10890
oir	-10891
▁4-	-10892
icals	-10893
▁Size	-10894
▁opio	-10895
▁Brand	-10896
▁Email	-10897
▁edema	-10898
▁impul	-10899
▁stack	-10900
▁Estate	-10901
heastern	-10902
▁lighter	-10903
▁theatre	-10904
▁vanilla	-10905
▁alphabet	-10906
▁divertic	-10907
▁princess	-10908
▁rotation	-10909
▁gestation	-10910
▁#1	-10911
code	-10912
▁Jun	-10913
▁sel	-10914
▁uti	-10915
rylic	-10916
tical	-10917
▁Need	-10918
▁tect	-10919
▁Apply	-10920
▁hives	-10921
▁Zealand	-10922
▁insured	-10923
▁killing	-10924
▁boneless	-10925
▁romantic	-10926
▁severity	-10927
▁Thesaurus	-10928
▁afternoon	-10929
▁ligaments	-10930
▁incubation	-10931
________________	-10932
Pl	-10933
Sp	-10934
amon	-10935
▁Ask	-10936
▁Hor	-10937
▁Barb	-10938
▁Salt	-10939
▁Shop	-10940
▁Tele	-10941
▁chat	-10942
▁obst	-10943
▁sync	-10944
▁blend	-10945
▁faith	-10946
▁sight	-10947
atholic	-10948
ancouver	-10949
▁cookies	-10950
▁focused	-10951
▁deadline	-10952
▁descript	-10953
▁symbolize	-10954
▁transfers	-10955
▁conventional	-10956
long	-10957
weed	-10958
▁peas	-10959
demean	-10960
▁bumps	-10961
▁jones	-10962
▁piano	-10963
▁highway	-10964
naissance	-10965
▁dialysis	-10966
▁Executive	-10967
1%	-10968
▁cp	-10969
emic	-10970
▁$12	-10971
orship	-10972
▁Appro	-10973
▁Treas	-10974
▁debut	-10975
▁scrap	-10976
feeding	-10977
▁Nevada	-10978
▁Rating	-10979
▁weighs	-10980
▁Climate	-10981
▁artists	-10982
▁happening	-10983
▁triglycer	-10984
cu	-10985
▁lew	-10986
▁und	-10987
archy	-10988
lower	-10989
▁encl	-10990
▁2017,	-10991
▁Trust	-10992
▁bulbs	-10993
▁erupt	-10994
▁refin	-10995
▁stops	-10996
▁Carbon	-10997
▁guests	-10998
▁papers	-10999
▁witness	-11000
▁certainly	-11001
▁eliminate	-11002
▁Revolution	-11003
Bl	-11004
DI	-11005
fol	-11006
oga	-11007
raz	-11008
▁IV	-11009
▁fm	-11010
eden	-11011
eron	-11012
urer	-11013
▁Cro	-11014
▁Dry	-11015
▁atp	-11016
▁gig	-11017
▁creek	-11018
▁fungal	-11019
▁scheme	-11020
▁theater	-11021
▁fighting	-11022
▁Amendment	-11023
▁magnitude	-11024
▁accredited	-11025
zzle	-11026
▁14.	-11027
▁cla	-11028
▁mla	-11029
pling	-11030
▁Brad	-11031
derall	-11032
▁Thank	-11033
▁cycles	-11034
▁decade	-11035
▁impair	-11036
▁adverse	-11037
▁opposed	-11038
▁managing	-11039
▁roasting	-11040
▁poisonous	-11041
rastructure	-11042
▁Professional	-11043
72	-11044
osh	-11045
▁iq	-11046
yers	-11047
▁calf	-11048
▁pond	-11049
▁Creek	-11050
angular	-11051
▁driven	-11052
▁worldâ	-11053
iability	-11054
▁adjacent	-11055
▁passenger	-11056
▁trademark	-11057
DL	-11058
EP	-11059
▁Ju	-11060
▁WI	-11061
imen	-11062
inge	-11063
olid	-11064
ulty	-11065
▁ACT	-11066
▁Ken	-11067
▁tou	-11068
eting	-11069
▁cows	-11070
▁incl	-11071
ivated	-11072
▁ureth	-11073
tsburgh	-11074
▁Clinic	-11075
▁Village	-11076
▁comprom	-11077
▁welding	-11078
▁willing	-11079
▁youngest	-11080
▁illnesses	-11081
▁suggested	-11082
▁conditioner	-11083
Th	-11084
▁wy	-11085
flow	-11086
▁wel	-11087
▁hell	-11088
flower	-11089
gester	-11090
leting	-11091
▁guest	-11092
achment	-11093
▁Square	-11094
▁reform	-11095
▁spleen	-11096
▁youtube	-11097
intestinal	-11098
▁qualifying	-11099
CM	-11100
pie	-11101
bird	-11102
▁140	-11103
▁Dur	-11104
▁lar	-11105
stock	-11106
▁Fred	-11107
▁Site	-11108
▁rebu	-11109
▁thaw	-11110
▁trap	-11111
cephal	-11112
▁Legal	-11113
▁strat	-11114
inflamm	-11115
▁Summer	-11116
.4	-11117
50,	-11118
▁si	-11119
iler	-11120
page	-11121
▁Sky	-11122
▁fox	-11123
▁npi	-11124
achel	-11125
atile	-11126
▁Conc	-11127
▁Prim	-11128
▁rupt	-11129
ductor	-11130
▁dying	-11131
▁compos	-11132
▁hiring	-11133
▁addiction	-11134
▁decreases	-11135
▁identical	-11136
61	-11137
zes	-11138
▁hi	-11139
olia	-11140
▁192	-11141
▁Sug	-11142
▁ceo	-11143
odont	-11144
▁Vers	-11145
▁impe	-11146
▁Route	-11147
▁wires	-11148
ulating	-11149
▁desire	-11150
▁gather	-11151
▁Compare	-11152
▁freight	-11153
gesterone	-11154
▁accuracy	-11155
▁receptor	-11156
*.	-11157
ova	-11158
▁LA	-11159
type	-11160
ceans	-11161
ether	-11162
▁grap	-11163
▁slee	-11164
▁screw	-11165
reshold	-11166
▁slaves	-11167
▁spices	-11168
▁Without	-11169
▁ceramic	-11170
▁somewhere	-11171
▁Republican	-11172
▁acceptance	-11173
▁curriculum	-11174
▁supporting	-11175
▁declaration	-11176
ci	-11177
hs	-11178
serv	-11179
▁Six	-11180
▁inh	-11181
▁yes	-11182
imore	-11183
irrel	-11184
▁Move	-11185
▁fame	-11186
aining	-11187
illion	-11188
▁Radio	-11189
▁deleg	-11190
▁prove	-11191
▁stays	-11192
▁trace	-11193
▁gluten	-11194
▁mutual	-11195
▁authors	-11196
▁fertilizer	-11197
▁hereditary	-11198
▁maintaining	-11199
▁sedimentary	-11200
▁1-	-11201
uese	-11202
▁Pit	-11203
▁Jour	-11204
▁ants	-11205
▁slab	-11206
▁toen	-11207
ibrium	-11208
▁pains	-11209
▁chrome	-11210
▁comedy	-11211
▁crimes	-11212
▁Routing	-11213
▁liquids	-11214
icellular	-11215
▁broccoli	-11216
▁collabor	-11217
▁concerns	-11218
oarthritis	-11219
▁ethnicity	-11220
▁accomplish	-11221
▁republican	-11222
▁Tu	-11223
enol	-11224
▁Gulf	-11225
▁exec	-11226
▁forum	-11227
▁tread	-11228
▁strips	-11229
▁dynamic	-11230
▁grocery	-11231
▁coughing	-11232
▁Nutrition	-11233
▁greenhouse	-11234
8%	-11235
ipl	-11236
whe	-11237
case	-11238
stic	-11239
uder	-11240
▁hep	-11241
aiian	-11242
▁Solar	-11243
▁crops	-11244
▁groin	-11245
▁saint	-11246
angered	-11247
▁eyelid	-11248
▁beneath	-11249
▁prolong	-11250
▁seeking	-11251
▁variant	-11252
▁balanced	-11253
▁guidance	-11254
▁watching	-11255
▁invention	-11256
▁newspaper	-11257
▁secretary	-11258
▁TN	-11259
▁pi	-11260
▁unw	-11261
utter	-11262
▁Body	-11263
▁lava	-11264
▁ware	-11265
celona	-11266
elfare	-11267
▁Money	-11268
▁Staff	-11269
▁harry	-11270
▁toxins	-11271
▁Synonyms	-11272
▁suddenly	-11273
▁complaint	-11274
▁northwest	-11275
▁separation	-11276
CL	-11277
yes	-11278
▁$40	-11279
▁Bad	-11280
▁Bal	-11281
▁Rub	-11282
ogens	-11283
▁hack	-11284
▁Diego	-11285
▁Young	-11286
▁bleed	-11287
▁dining	-11288
▁forced	-11289
▁revers	-11290
▁triple	-11291
▁knowing	-11292
▁pigment	-11293
▁tornado	-11294
▁Comments	-11295
▁Veterans	-11296
▁websites	-11297
ographical	-11298
▁Caribbean	-11299
▁Mountains	-11300
▁generator	-11301
▁recognize	-11302
▁Protection	-11303
▁passengers	-11304
uits	-11305
▁Cel	-11306
▁mul	-11307
izers	-11308
stones	-11309
ussion	-11310
▁Sever	-11311
▁meets	-11312
▁Native	-11313
▁debate	-11314
▁gently	-11315
▁chances	-11316
▁dividend	-11317
▁politics	-11318
▁worksheet	-11319
▁civilization	-11320
ho	-11321
ui	-11322
vol	-11323
▁Cup	-11324
▁jul	-11325
▁mlb	-11326
rofen	-11327
incinn	-11328
intend	-11329
rained	-11330
▁Chart	-11331
▁henry	-11332
▁metro	-11333
arrison	-11334
▁cervix	-11335
▁metall	-11336
▁claimed	-11337
▁mushrooms	-11338
▁combustion	-11339
▁meningitis	-11340
▁restrictions	-11341
▁EN	-11342
▁hr	-11343
▁Mine	-11344
▁Near	-11345
▁dump	-11346
▁fern	-11347
orrect	-11348
ployed	-11349
▁prize	-11350
emetery	-11351
▁Cities	-11352
▁ethics	-11353
▁Schools	-11354
▁breathe	-11355
▁shallow	-11356
▁skillet	-11357
▁friction	-11358
▁packages	-11359
▁residence	-11360
▁geographic	-11361
▁maintained	-11362
▁Connecticut	-11363
RNA	-11364
amel	-11365
gate	-11366
illy	-11367
athon	-11368
▁hits	-11369
▁jazz	-11370
screen	-11371
▁dolph	-11372
▁ghost	-11373
▁Scient	-11374
▁charts	-11375
▁makeup	-11376
▁Article	-11377
▁overhead	-11378
▁consideration	-11379
73	-11380
low	-11381
▁gm	-11382
▁wv	-11383
comm	-11384
orous	-11385
stood	-11386
▁Prop	-11387
▁wonâ	-11388
oplasm	-11389
▁Brook	-11390
▁Thatâ	-11391
▁upset	-11392
▁glycol	-11393
▁trache	-11394
▁Products	-11395
▁veterans	-11396
▁suffering	-11397
▁consultant	-11398
wa	-11399
vet	-11400
▁(/	-11401
▁NJ	-11402
itol	-11403
anted	-11404
berty	-11405
▁grad	-11406
▁iPad	-11407
▁prey	-11408
▁styl	-11409
▁trend	-11410
▁ratings	-11411
▁Computer	-11412
▁highlight	-11413
▁influenza	-11414
▁households	-11415
▁consequences	-11416
don	-11417
cure	-11418
thal	-11419
▁Eth	-11420
▁mud	-11421
There	-11422
ochem	-11423
▁hood	-11424
alamus	-11425
▁Clean	-11426
▁agreed	-11427
▁killer	-11428
▁robert	-11429
▁slight	-11430
▁careful	-11431
▁lottery	-11432
▁reaching	-11433
▁singular	-11434
▁sweating	-11435
▁heartburn	-11436
▁wonderful	-11437
As	-11438
oto	-11439
▁dun	-11440
▁2004	-11441
▁Buff	-11442
▁Drag	-11443
▁edges	-11444
▁canyon	-11445
▁malign	-11446
▁smoked	-11447
▁dropped	-11448
▁servers	-11449
▁containers	-11450
▁organelles	-11451
▁agriculture	-11452
▁experiencing	-11453
ME	-11454
aca	-11455
gon	-11456
iden	-11457
warf	-11458
▁Alb	-11459
▁Blo	-11460
stick	-11461
▁Iron	-11462
▁Lord	-11463
▁glac	-11464
thouse	-11465
▁facing	-11466
▁retrie	-11467
▁trimes	-11468
▁Revenue	-11469
▁bearing	-11470
▁elephant	-11471
▁regulates	-11472
▁permission	-11473
▁investigation	-11474
54	-11475
63	-11476
esp	-11477
▁ABC	-11478
▁Son	-11479
amous	-11480
arded	-11481
▁detox	-11482
iblical	-11483
▁coding	-11484
▁dreams	-11485
▁overse	-11486
▁saliva	-11487
▁vagina	-11488
ilibrium	-11489
▁Detroit	-11490
▁threshold	-11491
▁Individual	-11492
▁australian	-11493
▁interactions	-11494
▁Cru	-11495
▁bin	-11496
ython	-11497
▁Gene	-11498
▁Tips	-11499
▁Wars	-11500
▁Youâ	-11501
▁Delta	-11502
▁moral	-11503
▁Greece	-11504
▁magnet	-11505
▁oscars	-11506
▁thighs	-11507
▁erosion	-11508
▁focuses	-11509
▁impress	-11510
incinnati	-11511
▁airplane	-11512
▁confusion	-11513
▁teaspoons	-11514
▁intellectual	-11515
nt	-11516
▁Kn	-11517
dess	-11518
inte	-11519
▁Fur	-11520
▁Ice	-11521
▁Ram	-11522
agers	-11523
urred	-11524
▁avoc	-11525
▁clip	-11526
ukemia	-11527
▁brook	-11528
▁numer	-11529
akistan	-11530
▁Bridge	-11531
▁Require	-11532
▁matters	-11533
▁redness	-11534
▁reserved	-11535
▁authentic	-11536
▁referring	-11537
▁preventing	-11538
++	-11539
▁5-	-11540
pool	-11541
▁CEO	-11542
▁Fem	-11543
▁jar	-11544
▁publ	-11545
estion	-11546
umbing	-11547
▁aorta	-11548
▁stems	-11549
▁Altern	-11550
▁Mobile	-11551
▁murder	-11552
▁repeat	-11553
▁Clinton	-11554
▁capture	-11555
▁johnson	-11556
▁suspect	-11557
▁achieved	-11558
▁audience	-11559
▁recessive	-11560
▁renaissance	-11561
▁translations	-11562
DP	-11563
ige	-11564
cium	-11565
eman	-11566
▁Dog	-11567
▁Fox	-11568
▁neon	-11569
▁Santa	-11570
▁Smart	-11571
▁salts	-11572
amation	-11573
▁phylum	-11574
ibration	-11575
▁enables	-11576
▁engaged	-11577
▁candidates	-11578
▁accompanied	-11579
-15	-11580
▁Ce	-11581
ilis	-11582
▁$60	-11583
annah	-11584
▁Range	-11585
▁crest	-11586
liament	-11587
▁denver	-11588
▁theore	-11589
▁Justice	-11590
▁tonight	-11591
▁Internal	-11592
▁european	-11593
▁misdemean	-11594
▁unlimited	-11595
▁voluntary	-11596
▁proportion	-11597
CG	-11598
hy	-11599
isen	-11600
eston	-11601
iceps	-11602
▁guys	-11603
▁loud	-11604
ahamas	-11605
roleum	-11606
swered	-11607
▁tesla	-11608
▁hockey	-11609
▁activate	-11610
▁choosing	-11611
▁memorial	-11612
▁extraction	-11613
▁capitalized	-11614
▁considering	-11615
▁constitutes	-11616
▁mississippi	-11617
▁WH	-11618
date	-11619
inda	-11620
renn	-11621
yard	-11622
▁Dan	-11623
attan	-11624
▁myel	-11625
efruit	-11626
▁Never	-11627
▁Prior	-11628
▁maker	-11629
▁Friend	-11630
▁Hotels	-11631
▁ankles	-11632
▁gravel	-11633
▁lender	-11634
▁mining	-11635
▁myster	-11636
▁deleted	-11637
▁forests	-11638
▁optimal	-11639
▁adoption	-11640
▁donation	-11641
▁explorer	-11642
▁weighted	-11643
▁Commercial	-11644
▁attendance	-11645
▁nationwide	-11646
PN	-11647
mus	-11648
oys	-11649
▁23,	-11650
▁Ast	-11651
▁Rain	-11652
▁biom	-11653
▁goat	-11654
▁luck	-11655
▁snee	-11656
argest	-11657
otonin	-11658
▁interc	-11659
▁itunes	-11660
▁Preheat	-11661
▁capsule	-11662
▁shelter	-11663
▁studied	-11664
▁Clinical	-11665
▁interests	-11666
▁encyclopedia	-11667
VA	-11668
rex	-11669
▁AB	-11670
ttes	-11671
▁22,	-11672
▁25,	-11673
▁Sir	-11674
aceut	-11675
berta	-11676
idine	-11677
ioxid	-11678
▁pand	-11679
nisone	-11680
▁firms	-11681
▁towel	-11682
▁ultra	-11683
▁warri	-11684
uprofen	-11685
▁Dakota	-11686
▁accord	-11687
▁sevent	-11688
▁thromb	-11689
▁ethanol	-11690
▁outcome	-11691
▁Physical	-11692
▁Ha	-11693
coal	-11694
▁bare	-11695
▁dirt	-11696
▁Costs	-11697
▁Prime	-11698
▁exped	-11699
▁stair	-11700
▁tiger	-11701
utation	-11702
▁collar	-11703
▁proven	-11704
▁watermel	-11705
▁pineapple	-11706
▁connecting	-11707
▁complicated	-11708
REE	-11709
wan	-11710
was	-11711
▁CON	-11712
▁Osc	-11713
▁Rat	-11714
▁Ven	-11715
▁tel	-11716
aling	-11717
elson	-11718
▁Bern	-11719
▁Dead	-11720
▁lord	-11721
amorph	-11722
▁aside	-11723
▁legit	-11724
imeters	-11725
paragus	-11726
▁forens	-11727
▁compost	-11728
▁concert	-11729
izational	-11730
▁airports	-11731
▁inspired	-11732
▁Questions	-11733
▁diversity	-11734
PP	-11735
dL	-11736
700	-11737
athe	-11738
icus	-11739
iley	-11740
▁25%	-11741
asses	-11742
▁caul	-11743
▁cave	-11744
▁lyme	-11745
▁rays	-11746
▁fuels	-11747
▁taxed	-11748
▁Making	-11749
▁Photos	-11750
▁twenty	-11751
▁wooden	-11752
igration	-11753
▁sunshine	-11754
▁sensitivity	-11755
▁statistical	-11756
OD	-11757
▁dar	-11758
▁lav	-11759
▁Mand	-11760
▁Anton	-11761
▁pumps	-11762
▁critic	-11763
▁foster	-11764
▁Madison	-11765
▁Orleans	-11766
▁Univers	-11767
▁ovarian	-11768
▁Arkansas	-11769
▁Distance	-11770
▁cortisol	-11771
▁defining	-11772
▁Certified	-11773
▁accessible	-11774
▁engagement	-11775
HD	-11776
TI	-11777
lon	-11778
rod	-11779
opia	-11780
▁Lead	-11781
▁Mort	-11782
ediate	-11783
holder	-11784
ophyll	-11785
rovers	-11786
▁Games	-11787
▁fries	-11788
▁physi	-11789
▁tuber	-11790
ceeding	-11791
▁Living	-11792
▁Within	-11793
▁labels	-11794
▁quartz	-11795
▁visits	-11796
▁Samsung	-11797
▁bottles	-11798
▁heritage	-11799
▁licenses	-11800
▁appraisal	-11801
▁volcanoes	-11802
▁Foundation	-11803
▁universities	-11804
BI	-11805
▁dm	-11806
▁ht	-11807
gian	-11808
▁$3.	-11809
▁13.	-11810
▁29,	-11811
▁90%	-11812
itudes	-11813
▁Incre	-11814
▁Party	-11815
▁santa	-11816
opathic	-11817
▁Double	-11818
▁matches	-11819
▁rotator	-11820
▁displays	-11821
▁ordinary	-11822
▁withhold	-11823
▁dissolved	-11824
▁completion	-11825
▁capillaries	-11826
gi	-11827
yy	-11828
hell	-11829
▁amp	-11830
▁Cash	-11831
▁Prom	-11832
▁arom	-11833
▁mice	-11834
oodles	-11835
retion	-11836
▁Tools	-11837
▁crisp	-11838
▁shore	-11839
▁snack	-11840
▁Commit	-11841
▁anchor	-11842
▁stamps	-11843
▁trucks	-11844
▁Effects	-11845
▁buffalo	-11846
▁phoenix	-11847
▁adequate	-11848
▁inflamed	-11849
▁Elizabeth	-11850
▁discussed	-11851
▁elementary	-11852
▁phenomenon	-11853
▁phosphorus	-11854
abis	-11855
▁Dun	-11856
▁ads	-11857
▁bod	-11858
oping	-11859
▁hung	-11860
▁ipad	-11861
▁isot	-11862
▁loin	-11863
market	-11864
▁Categ	-11865
▁conve	-11866
▁grace	-11867
▁perce	-11868
acteria	-11869
▁polish	-11870
▁feather	-11871
▁insomnia	-11872
▁revealed	-11873
▁epidermis	-11874
▁longitude	-11875
▁publication	-11876
▁effectiveness	-11877
cp	-11878
hoe	-11879
blem	-11880
▁110	-11881
▁Apr	-11882
▁Hyp	-11883
▁hob	-11884
▁Feed	-11885
▁Nick	-11886
▁Snow	-11887
▁Chris	-11888
▁Jesus	-11889
▁colored	-11890
▁sending	-11891
▁stopped	-11892
▁thicken	-11893
▁automotive	-11894
▁purchasing	-11895
▁jurisdiction	-11896
LY	-11897
See	-11898
ryst	-11899
▁fec	-11900
▁Emer	-11901
▁bent	-11902
▁euro	-11903
omatic	-11904
▁Title	-11905
▁catal	-11906
▁marry	-11907
ruption	-11908
▁accent	-11909
▁lipids	-11910
▁oceans	-11911
▁daycare	-11912
▁disable	-11913
▁petition	-11914
▁ultimate	-11915
▁gradually	-11916
▁processor	-11917
▁Definitions	-11918
▁agricultural	-11919
▁EX	-11920
erry	-11921
▁Hur	-11922
▁spo	-11923
comes	-11924
effect	-11925
spring	-11926
▁doubt	-11927
▁newly	-11928
▁Browse	-11929
▁Things	-11930
▁behalf	-11931
▁thereâ	-11932
▁timing	-11933
▁lifting	-11934
▁pyramid	-11935
▁richard	-11936
▁Consider	-11937
▁Contract	-11938
▁appointed	-11939
▁purchases	-11940
▁trimester	-11941
▁reimbursement	-11942
▁discrimination	-11943
omp	-11944
▁ET	-11945
engu	-11946
made	-11947
rett	-11948
▁Arm	-11949
▁Rap	-11950
▁Pick	-11951
▁bees	-11952
▁wins	-11953
iliary	-11954
rophic	-11955
▁Lower	-11956
▁roads	-11957
▁steve	-11958
▁outlet	-11959
▁coldest	-11960
▁passive	-11961
▁sciatic	-11962
▁covalent	-11963
▁Resources	-11964
▁hemisphere	-11965
▁strengthen	-11966
1]	-11967
uv	-11968
orp	-11969
anax	-11970
text	-11971
▁Marg	-11972
▁bail	-11973
▁coil	-11974
▁fake	-11975
▁usps	-11976
▁Hills	-11977
▁Royal	-11978
▁Signs	-11979
▁ionic	-11980
▁endors	-11981
▁topics	-11982
▁$10,000	-11983
▁Options	-11984
▁gastric	-11985
▁lesions	-11986
▁mexican	-11987
▁Scottish	-11988
▁squirrel	-11989
▁subjects	-11990
nie	-11991
▁ze	-11992
loid	-11993
ulas	-11994
usal	-11995
▁24,	-11996
▁Hom	-11997
▁lax	-11998
▁pod	-11999
ieves	-12000
ipper	-12001
▁pist	-12002
▁guess	-12003
▁10,000	-12004
▁Turkey	-12005
▁failed	-12006
iversary	-12007
▁Several	-12008
▁Forecast	-12009
▁handling	-12010
▁proposal	-12011
▁theories	-12012
▁stability	-12013
▁constructed	-12014
6%	-12015
othy	-12016
rous	-12017
acher	-12018
aints	-12019
ylene	-12020
▁dock	-12021
▁laid	-12022
gments	-12023
orosis	-12024
▁swing	-12025
▁Arabic	-12026
▁liters	-12027
▁phases	-12028
▁puberty	-12029
▁transit	-12030
▁circular	-12031
▁manifest	-12032
▁immigrants	-12033
▁participate	-12034
LO	-12035
▁MI	-12036
irts	-12037
▁gab	-12038
▁lag	-12039
flies	-12040
sheet	-12041
while	-12042
▁kiss	-12043
▁pars	-12044
omical	-12045
▁Fiber	-12046
▁embed	-12047
▁sunny	-12048
▁locate	-12049
▁remedy	-12050
▁Similar	-12051
▁Vietnam	-12052
▁console	-12053
▁probate	-12054
▁turtles	-12055
▁vertigo	-12056
▁delicious	-12057
▁vertebrae	-12058
▁apartments	-12059
▁credential	-12060
▁underground	-12061
8)	-12062
fat	-12063
▁ak	-12064
▁tsp	-12065
▁Canc	-12066
▁Begin	-12067
▁Guard	-12068
ogenesis	-12069
▁Reserve	-12070
▁imaging	-12071
▁patches	-12072
▁privile	-12073
▁spinach	-12074
▁Complete	-12075
▁applicants	-12076
▁calculating	-12077
▁colonoscopy	-12078
▁corresponding	-12079
----------------	-12080
▁10-	-12081
▁Cas	-12082
▁ore	-12083
▁sul	-12084
eutic	-12085
luded	-12086
peror	-12087
▁fare	-12088
▁flesh	-12089
▁retro	-12090
sterdam	-12091
▁Garden	-12092
▁Wilson	-12093
▁cereal	-12094
▁charter	-12095
▁despite	-12096
▁strands	-12097
▁Salaries	-12098
▁antioxid	-12099
▁informal	-12100
▁leukemia	-12101
▁explained	-12102
▁acceptable	-12103
▁endangered	-12104
▁infrastructure	-12105
▁Representatives	-12106
Ps	-12107
How	-12108
▁cn	-12109
▁28,	-12110
▁3.5	-12111
▁SQL	-12112
▁lub	-12113
▁orb	-12114
▁chap	-12115
▁malt	-12116
encing	-12117
itches	-12118
▁Avoid	-12119
▁Grant	-12120
▁Saint	-12121
▁float	-12122
▁macro	-12123
▁schiz	-12124
▁trunk	-12125
▁lenses	-12126
▁turtle	-12127
▁whites	-12128
▁Chicken	-12129
▁Assistant	-12130
▁disadvant	-12131
▁reception	-12132
▁commitment	-12133
div	-12134
500.	-12135
aved	-12136
▁SAT	-12137
▁crus	-12138
urrent	-12139
▁Final	-12140
▁Liber	-12141
▁defer	-12142
▁diego	-12143
illation	-12144
▁baggage	-12145
▁breasts	-12146
▁rolling	-12147
▁arranged	-12148
▁Cambridge	-12149
▁microorgan	-12150
▁radioactive	-12151
▁mitochondria	-12152
▁technologies	-12153
05	-12154
Sh	-12155
To	-12156
EST	-12157
Net	-12158
erâ	-12159
gom	-12160
▁PH	-12161
▁Ell	-12162
▁USD	-12163
▁Wat	-12164
▁Econ	-12165
▁Sant	-12166
▁dict	-12167
▁ebay	-12168
▁poul	-12169
asters	-12170
oluble	-12171
▁alarm	-12172
icillin	-12173
▁Should	-12174
▁typing	-12175
ampshire	-12176
esterday	-12177
▁captain	-12178
▁pathway	-12179
▁welfare	-12180
▁Jefferson	-12181
▁awareness	-12182
▁acquisition	-12183
7%	-12184
vas	-12185
▁Sy	-12186
▁ka	-12187
iche	-12188
obia	-12189
▁$3,	-12190
aract	-12191
ludes	-12192
owned	-12193
ptide	-12194
▁2002	-12195
▁grid	-12196
atitis	-12197
hattan	-12198
▁cargo	-12199
▁corpus	-12200
▁harder	-12201
▁proxim	-12202
▁washer	-12203
▁durable	-12204
▁montana	-12205
▁repairs	-12206
▁Football	-12207
▁bringing	-12208
▁cramping	-12209
▁declared	-12210
▁inserted	-12211
▁abilities	-12212
▁organelle	-12213
▁atmospheric	-12214
71	-12215
aki	-12216
abul	-12217
▁Eye	-12218
▁Lyn	-12219
▁alf	-12220
jamin	-12221
style	-12222
▁Bang	-12223
▁bend	-12224
▁cous	-12225
▁knot	-12226
▁orch	-12227
▁Honda	-12228
▁aging	-12229
▁flies	-12230
▁incom	-12231
▁knock	-12232
▁shops	-12233
▁Simply	-12234
▁cooker	-12235
▁donald	-12236
▁settled	-12237
▁violent	-12238
▁Advanced	-12239
▁Assessor	-12240
▁immunity	-12241
▁accidents	-12242
▁districts	-12243
▁requiring	-12244
▁authorization	-12245
NC	-12246
igm	-12247
oft	-12248
ulus	-12249
▁(3.	-12250
▁26,	-12251
▁80%	-12252
▁lyn	-12253
▁pix	-12254
▁peer	-12255
gomery	-12256
▁Muscle	-12257
▁Survey	-12258
▁adoles	-12259
▁duplic	-12260
▁toyota	-12261
▁Perform	-12262
▁victory	-12263
▁assisted	-12264
▁officials	-12265
▁temperate	-12266
▁differential	-12267
▁verification	-12268
idi	-12269
bles	-12270
esar	-12271
rtle	-12272
rust	-12273
ilder	-12274
utely	-12275
▁1950	-12276
▁Such	-12277
▁Talk	-12278
▁Used	-12279
▁bump	-12280
▁epic	-12281
▁knew	-12282
▁cider	-12283
▁sells	-12284
▁twins	-12285
▁casino	-12286
▁cleans	-12287
▁mantle	-12288
▁module	-12289
▁Daylight	-12290
▁entrance	-12291
▁holidays	-12292
;;	-12293
FC	-12294
eor	-12295
htt	-12296
acob	-12297
open	-12298
zema	-12299
▁Boy	-12300
▁Lip	-12301
▁icd	-12302
▁lum	-12303
iolet	-12304
neous	-12305
▁Roll	-12306
▁feat	-12307
▁fits	-12308
edical	-12309
ickets	-12310
ulator	-12311
▁Award	-12312
▁Diagn	-12313
▁korea	-12314
▁quiet	-12315
▁stake	-12316
oporosis	-12317
▁offense	-12318
▁ongoing	-12319
▁featured	-12320
▁departure	-12321
▁quantities	-12322
▁variations	-12323
▁permanently	-12324
6)	-12325
▁62	-12326
▁Flu	-12327
▁lev	-12328
isons	-12329
▁Text	-12330
ayette	-12331
▁inver	-12332
▁jelly	-12333
▁Awards	-12334
▁Golden	-12335
▁Studio	-12336
▁embryo	-12337
▁gained	-12338
▁scales	-12339
▁Capital	-12340
▁Chronic	-12341
▁Question	-12342
▁anaerobic	-12343
▁cancelled	-12344
▁platelets	-12345
▁graduation	-12346
▁hydrochlor	-12347
.5	-12348
FA	-12349
PC	-12350
IST	-12351
een	-12352
flu	-12353
yms	-12354
osit	-12355
oven	-12356
▁rac	-12357
▁Perm	-12358
▁dell	-12359
▁mere	-12360
▁penal	-12361
▁polym	-12362
▁spice	-12363
▁laying	-12364
▁offset	-12365
▁booking	-12366
▁strings	-12367
▁progesterone	-12368
ev	-12369
enz	-12370
▁54	-12371
0000	-12372
corn	-12373
rets	-12374
zech	-12375
▁130	-12376
▁Ban	-12377
▁jim	-12378
▁lap	-12379
▁lug	-12380
(0.00	-12381
▁cant	-12382
▁mint	-12383
vation	-12384
▁Corps	-12385
▁Korea	-12386
▁Liver	-12387
▁Style	-12388
▁fetal	-12389
▁fluor	-12390
▁knees	-12391
▁parad	-12392
▁encomp	-12393
▁missed	-12394
▁Ancient	-12395
▁synthes	-12396
▁Exchange	-12397
▁Software	-12398
▁doctrine	-12399
▁upcoming	-12400
▁stimulates	-12401
▁Environment	-12402
.[	-12403
VC	-12404
lb	-12405
dri	-12406
▁1%	-12407
edge	-12408
▁Bit	-12409
▁Due	-12410
▁ICD	-12411
▁Pul	-12412
▁Cell	-12413
▁fred	-12414
▁gira	-12415
▁gulf	-12416
▁sits	-12417
season	-12418
▁Being	-12419
▁Ridge	-12420
▁Steel	-12421
▁domin	-12422
▁wides	-12423
▁Branch	-12424
▁Having	-12425
▁angeles	-12426
▁december	-12427
▁placenta	-12428
▁shortcut	-12429
▁hazardous	-12430
▁guaranteed	-12431
▁tenderloin	-12432
▁transcript	-12433
▁coordinator	-12434
▁flexibility	-12435
▁populations	-12436
▁]	-12437
bsp	-12438
iah	-12439
▁5%	-12440
loor	-12441
onna	-12442
oted	-12443
▁2-3	-12444
▁Ide	-12445
▁Tap	-12446
▁cob	-12447
iller	-12448
imens	-12449
payer	-12450
pport	-12451
pread	-12452
▁beam	-12453
▁Think	-12454
▁fargo	-12455
▁Edward	-12456
▁Period	-12457
▁terror	-12458
▁vector	-12459
▁Certain	-12460
▁Reviews	-12461
▁evolved	-12462
▁expired	-12463
▁formats	-12464
▁franklin	-12465
▁perfectly	-12466
▁probation	-12467
▁reproduce	-12468
▁shortness	-12469
▁occupation	-12470
▁perception	-12471
ez	-12472
pot	-12473
▁43	-12474
▁Lew	-12475
▁Ray	-12476
▁lib	-12477
agger	-12478
bound	-12479
▁Wire	-12480
▁blow	-12481
▁Asian	-12482
▁Hours	-12483
▁adobe	-12484
▁curry	-12485
▁oblig	-12486
ictions	-12487
▁aortic	-12488
▁canned	-12489
▁cellul	-12490
▁inquir	-12491
▁kitten	-12492
▁unlike	-12493
aturated	-12494
▁raising	-12495
▁uterine	-12496
▁quarters	-12497
▁wildlife	-12498
vironments	-12499
▁asparagus	-12500
▁wondering	-12501
▁presidents	-12502
▁contractors	-12503
▁chemotherapy	-12504
TP	-12505
ITY	-12506
New	-12507
vac	-12508
eton	-12509
rock	-12510
stop	-12511
tuce	-12512
ydia	-12513
ylon	-12514
▁Bul	-12515
▁$250	-12516
▁Mini	-12517
▁User	-12518
▁amph	-12519
▁bits	-12520
▁brid	-12521
illary	-12522
orence	-12523
▁chevy	-12524
▁occas	-12525
▁herbal	-12526
▁retina	-12527
▁slices	-12528
▁temple	-12529
▁trends	-12530
▁Despite	-12531
▁kennedy	-12532
▁phrases	-12533
▁singing	-12534
▁prolonged	-12535
▁amendments	-12536
▁recreational	-12537
)?	-12538
UD	-12539
axis	-12540
oths	-12541
utor	-12542
▁bic	-12543
Getty	-12544
iscus	-12545
onder	-12546
▁Cape	-12547
▁Rand	-12548
▁Rose	-12549
azepam	-12550
inding	-12551
▁Clear	-12552
▁Coord	-12553
▁Track	-12554
▁brisk	-12555
▁lying	-12556
▁magma	-12557
▁skype	-12558
▁watts	-12559
▁fought	-12560
▁nevada	-12561
▁Limited	-12562
▁awarded	-12563
▁pulling	-12564
▁tetanus	-12565
▁weights	-12566
▁Memorial	-12567
▁abstract	-12568
▁february	-12569
▁existence	-12570
▁Calculator	-12571
▁controvers	-12572
▁convenience	-12573
▁misdemeanor	-12574
SM	-12575
rins	-12576
wick	-12577
▁188	-12578
▁rug	-12579
aelic	-12580
▁Airl	-12581
▁Unit	-12582
▁dece	-12583
ocated	-12584
ortion	-12585
▁Story	-12586
▁alert	-12587
▁tiles	-12588
faction	-12589
▁Galaxy	-12590
▁Notice	-12591
▁cooler	-12592
▁myself	-12593
▁Results	-12594
▁dealing	-12595
▁farmers	-12596
▁mailing	-12597
▁defendant	-12598
▁references	-12599
▁Unfortunately	-12600
dl	-12601
die	-12602
▁AG	-12603
aden	-12604
bris	-12605
▁185	-12606
▁joy	-12607
ageal	-12608
aphyl	-12609
▁(199	-12610
▁Walk	-12611
▁dash	-12612
▁scul	-12613
▁ther	-12614
atinum	-12615
making	-12616
▁goats	-12617
▁stere	-12618
▁Latest	-12619
▁Normal	-12620
▁binary	-12621
▁boiler	-12622
▁corros	-12623
▁predom	-12624
cellular	-12625
▁Updated	-12626
▁titanic	-12627
▁dissolve	-12628
▁ignition	-12629
▁improved	-12630
▁turmeric	-12631
▁Essential	-12632
▁producers	-12633
▁strongest	-12634
▁celebrated	-12635
▁challenges	-12636
▁arrangement	-12637
▁governments	-12638
▁integration	-12639
sex	-12640
▁TR	-12641
▁0.5	-12642
▁Sus	-12643
erick	-12644
▁Lock	-12645
▁Prob	-12646
▁rush	-12647
▁Vehic	-12648
▁flame	-12649
▁costco	-12650
idential	-12651
▁acrylic	-12652
▁arrival	-12653
▁funding	-12654
▁specify	-12655
▁Patients	-12656
▁sickness	-12657
▁rainforest	-12658
▁restricted	-12659
▁suspension	-12660
▁Statistical	-12661
▁outstanding	-12662
▁Requirements	-12663
FR	-12664
IE	-12665
fo	-12666
occ	-12667
otle	-12668
ruce	-12669
▁27,	-12670
▁barb	-12671
▁hunt	-12672
▁pent	-12673
▁taxi	-12674
▁Rates	-12675
▁thank	-12676
atively	-12677
oplasty	-12678
▁reward	-12679
▁Montana	-12680
▁inspect	-12681
▁pertain	-12682
▁readers	-12683
▁Certific	-12684
▁Learning	-12685
▁nashville	-12686
▁attractive	-12687
▁democratic	-12688
▁physically	-12689
▁polymerase	-12690
▁breastfeeding	-12691
vs	-12692
otid	-12693
▁125	-12694
▁fulf	-12695
▁pearl	-12696
▁rinse	-12697
▁versa	-12698
▁indoor	-12699
▁graphic	-12700
▁invoice	-12701
▁oatmeal	-12702
▁seizure	-12703
▁Airlines	-12704
▁athletes	-12705
▁genetics	-12706
▁Currently	-12707
▁bluetooth	-12708
▁Historical	-12709
▁watermelon	-12710
iel	-12711
tor	-12712
They	-12713
acre	-12714
fare	-12715
▁ome	-12716
athan	-12717
▁Fast	-12718
▁cass	-12719
▁Drink	-12720
▁crude	-12721
▁Doctor	-12722
▁correl	-12723
ervation	-12724
▁melting	-12725
▁proceed	-12726
▁manually	-12727
▁volcanic	-12728
▁stiffness	-12729
▁appliances	-12730
▁derivative	-12731
▁epithelial	-12732
▁pancreatic	-12733
▁recommends	-12734
▁equilibrium	-12735
▁environments	-12736
Éa	-12737
TER	-12738
fox	-12739
jet	-12740
ante	-12741
best	-12742
pose	-12743
ragm	-12744
▁Lin	-12745
agles	-12746
ctors	-12747
ergic	-12748
▁Fill	-12749
▁Poke	-12750
anging	-12751
ylenol	-12752
▁Steve	-12753
▁donor	-12754
ogether	-12755
station	-12756
▁andrew	-12757
▁confed	-12758
▁hollow	-12759
▁relate	-12760
▁viewed	-12761
▁coastal	-12762
▁endomet	-12763
▁minimal	-12764
▁maturity	-12765
▁performs	-12766
▁ultimately	-12767
▁representation	-12768
▁NO	-12769
ghan	-12770
home	-12771
olds	-12772
rise	-12773
rubs	-12774
aukee	-12775
ensed	-12776
▁Donâ	-12777
▁chin	-12778
▁jeep	-12779
▁puts	-12780
▁spay	-12781
ailand	-12782
▁minus	-12783
▁optim	-12784
▁Resort	-12785
▁allele	-12786
▁deadly	-12787
▁whales	-12788
▁clinton	-12789
▁Bachelor	-12790
▁Tradition	-12791
▁Transport	-12792
▁metamorph	-12793
▁Confidence	-12794
▁cigarettes	-12795
▁participle	-12796
▁observation	-12797
ocl	-12798
▁cu	-12799
▁ja	-12800
▁mb	-12801
hire	-12802
inoa	-12803
omon	-12804
rack	-12805
▁Sov	-12806
▁mim	-12807
algia	-12808
▁Golf	-12809
▁busy	-12810
isting	-12811
▁Sound	-12812
▁Stone	-12813
▁sculpt	-12814
▁troops	-12815
▁Surgery	-12816
▁gardens	-12817
▁passion	-12818
▁silicon	-12819
▁dressing	-12820
▁emotions	-12821
▁Committee	-12822
▁christmas	-12823
▁initially	-12824
▁jefferson	-12825
▁mutations	-12826
▁nucleotides	-12827
▁implementation	-12828
▁41	-12829
acle	-12830
days	-12831
gium	-12832
grow	-12833
break	-12834
igned	-12835
▁Five	-12836
▁merg	-12837
▁quit	-12838
▁resc	-12839
▁2009.	-12840
▁stuck	-12841
thernet	-12842
▁Single	-12843
▁autism	-12844
▁Journal	-12845
▁Looking	-12846
▁couples	-12847
▁forever	-12848
▁powered	-12849
▁protons	-12850
▁recruit	-12851
▁samples	-12852
▁tourist	-12853
▁systemic	-12854
▁preschool	-12855
inflammatory	-12856
All	-12857
rys	-12858
▁ru	-12859
elve	-12860
▁Gre	-12861
▁fart	-12862
▁fauc	-12863
▁meds	-12864
▁Hereâ	-12865
▁Wales	-12866
▁cheek	-12867
▁hedge	-12868
▁penet	-12869
▁Kindle	-12870
▁deficit	-12871
▁richest	-12872
▁aggregate	-12873
▁promotion	-12874
▁residency	-12875
▁persistent	-12876
▁conjunction	-12877
▁intolerance	-12878
▁conservation	-12879
hus	-12880
▁SA	-12881
▁SH	-12882
pine	-12883
.....	-12884
azole	-12885
odiac	-12886
▁Rank	-12887
▁Visa	-12888
contin	-12889
rounds	-12890
ulture	-12891
▁Bring	-12892
▁Years	-12893
▁brass	-12894
▁Forest	-12895
▁alerts	-12896
▁grapes	-12897
▁mucous	-12898
▁pelvis	-12899
▁vulner	-12900
secutive	-12901
▁Measure	-12902
▁Officer	-12903
▁interfe	-12904
▁payable	-12905
▁welcome	-12906
▁forensic	-12907
▁morphine	-12908
▁plumbing	-12909
▁secreted	-12910
▁preparing	-12911
▁provision	-12912
▁hypothyroidism	-12913
lem	-12914
▁66	-12915
▁HR	-12916
pack	-12917
tops	-12918
▁Dol	-12919
▁LED	-12920
oking	-12921
quart	-12922
uretic	-12923
▁Determ	-12924
▁Israel	-12925
▁Volume	-12926
▁contra	-12927
▁metres	-12928
▁plaque	-12929
▁abscess	-12930
▁inherit	-12931
▁lasting	-12932
▁pronoun	-12933
▁retired	-12934
▁invasive	-12935
▁priority	-12936
▁senators	-12937
▁emissions	-12938
▁ibuprofen	-12939
▁mandatory	-12940
▁placement	-12941
▁Metropolitan	-12942
-30	-12943
aza	-12944
non	-12945
▁Eve	-12946
▁joe	-12947
undra	-12948
▁Must	-12949
▁Define	-12950
▁cosmet	-12951
▁anthrop	-12952
▁lymphoma	-12953
▁celebrate	-12954
▁stainless	-12955
▁productivity	-12956
td	-12957
cha	-12958
oned	-12959
▁idi	-12960
▁Carl	-12961
▁Info	-12962
▁seaf	-12963
▁Mater	-12964
▁Model	-12965
▁Agency	-12966
▁Modern	-12967
▁Update	-12968
▁indeed	-12969
▁qualities	-12970
▁roosevelt	-12971
▁secretion	-12972
▁suspended	-12973
▁Democratic	-12974
▁Directions	-12975
ims	-12976
tub	-12977
umm	-12978
fire	-12979
glas	-12980
thew	-12981
▁2.0	-12982
▁Kat	-12983
ampoo	-12984
oodle	-12985
▁anne	-12986
▁cush	-12987
▁thym	-12988
idency	-12989
ulates	-12990
▁cedar	-12991
▁conqu	-12992
▁queen	-12993
▁congen	-12994
▁counts	-12995
▁grants	-12996
▁resemb	-12997
ications	-12998
uderdale	-12999
▁bonding	-13000
▁borough	-13001
▁diploma	-13002
▁resolve	-13003
▁signing	-13004
▁Military	-13005
▁columbus	-13006
▁premiums	-13007
▁strongly	-13008
▁assistants	-13009
▁widespread	-13010
▁fermentation	-13011
edit	-13012
iner	-13013
vals	-13014
▁Aid	-13015
▁Eat	-13016
▁MRI	-13017
▁McC	-13018
▁fog	-13019
anium	-13020
names	-13021
▁Prep	-13022
▁Sent	-13023
angers	-13024
ophren	-13025
▁aches	-13026
▁crypt	-13027
▁penny	-13028
▁poker	-13029
erative	-13030
▁Jewish	-13031
▁cables	-13032
▁Ontario	-13033
▁disrupt	-13034
▁outline	-13035
▁enrolled	-13036
▁navigation	-13037
▁participants	-13038
▁osteoarthritis	-13039
/8	-13040
2%	-13041
hu	-13042
hett	-13043
quet	-13044
▁Sor	-13045
▁sab	-13046
▁vod	-13047
idian	-13048
▁2001	-13049
▁Stan	-13050
▁dorm	-13051
▁leuk	-13052
ieving	-13053
▁arise	-13054
▁chris	-13055
essions	-13056
▁burger	-13057
▁debris	-13058
▁oracle	-13059
▁portug	-13060
▁100,000	-13061
▁Netflix	-13062
▁contest	-13063
▁crucial	-13064
▁footage	-13065
▁ovaries	-13066
▁trusted	-13067
▁Pressure	-13068
▁colonial	-13069
▁isolated	-13070
▁Universal	-13071
▁counseling	-13072
▁subsequent	-13073
▁differently	-13074
ais	-13075
due	-13076
plus	-13077
▁30-	-13078
▁sad	-13079
onent	-13080
▁HTML	-13081
▁Jail	-13082
▁bald	-13083
▁lamp	-13084
▁sten	-13085
▁wiki	-13086
ousing	-13087
▁Study	-13088
▁pipes	-13089
▁vegan	-13090
autical	-13091
▁bleach	-13092
▁ingest	-13093
▁miscar	-13094
▁Further	-13095
▁equator	-13096
▁heights	-13097
▁needles	-13098
▁november	-13099
▁southeast	-13100
▁Additional	-13101
▁congestion	-13102
▁impossible	-13103
▁instructor	-13104
▁microscope	-13105
▁possession	-13106
▁contemporary	-13107
▁implantation	-13108
EX	-13109
MM	-13110
aws	-13111
orr	-13112
pen	-13113
▁3)	-13114
▁Nic	-13115
▁PRO	-13116
▁nan	-13117
▁Loss	-13118
▁Mike	-13119
▁lien	-13120
▁mate	-13121
▁slip	-13122
▁tied	-13123
ouglas	-13124
phrine	-13125
rating	-13126
▁hindi	-13127
▁overw	-13128
abulary	-13129
▁Median	-13130
▁Taylor	-13131
▁habits	-13132
controll	-13133
▁blockage	-13134
▁cataract	-13135
▁overdose	-13136
▁surrounds	-13137
01	-13138
sk	-13139
IDS	-13140
▁ivy	-13141
bucks	-13142
elled	-13143
▁Cart	-13144
▁Cham	-13145
▁Gran	-13146
▁Jose	-13147
▁boss	-13148
bourne	-13149
▁nouns	-13150
▁senses	-13151
▁neither	-13152
▁delivers	-13153
▁disaster	-13154
▁vaccines	-13155
▁improving	-13156
▁petroleum	-13157
▁regulated	-13158
▁similarities	-13159
HT	-13160
SH	-13161
hey	-13162
nar	-13163
pow	-13164
▁Ho	-13165
▁rv	-13166
cler	-13167
▁Toy	-13168
▁tul	-13169
▁wow	-13170
amily	-13171
illus	-13172
itate	-13173
lined	-13174
▁coli	-13175
▁impr	-13176
▁penn	-13177
▁rope	-13178
▁Block	-13179
▁dimin	-13180
▁moons	-13181
quarium	-13182
▁Active	-13183
▁Recent	-13184
▁deeper	-13185
▁layout	-13186
▁mixing	-13187
▁nights	-13188
▁promise	-13189
▁starred	-13190
▁cosmetic	-13191
▁particle	-13192
▁sciences	-13193
▁Secretary	-13194
▁responses	-13195
▁objectives	-13196
▁earthquakes	-13197
wy	-13198
▁5:	-13199
etes	-13200
▁12-	-13201
▁Jon	-13202
▁Kay	-13203
▁Tal	-13204
▁Weâ	-13205
▁ect	-13206
▁Ever	-13207
▁dont	-13208
▁redd	-13209
▁vest	-13210
▁watt	-13211
onesia	-13212
rought	-13213
▁Creat	-13214
▁Space	-13215
▁boats	-13216
▁chees	-13217
▁globe	-13218
▁mason	-13219
▁rocky	-13220
product	-13221
▁Battle	-13222
▁Method	-13223
▁Screen	-13224
▁parish	-13225
▁perenn	-13226
ocytosis	-13227
▁dispute	-13228
▁ventricle	-13229
▁grapefruit	-13230
▁distinctive	-13231
▁shakespeare	-13232
ti	-13233
tep	-13234
ivan	-13235
▁maj	-13236
▁nig	-13237
amics	-13238
chron	-13239
▁$150	-13240
▁Capt	-13241
▁Spir	-13242
▁evil	-13243
▁Large	-13244
▁basal	-13245
▁broke	-13246
▁imbal	-13247
▁Dollar	-13248
▁lumber	-13249
▁surviv	-13250
▁compass	-13251
▁goddess	-13252
▁crystall	-13253
▁detection	-13254
▁attractions	-13255
▁intervention	-13256
GA	-13257
On	-13258
sâ	-13259
▁MB	-13260
''''	-13261
arer	-13262
▁McD	-13263
rokee	-13264
▁FREE	-13265
▁Happ	-13266
▁Jane	-13267
▁Still	-13268
▁cater	-13269
▁spoon	-13270
▁discol	-13271
▁steady	-13272
▁balloon	-13273
▁descend	-13274
▁licence	-13275
▁rebuild	-13276
▁viewing	-13277
▁crossword	-13278
▁financing	-13279
▁prescribe	-13280
▁accountant	-13281
▁activation	-13282
▁automobile	-13283
▁converting	-13284
▁tournament	-13285
▁recommendations	-13286
MB	-13287
ko	-13288
Âo	-13289
▁bm	-13290
even	-13291
olen	-13292
this	-13293
▁$75	-13294
▁Pap	-13295
▁len	-13296
▁osm	-13297
gling	-13298
ooked	-13299
▁batt	-13300
▁hose	-13301
▁2008.	-13302
▁Works	-13303
▁hosts	-13304
▁infin	-13305
▁Driver	-13306
▁Record	-13307
▁genome	-13308
▁kindle	-13309
▁plague	-13310
▁undert	-13311
▁iceland	-13312
▁starter	-13313
▁Delaware	-13314
▁expanded	-13315
▁laminate	-13316
▁monetary	-13317
▁virtually	-13318
▁associates	-13319
▁attraction	-13320
▁separately	-13321
▁Translation	-13322
▁acceleration	-13323
▁organizational	-13324
OP	-13325
tz	-13326
chy	-13327
ois	-13328
etal	-13329
▁$11	-13330
▁Beh	-13331
▁gay	-13332
▁hex	-13333
▁loy	-13334
andel	-13335
ieval	-13336
▁Self	-13337
▁USDA	-13338
▁flea	-13339
▁tags	-13340
erated	-13341
▁dwarf	-13342
▁ticks	-13343
chester	-13344
▁Soviet	-13345
▁Winter	-13346
▁coined	-13347
▁convey	-13348
▁poultry	-13349
▁antibody	-13350
▁arrested	-13351
▁chloropl	-13352
▁columbia	-13353
▁destroyed	-13354
▁searching	-13355
▁circulatory	-13356
▁obstruction	-13357
▁Championship	-13358
▁disabilities	-13359
aug	-13360
phy	-13361
▁SI	-13362
atar	-13363
erie	-13364
llll	-13365
ulic	-13366
uria	-13367
your	-13368
▁179	-13369
▁700	-13370
otics	-13371
▁lane	-13372
waukee	-13373
▁Frequ	-13374
▁coral	-13375
▁erect	-13376
▁upgra	-13377
innamon	-13378
▁Format	-13379
▁scored	-13380
▁septic	-13381
▁wholes	-13382
▁incorrect	-13383
▁serotonin	-13384
CR	-13385
▁56	-13386
▁ia	-13387
/201	-13388
plan	-13389
▁Hig	-13390
▁Sud	-13391
▁lor	-13392
gered	-13393
maker	-13394
udson	-13395
undry	-13396
▁buds	-13397
▁Bible	-13398
▁diets	-13399
▁roses	-13400
▁Jordan	-13401
▁Senior	-13402
▁neural	-13403
▁superf	-13404
etically	-13405
▁arrived	-13406
▁humming	-13407
▁lettuce	-13408
▁pleural	-13409
▁mattress	-13410
▁reflects	-13411
▁variance	-13412
▁Following	-13413
▁clearance	-13414
▁penalties	-13415
▁predators	-13416
▁adjustment	-13417
▁consecutive	-13418
)(	-13419
dr	-13420
hd	-13421
▁RV	-13422
▁nv	-13423
oons	-13424
▁Bed	-13425
▁vig	-13426
forms	-13427
ombia	-13428
▁damp	-13429
▁null	-13430
olving	-13431
▁Analy	-13432
▁anten	-13433
ennifer	-13434
▁apprec	-13435
▁latter	-13436
▁opioid	-13437
▁ranking	-13438
▁Victoria	-13439
▁blocking	-13440
▁charcoal	-13441
▁remained	-13442
▁alcoholic	-13443
▁quotation	-13444
▁urination	-13445
▁administer	-13446
▁exceptions	-13447
▁newspapers	-13448
▁prednisone	-13449
▁approximate	-13450
▁beneficiary	-13451
▁neurological	-13452
Sc	-13453
bet	-13454
ados	-13455
oked	-13456
▁Far	-13457
▁bee	-13458
arten	-13459
wheel	-13460
▁Tree	-13461
▁soph	-13462
iogram	-13463
▁Adams	-13464
▁armed	-13465
▁farms	-13466
agonist	-13467
▁archae	-13468
▁cookie	-13469
▁enabled	-13470
▁hosting	-13471
▁breeding	-13472
▁marathon	-13473
▁portable	-13474
▁hamburger	-13475
▁northeast	-13476
▁stimulate	-13477
▁smartphone	-13478
▁Shakespeare	-13479
▁contributed	-13480
▁distinguish	-13481
▁identifying	-13482
▁therapeutic	-13483
▁strawberries	-13484
.'	-13485
1:	-13486
MC	-13487
eat	-13488
▁Ak	-13489
▁BB	-13490
▁CL	-13491
▁PR	-13492
anka	-13493
arse	-13494
▁pas	-13495
▁zoo	-13496
usive	-13497
▁fict	-13498
▁Graph	-13499
▁Pregn	-13500
▁amort	-13501
▁dryer	-13502
▁fleet	-13503
▁emails	-13504
▁gentle	-13505
▁rotate	-13506
ribution	-13507
▁dynasty	-13508
▁england	-13509
▁examine	-13510
▁planned	-13511
▁planted	-13512
▁athletic	-13513
▁monoxide	-13514
▁surprise	-13515
▁fractures	-13516
▁wikipedia	-13517
▁Difference	-13518
▁absolutely	-13519
▁understood	-13520
▁distinction	-13521
▁schizophren	-13522
▁terminology	-13523
▁Instructions	-13524
▁concentrated	-13525
EA	-13526
ICA	-13527
data	-13528
gets	-13529
idth	-13530
ques	-13531
itial	-13532
osine	-13533
riott	-13534
▁1800	-13535
▁Bron	-13536
▁Webs	-13537
▁cact	-13538
▁dors	-13539
▁muff	-13540
▁basin	-13541
▁enact	-13542
▁hired	-13543
▁plank	-13544
counter	-13545
▁Retire	-13546
▁eczema	-13547
▁gaming	-13548
▁jordan	-13549
▁Digital	-13550
▁optical	-13551
▁steroid	-13552
▁admitted	-13553
▁combines	-13554
▁computing	-13555
▁recycling	-13556
▁conclusion	-13557
250	-13558
acin	-13559
eras	-13560
oise	-13561
phis	-13562
▁Dat	-13563
▁NBC	-13564
▁Vac	-13565
▁ack	-13566
▁tig	-13567
▁Arts	-13568
▁Cars	-13569
▁hipp	-13570
▁Again	-13571
▁diaph	-13572
▁sized	-13573
▁tribe	-13574
leyball	-13575
▁$5,000	-13576
▁Degree	-13577
▁Details	-13578
▁Pokemon	-13579
▁cluster	-13580
▁emotion	-13581
▁credited	-13582
▁meetings	-13583
-200	-13584
alsy	-13585
▁450	-13586
▁Lex	-13587
▁cay	-13588
▁lou	-13589
child	-13590
▁Anim	-13591
▁Mach	-13592
▁sept	-13593
▁tuck	-13594
cardia	-13595
ilepsy	-13596
othing	-13597
ulsion	-13598
undice	-13599
▁denom	-13600
ositive	-13601
ructive	-13602
▁Eating	-13603
▁inmate	-13604
▁sealed	-13605
▁Getting	-13606
▁equally	-13607
▁inhabit	-13608
▁undergo	-13609
▁varying	-13610
▁Discover	-13611
▁Syndrome	-13612
▁scotland	-13613
▁studying	-13614
▁taxpayer	-13615
▁cigarette	-13616
▁limestone	-13617
▁challenging	-13618
▁osteoporosis	-13619
uh	-13620
yo	-13621
900	-13622
amy	-13623
chi	-13624
pop	-13625
rif	-13626
ivic	-13627
oske	-13628
▁dod	-13629
▁Days	-13630
▁Easy	-13631
▁bolt	-13632
▁silk	-13633
▁worm	-13634
atonin	-13635
ifting	-13636
▁Yahoo	-13637
▁alleg	-13638
▁depot	-13639
▁faces	-13640
▁knife	-13641
ostasis	-13642
▁wounds	-13643
▁Phoenix	-13644
▁adapted	-13645
▁avocado	-13646
▁veteran	-13647
▁commands	-13648
▁envelope	-13649
▁regarded	-13650
▁suppress	-13651
▁kilograms	-13652
▁shoulders	-13653
▁therapists	-13654
▁controlling	-13655
▁possibility	-13656
▁interpretation	-13657
2-	-13658
ryl	-13659
▁jr	-13660
enne	-13661
rena	-13662
▁15.	-13663
▁URL	-13664
▁nec	-13665
edish	-13666
▁Pour	-13667
▁burs	-13668
▁2008,	-13669
▁earns	-13670
▁pride	-13671
▁Course	-13672
▁sticks	-13673
▁Numbers	-13674
▁berries	-13675
▁daytime	-13676
▁flavors	-13677
▁weapons	-13678
▁organize	-13679
▁supplied	-13680
▁Alzheimer	-13681
▁packaging	-13682
▁singapore	-13683
▁designation	-13684
▁veterinarian	-13685
▁developmental	-13686
Us	-13687
unc	-13688
▁Fer	-13689
▁Ira	-13690
after	-13691
▁Ball	-13692
▁Core	-13693
▁Redu	-13694
▁pren	-13695
▁Costa	-13696
▁cited	-13697
▁helic	-13698
▁logic	-13699
▁slope	-13700
▁analog	-13701
▁sharks	-13702
▁blanket	-13703
▁drywall	-13704
▁senator	-13705
efficient	-13706
▁Portugal	-13707
▁infusion	-13708
▁developer	-13709
▁introduce	-13710
▁oxidation	-13711
▁conception	-13712
▁photograph	-13713
▁predominant	-13714
IO	-13715
SC	-13716
▁00	-13717
▁78	-13718
Noun	-13719
uate	-13720
▁Coc	-13721
▁Dar	-13722
▁aug	-13723
▁cav	-13724
▁owe	-13725
lings	-13726
▁Come	-13727
▁cuis	-13728
▁fmla	-13729
▁oats	-13730
▁tast	-13731
phthal	-13732
▁2007,	-13733
▁Among	-13734
▁dubai	-13735
▁lewis	-13736
▁rigid	-13737
▁noticed	-13738
▁readily	-13739
▁Function	-13740
▁nebraska	-13741
▁Instagram	-13742
▁combining	-13743
▁recipient	-13744
▁mathematics	-13745
53	-13746
icc	-13747
obl	-13748
rah	-13749
▁au	-13750
imet	-13751
size	-13752
step	-13753
▁kim	-13754
birds	-13755
ivate	-13756
▁Tell	-13757
▁hier	-13758
▁rely	-13759
▁seas	-13760
celain	-13761
▁Kelly	-13762
▁alien	-13763
▁dirty	-13764
▁ducts	-13765
▁exert	-13766
▁hence	-13767
▁manip	-13768
▁pools	-13769
lamydia	-13770
▁Ground	-13771
▁meteor	-13772
▁quotes	-13773
▁twelve	-13774
gression	-13775
▁Kennedy	-13776
▁farming	-13777
▁prepaid	-13778
orporated	-13779
▁Nebraska	-13780
▁fibrosis	-13781
▁prospect	-13782
▁thermost	-13783
▁offspring	-13784
▁collective	-13785
▁indication	-13786
▁triglycerides	-13787
▁concentrations	-13788
fu	-13789
ols	-13790
▁ug	-13791
acon	-13792
owed	-13793
▁Hep	-13794
▁Pow	-13795
▁ein	-13796
iacin	-13797
ophen	-13798
reeze	-13799
▁Bowl	-13800
▁Crit	-13801
▁Stir	-13802
▁emit	-13803
irable	-13804
▁Glass	-13805
▁Intel	-13806
▁Trade	-13807
▁chili	-13808
▁ozone	-13809
▁austin	-13810
▁bronze	-13811
▁locked	-13812
pathetic	-13813
▁fingern	-13814
▁jamaica	-13815
▁simplest	-13816
▁triggers	-13817
▁carcinoma	-13818
▁substrate	-13819
▁approaches	-13820
▁provisions	-13821
bus	-13822
▁Om	-13823
ento	-13824
ibia	-13825
iens	-13826
wash	-13827
brook	-13828
▁rept	-13829
▁wasn	-13830
unning	-13831
▁blues	-13832
▁bodyâ	-13833
▁reign	-13834
▁scrub	-13835
▁squee	-13836
▁theft	-13837
▁trout	-13838
▁emphas	-13839
▁rectum	-13840
▁Quality	-13841
▁enlarge	-13842
▁russian	-13843
▁visited	-13844
▁Regional	-13845
▁victoria	-13846
▁elizabeth	-13847
▁expertise	-13848
▁premature	-13849
▁spreading	-13850
▁continents	-13851
▁securities	-13852
▁interactive	-13853
tu	-13854
aru	-13855
din	-13856
▁nd	-13857
hart	-13858
otyp	-13859
▁Dru	-13860
▁ves	-13861
▁Risk	-13862
▁tact	-13863
▁lions	-13864
▁slime	-13865
▁teens	-13866
▁bitter	-13867
▁cloudy	-13868
▁proton	-13869
▁rabies	-13870
▁ribbon	-13871
▁riding	-13872
▁scroll	-13873
▁sleeve	-13874
▁wilson	-13875
▁Student	-13876
▁council	-13877
▁ethical	-13878
▁lithium	-13879
▁Interest	-13880
▁divorced	-13881
▁preserve	-13882
▁bacterium	-13883
▁investors	-13884
▁collecting	-13885
▁strawberry	-13886
▁Certificate	-13887
SV	-13888
km	-13889
40,	-13890
App	-13891
rax	-13892
amma	-13893
otts	-13894
▁Les	-13895
▁Rib	-13896
▁rif	-13897
folio	-13898
heres	-13899
uming	-13900
▁Carbs	-13901
▁Front	-13902
▁kings	-13903
organic	-13904
▁expend	-13905
▁frames	-13906
▁packed	-13907
▁varied	-13908
▁Austria	-13909
▁Perhaps	-13910
▁beliefs	-13911
▁brisket	-13912
▁faculty	-13913
▁madison	-13914
▁telling	-13915
▁topical	-13916
▁imperial	-13917
▁featuring	-13918
▁sprinkler	-13919
▁warehouse	-13920
▁impression	-13921
▁regulatory	-13922
▁substantial	-13923
▁technicians	-13924
▁physiological	-13925
LAN	-13926
anz	-13927
oda	-13928
okÃ	-13929
tax	-13930
▁pt	-13931
illo	-13932
ascar	-13933
▁Beat	-13934
▁Fish	-13935
▁Give	-13936
▁asia	-13937
▁rats	-13938
ingham	-13939
plasia	-13940
▁Theat	-13941
▁arbit	-13942
▁ports	-13943
▁Symptom	-13944
▁borders	-13945
▁grammar	-13946
▁igneous	-13947
▁personâ	-13948
▁removes	-13949
▁tonsils	-13950
▁transpa	-13951
clamation	-13952
▁cinnamon	-13953
▁segments	-13954
▁peninsula	-13955
▁uninstall	-13956
▁yesterday	-13957
▁attachment	-13958
▁completing	-13959
▁concerning	-13960
▁girlfriend	-13961
▁innovative	-13962
▁specialists	-13963
aj	-13964
bul	-13965
uba	-13966
inav	-13967
unks	-13968
▁$80	-13969
▁Hon	-13970
▁dop	-13971
▁fda	-13972
▁odd	-13973
pathy	-13974
▁Anth	-13975
▁Cass	-13976
▁indo	-13977
boards	-13978
venile	-13979
▁Beaut	-13980
▁Movie	-13981
▁Rules	-13982
▁blast	-13983
▁sixth	-13984
▁stern	-13985
▁hosted	-13986
▁charger	-13987
▁counted	-13988
▁indians	-13989
▁Practice	-13990
▁inferior	-13991
▁registry	-13992
▁whenever	-13993
▁Calculate	-13994
▁mythology	-13995
▁discipline	-13996
▁networking	-13997
/7	-13998
nc	-13999
2).	-14000
hog	-14001
▁CB	-14002
file	-14003
rary	-14004
▁Pin	-14005
olith	-14006
uling	-14007
utory	-14008
▁Adam	-14009
▁Eric	-14010
▁crem	-14011
astics	-14012
osomal	-14013
▁enemy	-14014
▁flags	-14015
▁kills	-14016
▁Denver	-14017
▁Newest	-14018
▁Simple	-14019
▁Transl	-14020
▁panama	-14021
▁Defense	-14022
▁Mission	-14023
▁Stephen	-14024
▁cracked	-14025
▁streets	-14026
▁cannabis	-14027
▁rational	-14028
▁commander	-14029
▁returning	-14030
▁Conference	-14031
▁overweight	-14032
▁swallowing	-14033
▁traditionally	-14034
▁rehabilitation	-14035
PO	-14036
TY	-14037
tha	-14038
conn	-14039
some	-14040
uela	-14041
▁APA	-14042
▁Dub	-14043
▁FAQ	-14044
▁Hay	-14045
▁Jay	-14046
▁Kim	-14047
▁Sel	-14048
▁kar	-14049
digit	-14050
track	-14051
▁1920	-14052
▁1999	-14053
▁Case	-14054
▁insu	-14055
▁soak	-14056
entric	-14057
ibular	-14058
▁Maine	-14059
▁costa	-14060
▁discs	-14061
▁ferry	-14062
▁runny	-14063
ructose	-14064
▁Oldest	-14065
▁celery	-14066
curement	-14067
▁Harvard	-14068
▁Primary	-14069
▁Restaur	-14070
▁blister	-14071
▁urethra	-14072
▁Diabetes	-14073
▁findings	-14074
▁pleasant	-14075
▁behaviors	-14076
▁cleveland	-14077
▁francisco	-14078
▁reflected	-14079
▁nucleotide	-14080
▁fertilization	-14081
fc	-14082
ahl	-14083
▁NH	-14084
ggle	-14085
idae	-14086
▁Bot	-14087
▁Spe	-14088
▁bbq	-14089
ophil	-14090
pound	-14091
▁Hair	-14092
▁Kids	-14093
▁dism	-14094
▁echo	-14095
▁gymn	-14096
▁hvac	-14097
herent	-14098
▁accru	-14099
▁fluct	-14100
▁radon	-14101
▁surve	-14102
▁wrest	-14103
▁Region	-14104
▁newest	-14105
▁primer	-14106
▁radius	-14107
▁taylor	-14108
▁Buffalo	-14109
▁Consult	-14110
▁Driving	-14111
▁acquire	-14112
▁buttons	-14113
▁colitis	-14114
▁filters	-14115
▁lawyers	-14116
▁placing	-14117
▁rewards	-14118
▁Manufact	-14119
▁symmetry	-14120
▁thesaurus	-14121
▁consulting	-14122
▁pancreatitis	-14123
4%	-14124
EE	-14125
ng	-14126
udi	-14127
ambo	-14128
ardi	-14129
http	-14130
▁11:	-14131
▁bum	-14132
▁kat	-14133
Point	-14134
▁chef	-14135
▁cott	-14136
▁reef	-14137
▁tops	-14138
action	-14139
▁Cards	-14140
▁assass	-14141
▁behavi	-14142
▁losses	-14143
▁socket	-14144
▁compens	-14145
▁mothers	-14146
▁entities	-14147
▁mosquito	-14148
▁subtract	-14149
▁adventure	-14150
rer	-14151
▁CN	-14152
▁ii	-14153
▁30%	-14154
onomy	-14155
▁Liqu	-14156
▁Matt	-14157
▁calm	-14158
abling	-14159
▁Autom	-14160
▁Compl	-14161
▁Kevin	-14162
▁arenâ	-14163
▁locks	-14164
▁oscar	-14165
▁Insert	-14166
▁carpal	-14167
▁stairs	-14168
aneously	-14169
specific	-14170
▁Regular	-14171
▁anytime	-14172
▁ferment	-14173
▁trachea	-14174
▁clearing	-14175
▁impulses	-14176
▁seasonal	-14177
▁carbonate	-14178
▁equations	-14179
▁incidence	-14180
▁accurately	-14181
▁congenital	-14182
▁dealership	-14183
▁influences	-14184
▁anniversary	-14185
▁recognition	-14186
▁schizophrenia	-14187
urg	-14188
▁53	-14189
▁AF	-14190
5.00	-14191
ucas	-14192
▁HPV	-14193
▁YOU	-14194
ecess	-14195
ennel	-14196
iates	-14197
opter	-14198
▁Made	-14199
▁Mayo	-14200
▁Ross	-14201
▁leth	-14202
iaries	-14203
▁cardi	-14204
▁comic	-14205
▁hydra	-14206
▁pengu	-14207
▁troub	-14208
rectomy	-14209
▁propag	-14210
▁solely	-14211
atherine	-14212
rigation	-14213
▁Checker	-14214
▁liberal	-14215
▁shampoo	-14216
▁strains	-14217
▁Attorney	-14218
▁answered	-14219
▁geometry	-14220
▁Minecraft	-14221
▁blindness	-14222
▁comprised	-14223
▁flowering	-14224
▁malignant	-14225
▁considerably	-14226
MV	-14227
vc	-14228
▁nu	-14229
▁Ult	-14230
▁cin	-14231
▁eve	-14232
agues	-14233
andra	-14234
oting	-14235
▁Merc	-14236
▁suck	-14237
▁Davis	-14238
▁Leave	-14239
▁encry	-14240
▁panic	-14241
andinav	-14242
▁Austin	-14243
▁header	-14244
▁marble	-14245
▁motors	-14246
▁paypal	-14247
▁traded	-14248
▁weapon	-14249
▁careers	-14250
▁chewing	-14251
▁luggage	-14252
▁sheriff	-14253
▁suscept	-14254
▁currents	-14255
▁embedded	-14256
▁populous	-14257
▁portions	-14258
▁receiver	-14259
▁sampling	-14260
▁narrative	-14261
▁everywhere	-14262
▁Independence	-14263
9%	-14264
bt	-14265
cd	-14266
INE	-14267
)	-14268
▁Et	-14269
glig	-14270
▁Lot	-14271
▁ted	-14272
helle	-14273
▁1981	-14274
▁Insp	-14275
▁Very	-14276
▁cube	-14277
▁iris	-14278
▁Franc	-14279
▁Hindi	-14280
iciency	-14281
through	-14282
▁Chrome	-14283
▁Dental	-14284
▁Desert	-14285
▁commod	-14286
▁johnny	-14287
▁liquor	-14288
▁lubric	-14289
▁celsius	-14290
▁flashes	-14291
▁forearm	-14292
▁noodles	-14293
▁stopping	-14294
▁Emergency	-14295
▁directors	-14296
▁instances	-14297
▁impairment	-14298
▁destruction	-14299
▁vaccination	-14300
▁Construction	-14301
5)	-14302
PH	-14303
held	-14304
icap	-14305
ogan	-14306
oxin	-14307
rell	-14308
▁(18	-14309
▁sut	-14310
ambig	-14311
esome	-14312
rared	-14313
▁Sept	-14314
▁alve	-14315
▁brom	-14316
▁limb	-14317
▁whey	-14318
▁whis	-14319
ipated	-14320
▁Image	-14321
▁Write	-14322
▁drunk	-14323
▁pione	-14324
▁ruled	-14325
▁varic	-14326
▁Member	-14327
▁Puerto	-14328
▁Submit	-14329
▁edible	-14330
▁picked	-14331
▁shadow	-14332
▁Collins	-14333
▁portray	-14334
▁solvent	-14335
▁musician	-14336
▁stimulus	-14337
▁toxicity	-14338
▁connector	-14339
▁encounter	-14340
▁parasites	-14341
▁supervisor	-14342
▁stimulation	-14343
▁Organization	-14344
▁geographical	-14345
▁hypothalamus	-14346
▁Mediterranean	-14347
pox	-14348
▁GB	-14349
geon	-14350
ymph	-14351
▁3/4	-14352
▁Rew	-14353
▁kel	-14354
eling	-14355
found	-14356
icone	-14357
inkle	-14358
ocyte	-14359
▁True	-14360
▁abol	-14361
▁barn	-14362
▁flip	-14363
amines	-14364
onucle	-14365
teenth	-14366
▁Adult	-14367
▁Chrom	-14368
▁fired	-14369
▁grape	-14370
▁latex	-14371
▁palsy	-14372
culosis	-14373
intment	-14374
▁hydrox	-14375
▁Storage	-14376
▁analyze	-14377
▁antigen	-14378
▁bananas	-14379
▁cranial	-14380
▁labeled	-14381
▁renewed	-14382
▁spelled	-14383
▁Document	-14384
▁ancestry	-14385
▁cheapest	-14386
▁dramatic	-14387
▁outcomes	-14388
▁divisions	-14389
▁stretching	-14390
57	-14391
glo	-14392
Time	-14393
acet	-14394
aire	-14395
bons	-14396
chet	-14397
kish	-14398
ubin	-14399
▁(1.	-14400
▁(3)	-14401
▁Bio	-14402
▁aur	-14403
enton	-14404
illow	-14405
often	-14406
▁Iraq	-14407
▁Jobs	-14408
▁okay	-14409
▁owls	-14410
▁slot	-14411
▁urdu	-14412
ilical	-14413
ractor	-14414
▁Audio	-14415
▁Chest	-14416
▁Skype	-14417
▁condo	-14418
▁pater	-14419
▁quilt	-14420
erville	-14421
osphate	-14422
▁Advert	-14423
▁Compan	-14424
▁acknow	-14425
▁banned	-14426
▁fisher	-14427
▁taught	-14428
hetamine	-14429
▁fossils	-14430
▁monster	-14431
▁soldier	-14432
▁wellness	-14433
▁beverages	-14434
▁dividends	-14435
▁licensing	-14436
▁compromise	-14437
▁mechanisms	-14438
▁consistency	-14439
▁conversation	-14440
GO	-14441
ku	-14442
cho	-14443
oni	-14444
▁AV	-14445
▁ER	-14446
chat	-14447
ipro	-14448
lied	-14449
▁NEW	-14450
arine	-14451
block	-14452
ocrat	-14453
oving	-14454
▁Cort	-14455
▁Mart	-14456
▁Publ	-14457
▁tack	-14458
ompson	-14459
▁Purch	-14460
▁Speed	-14461
▁ovary	-14462
▁pants	-14463
▁stall	-14464
▁sting	-14465
▁Kidney	-14466
▁Muslim	-14467
▁racing	-14468
,000,000	-14469
▁adapter	-14470
▁handles	-14471
▁attempts	-14472
▁Directory	-14473
▁Nashville	-14474
▁applicant	-14475
▁Experience	-14476
.]	-14477
Le	-14478
sn	-14479
boy	-14480
lik	-14481
max	-14482
oop	-14483
only	-14484
rief	-14485
artan	-14486
iazep	-14487
ierra	-14488
world	-14489
▁Jess	-14490
▁Lady	-14491
▁chol	-14492
▁mike	-14493
▁visc	-14494
atosis	-14495
father	-14496
rinsic	-14497
▁2000.	-14498
▁Trail	-14499
▁Vista	-14500
▁patri	-14501
▁penis	-14502
▁venus	-14503
▁Content	-14504
▁arterial	-14505
▁informed	-14506
▁pressing	-14507
reditation	-14508
▁specializes	-14509
▁Af	-14510
▁LS	-14511
▁dw	-14512
▁ri	-14513
asal	-14514
osin	-14515
▁40%	-14516
▁Ple	-14517
enser	-14518
▁1998	-14519
▁phon	-14520
▁psor	-14521
▁seam	-14522
ardrum	-14523
irubin	-14524
master	-14525
orrhea	-14526
▁Titan	-14527
▁Gaelic	-14528
▁priced	-14529
▁dancing	-14530
▁heavily	-14531
▁trainer	-14532
▁attended	-14533
▁carriers	-14534
▁compiled	-14535
▁consolid	-14536
▁invasion	-14537
▁requests	-14538
especially	-14539
▁attending	-14540
▁oxycodone	-14541
▁untreated	-14542
▁Depression	-14543
▁Portuguese	-14544
▁facilitate	-14545
▁Temperature	-14546
▁contaminated	-14547
92	-14548
ele	-14549
lan	-14550
ilty	-14551
shot	-14552
▁170	-14553
▁Rod	-14554
▁1997	-14555
▁Bake	-14556
▁hemp	-14557
▁jess	-14558
▁stro	-14559
▁tsun	-14560
▁wean	-14561
carbon	-14562
icycle	-14563
rhosis	-14564
▁Acute	-14565
▁aneur	-14566
▁franc	-14567
▁toast	-14568
reement	-14569
▁Always	-14570
▁methyl	-14571
▁recall	-14572
▁smells	-14573
▁compete	-14574
▁playoff	-14575
▁radical	-14576
▁Familiar	-14577
▁converts	-14578
▁Northwest	-14579
▁belonging	-14580
▁partially	-14581
▁surprising	-14582
▁thoroughly	-14583
▁electronics	-14584
&#	-14585
93	-14586
94	-14587
MI	-14588
ni	-14589
dle	-14590
tys	-14591
▁ub	-14592
acer	-14593
elsh	-14594
▁8.1	-14595
▁hug	-14596
arter	-14597
entin	-14598
▁Bull	-14599
▁Rece	-14600
▁folk	-14601
▁tens	-14602
▁2007.	-14603
▁Upper	-14604
▁clubs	-14605
▁fibro	-14606
▁opera	-14607
▁reven	-14608
▁Budget	-14609
▁drying	-14610
idepress	-14611
▁declare	-14612
▁disturb	-14613
▁drafted	-14614
▁nominal	-14615
▁plantar	-14616
▁realize	-14617
▁sinuses	-14618
▁sirloin	-14619
▁thrones	-14620
ptococcus	-14621
▁Agricult	-14622
▁hamilton	-14623
▁tectonic	-14624
▁Character	-14625
▁benchmark	-14626
▁germinate	-14627
▁Additionally	-14628
▁confirmation	-14629
▁contractions	-14630
▁experimental	-14631
▁determination	-14632
96	-14633
ESS	-14634
eft	-14635
isl	-14636
vro	-14637
erce	-14638
olip	-14639
rait	-14640
vine	-14641
▁Alt	-14642
▁DUI	-14643
▁Hal	-14644
▁Lam	-14645
▁Obs	-14646
▁mun	-14647
anine	-14648
aying	-14649
icard	-14650
ighth	-14651
ilant	-14652
▁Bush	-14653
▁pert	-14654
▁Sheet	-14655
▁adopt	-14656
▁apnea	-14657
▁memor	-14658
▁noble	-14659
▁uncle	-14660
▁Daniel	-14661
▁litter	-14662
▁monroe	-14663
▁simmer	-14664
▁transm	-14665
▁Original	-14666
▁aquarium	-14667
▁crossing	-14668
▁presents	-14669
▁skeleton	-14670
▁dimension	-14671
▁logistics	-14672
▁parkinson	-14673
▁psoriasis	-14674
▁seasoning	-14675
▁adaptation	-14676
▁correction	-14677
▁reputation	-14678
▁conservative	-14679
▁intermediate	-14680
▁microorganisms	-14681
ido	-14682
sha	-14683
zel	-14684
▁IB	-14685
okes	-14686
umbs	-14687
vens	-14688
▁$35	-14689
▁Kin	-14690
being	-14691
hetti	-14692
liers	-14693
▁Rule	-14694
▁uric	-14695
brates	-14696
second	-14697
▁Colon	-14698
▁Parts	-14699
▁chose	-14700
▁energ	-14701
▁fleas	-14702
abetics	-14703
▁Poland	-14704
▁Sodium	-14705
▁arabic	-14706
▁bodily	-14707
▁pilots	-14708
▁potter	-14709
▁sponge	-14710
▁vendor	-14711
▁_______	-14712
▁aneurys	-14713
▁differs	-14714
▁mounted	-14715
reatening	-14716
▁shortest	-14717
▁maintains	-14718
▁mammogram	-14719
▁coordinates	-14720
▁homeostasis	-14721
NP	-14722
OH	-14723
pur	-14724
▁Lu	-14725
adol	-14726
arta	-14727
chem	-14728
olas	-14729
onom	-14730
▁$5,	-14731
▁Anne	-14732
▁cape	-14733
▁carl	-14734
▁rhin	-14735
heated	-14736
▁gloss	-14737
▁likes	-14738
▁query	-14739
▁clutch	-14740
▁hammer	-14741
▁masses	-14742
▁sunset	-14743
rections	-14744
▁Tuition	-14745
▁implies	-14746
▁january	-14747
▁sliding	-14748
▁veneers	-14749
▁permitted	-14750
▁vegetation	-14751
▁revolutionary	-14752
98	-14753
▁_	-14754
▁Ba	-14755
▁Rd	-14756
▁WW	-14757
alia	-14758
▁1.0	-14759
▁Jet	-14760
▁Mes	-14761
▁liv	-14762
ienna	-14763
osity	-14764
▁Blog	-14765
▁bern	-14766
▁mono	-14767
ergent	-14768
igator	-14769
▁Numer	-14770
▁Sugar	-14771
▁Wayne	-14772
▁careg	-14773
▁lyric	-14774
▁sewer	-14775
▁slave	-14776
▁spasm	-14777
intendo	-14778
▁Howard	-14779
osuction	-14780
▁comcast	-14781
▁corners	-14782
▁eardrum	-14783
▁insight	-14784
▁rounded	-14785
sometimes	-14786
▁Festival	-14787
▁exciting	-14788
▁formerly	-14789
▁fictional	-14790
▁instagram	-14791
▁veterinary	-14792
▁philippines	-14793
▁reconstruction	-14794
▁transformation	-14795
-14	-14796
amo	-14797
jac	-14798
ofl	-14799
oyd	-14800
▁(0	-14801
▁MN	-14802
▁hc	-14803
▁lg	-14804
bank	-14805
plex	-14806
▁16.	-14807
▁Jam	-14808
illas	-14809
▁Diam	-14810
▁Iran	-14811
▁Safe	-14812
payers	-14813
▁exams	-14814
▁retic	-14815
aghetti	-14816
odiazep	-14817
▁engage	-14818
▁loaded	-14819
▁python	-14820
▁Orlando	-14821
▁antonio	-14822
▁skilled	-14823
▁boarding	-14824
▁matching	-14825
▁temporal	-14826
▁celebrity	-14827
▁distances	-14828
▁migraines	-14829
▁schooling	-14830
▁Originally	-14831
▁legislature	-14832
▁miscarriage	-14833
▁territories	-14834
▁expectations	-14835
XX	-14836
hm	-14837
aux	-14838
oba	-14839
ozo	-14840
rea	-14841
sub	-14842
tec	-14843
▁rs	-14844
aret	-14845
inol	-14846
rays	-14847
▁15%	-14848
▁Abs	-14849
▁cha	-14850
asket	-14851
atson	-14852
ialis	-14853
ipple	-14854
▁Shel	-14855
▁bold	-14856
▁puff	-14857
strong	-14858
vrolet	-14859
▁Claim	-14860
▁Words	-14861
▁gifts	-14862
▁tanks	-14863
iflower	-14864
quality	-14865
▁Oracle	-14866
▁Player	-14867
▁brazil	-14868
▁roller	-14869
▁titled	-14870
employed	-14871
▁Edition	-14872
▁Profile	-14873
▁Studies	-14874
▁abraham	-14875
▁indoors	-14876
▁inmates	-14877
▁lightly	-14878
▁mustard	-14879
▁Normally	-14880
▁composer	-14881
▁counselor	-14882
▁partition	-14883
▁vertebral	-14884
ambiguation	-14885
▁Retirement	-14886
▁prokaryotic	-14887
▁____________	-14888
9)	-14889
rt	-14890
-25	-14891
dep	-14892
eye	-14893
ovo	-14894
rek	-14895
▁Ka	-14896
inds	-14897
orig	-14898
▁$7.	-14899
▁10:	-14900
▁Esc	-14901
▁jay	-14902
▁owl	-14903
aguar	-14904
chest	-14905
▁Maps	-14906
▁Sens	-14907
▁bart	-14908
▁fest	-14909
▁fist	-14910
▁iPod	-14911
entine	-14912
▁Plate	-14913
▁WebMD	-14914
▁emanc	-14915
▁vodka	-14916
largest	-14917
valence	-14918
▁buyers	-14919
▁funded	-14920
▁hunger	-14921
▁morgan	-14922
▁customs	-14923
▁spiders	-14924
▁tylenol	-14925
▁Catholic	-14926
▁biblical	-14927
▁commerce	-14928
▁dopamine	-14929
▁diaphragm	-14930
▁fertility	-14931
▁Collection	-14932
▁countertop	-14933
▁governance	-14934
▁vegetarian	-14935
▁consciousness	-14936
▁distinguished	-14937
52	-14938
har	-14939
▁ME	-14940
html	-14941
▁365	-14942
▁Sab	-14943
itone	-14944
▁Prec	-14945
▁Trip	-14946
▁dull	-14947
depend	-14948
rology	-14949
▁Roast	-14950
▁brace	-14951
▁glauc	-14952
▁mower	-14953
▁sends	-14954
service	-14955
▁Monroe	-14956
▁_____.	-14957
▁blades	-14958
ergarten	-14959
▁Changes	-14960
▁Privacy	-14961
▁Website	-14962
▁secrete	-14963
▁thicker	-14964
▁adhesive	-14965
▁boyfriend	-14966
▁percentile	-14967
▁participation	-14968
/.	-14969
51	-14970
odi	-14971
▁UC	-14972
When	-14973
aser	-14974
mile	-14975
▁18.	-14976
▁Pil	-14977
▁pec	-14978
▁thy	-14979
▁Hend	-14980
▁Tech	-14981
▁Virt	-14982
▁gamb	-14983
▁hart	-14984
▁lect	-14985
▁tent	-14986
ikings	-14987
orneys	-14988
umatic	-14989
▁beets	-14990
▁indig	-14991
▁login	-14992
▁soils	-14993
isement	-14994
keeping	-14995
▁builds	-14996
▁childâ	-14997
▁nuclei	-14998
▁sprint	-14999
neapolis	-15000
▁Typical	-15001
▁divides	-15002
▁profits	-15003
▁rainbow	-15004
▁distress	-15005
▁healthier	-15006
▁genetically	-15007
▁congressional	-15008
▁establishment	-15009
7)	-15010
▁6-	-15011
▁DR	-15012
▁Gi	-15013
▁Ig	-15014
▁ls	-15015
spot	-15016
▁Hub	-15017
▁Nit	-15018
▁cyp	-15019
▁nam	-15020
▁Bell	-15021
▁amen	-15022
▁canc	-15023
aceous	-15024
atomic	-15025
rative	-15026
▁Hindu	-15027
▁Pages	-15028
▁cisco	-15029
▁gains	-15030
▁kelly	-15031
▁peter	-15032
mingham	-15033
▁faucet	-15034
▁delayed	-15035
▁lobster	-15036
▁somatic	-15037
▁Official	-15038
▁champion	-15039
▁weighing	-15040
▁convicted	-15041
▁fireplace	-15042
▁selecting	-15043
▁twitching	-15044
▁renovation	-15045
▁vocabulary	-15046
▁Netherlands	-15047
▁diverticulitis	-15048
azi	-15049
obi	-15050
▁tb	-15051
irie	-15052
ycle	-15053
▁21.	-15054
▁900	-15055
▁jos	-15056
These	-15057
oidal	-15058
opian	-15059
white	-15060
▁Balt	-15061
▁Fees	-15062
▁Verm	-15063
▁chew	-15064
▁hapl	-15065
gender	-15066
ockets	-15067
▁Agent	-15068
▁Fever	-15069
▁Lewis	-15070
▁Panel	-15071
▁waist	-15072
borough	-15073
▁Action	-15074
▁Ancest	-15075
▁Harris	-15076
▁Treaty	-15077
▁evenly	-15078
▁juices	-15079
▁luther	-15080
▁tracks	-15081
▁zodiac	-15082
acterial	-15083
▁Finally	-15084
▁Request	-15085
▁auction	-15086
▁lengths	-15087
▁toronto	-15088
oglycemia	-15089
▁Register	-15090
▁retained	-15091
▁Alexander	-15092
▁behaviour	-15093
[...]
