[PAD]	0
[UNK]	0
[CLS]	0
[SEP]	0
[MASK]	0
▁the	-3.34397
.	-3.36133
,	-3.61903
▁is	-3.77569
▁of	-3.77588
▁a	-3.88975
s	-3.96189
▁to	-3.98775
▁in	-4.14588
▁what	-4.14964
▁and	-4.17736
▁for	-4.72007
▁how	-4.84525
▁are	-5.12489
▁you	-5.25333
-	-5.25901
▁on	-5.29014
▁	-5.33522
▁or	-5.34076
▁that	-5.44838
'	-5.4962
▁can	-5.49809
▁does	-5.49857
▁The	-5.51749
▁(	-5.5539
▁with	-5.58848
▁it	-5.64022
▁your	-5.64183
▁an	-5.69569
▁be	-5.70882
?	-5.70911
:	-5.72811
▁from	-5.73862
▁as	-5.75931
▁do	-5.77262
)	-5.83634
▁by	-5.84957
▁was	-5.95545
▁have	-6.0245
▁at	-6.05871
â	-6.07392
▁when	-6.07613
▁who	-6.16617
ing	-6.18545
▁which	-6.19922
▁1	-6.20969
t	-6.26786
▁where	-6.29225
▁long	-6.32132
▁cost	-6.35569
▁definition	-6.36462
▁2	-6.41539
▁many	-6.42503
▁A	-6.44192
▁not	-6.44366
▁will	-6.44665
▁much	-6.4744
ed	-6.48306
	-6.49155
▁this	-6.54663
▁average	-6.56929
▁one	-6.57756
▁has	-6.58273
▁I	-6.58719
▁â	-6.58874
d	-6.60706
▁name	-6.66242
▁used	-6.6802
▁more	-6.7113
▁number	-6.71589
▁3	-6.74747
▁time	-6.76755
;	-6.77675
▁most	-6.77726
▁did	-6.78758
/	-6.80721
▁use	-6.81284
▁In	-6.81662
▁get	-6.81777
▁all	-6.87159
▁up	-6.87923
▁if	-6.88405
▁may	-6.89006
▁other	-6.91928
▁about	-6.92996
e	-6.93999
▁also	-6.94237
).	-6.95437
▁mean	-6.96052
▁make	-6.9609
▁but	-6.96403
a	-6.96486
▁i	-6.96899
▁between	-6.98511
▁per	-6.99003
▁than	-7.01449
▁first	-7.01765
▁they	-7.02705
er	-7.0284
▁meaning	-7.02892
▁take	-7.03696
y	-7.03713
▁It	-7.03778
▁out	-7.0454
▁their	-7.06559
▁should	-7.09195
▁water	-7.11565
▁why	-7.11589
▁This	-7.11757
▁cause	-7.12393
▁my	-7.13332
▁blood	-7.14198
▁causes	-7.14731
▁into	-7.15756
▁year	-7.18551
n	-7.19005
ly	-7.19325
▁after	-7.19337
▁two	-7.20375
▁If	-7.21095
▁new	-7.2415
▁people	-7.24245
▁need	-7.24699
▁4	-7.25026
▁county	-7.26124
S	-7.27204
▁-	-7.28805
▁body	-7.29539
▁type	-7.30329
▁called	-7.30972
▁there	-7.32794
▁day	-7.3299
▁work	-7.35263
▁like	-7.36605
re	-7.369
▁its	-7.37387
▁system	-7.37659
▁over	-7.38257
▁some	-7.38897
m	-7.38992
▁years	-7.39035
o	-7.41736
▁we	-7.42662
▁so	-7.44011
▁any	-7.4439
r	-7.44525
▁5	-7.45461
▁age	-7.47652
▁You	-7.47738
▁were	-7.48814
▁only	-7.48817
▁state	-7.48958
▁symptoms	-7.48967
in	-7.52176
▁good	-7.52212
▁made	-7.5391
al	-7.54325
▁his	-7.54597
▁price	-7.552
▁been	-7.56313
or	-7.56371
▁such	-7.57736
),	-7.585
▁temperature	-7.5928
▁no	-7.60464
▁For	-7.61076
i	-7.62653
▁would	-7.62731
▁home	-7.64685
▁salary	-7.64819
▁part	-7.65335
g	-7.65537
▁our	-7.65589
c	-7.65934
▁define	-7.66287
▁types	-7.66901
▁before	-7.6723
▁through	-7.6775
▁common	-7.68017
▁different	-7.68126
▁food	-7.68326
es	-7.69144
▁tax	-7.69414
▁world	-7.69652
▁weather	-7.69737
▁pain	-7.70295
▁best	-7.7041
	-7.70596
▁located	-7.70631
▁10	-7.7203
▁last	-7.72269
▁help	-7.72338
▁pay	-7.73049
▁each	-7.73811
th	-7.73985
▁during	-7.74409
▁go	-7.74473
▁test	-7.74569
▁he	-7.74595
▁information	-7.75209
▁find	-7.75976
▁form	-7.76534
▁disease	-7.77373
▁back	-7.77478
▁days	-7.77821
▁these	-7.78185
▁then	-7.79718
▁person	-7.79777
▁difference	-7.80106
▁just	-7.80847
▁hours	-7.81224
▁known	-7.81409
▁them	-7.81961
▁car	-7.82425
	-7.82602
▁often	-7.84033
▁County	-7.84034
▁found	-7.84124
▁phone	-7.84181
▁same	-7.84217
▁see	-7.84392
▁S	-7.84586
▁area	-7.84734
▁cells	-7.84886
▁well	-7.84901
▁C	-7.85104
▁us	-7.85508
▁old	-7.85612
▁high	-7.85885
	-7.85907
▁health	-7.87446
▁rate	-7.8765
▁6	-7.88568
▁way	-7.89084
!	-7.89583
▁To	-7.89802
▁change	-7.90268
▁population	-7.9049
▁under	-7.91176
▁U	-7.91651
▁city	-7.92024
▁side	-7.92271
▁skin	-7.92944
▁B	-7.93134
C	-7.93482
▁life	-7.93993
▁start	-7.94168
▁service	-7.9465
▁process	-7.95244
▁medical	-7.95728
▁United	-7.9659
▁three	-7.96664
▁&	-7.96941
▁heart	-7.96943
▁term	-7.97214
▁come	-7.97411
▁very	-7.97624
▁around	-7.97846
▁size	-7.98439
▁had	-7.98508
▁using	-7.99748
▁right	-7.99797
▁down	-7.99889
▁include	-7.99928
▁usually	-7.99978
▁example	-8.00195
▁cell	-8.00238
▁calories	-8.01391
▁There	-8.01408
▁word	-8.0143
Â	-8.02968
f	-8.03045
▁New	-8.03764
▁States	-8.03765
	-8.04603
▁means	-8.04652
▁kind	-8.05496
▁must	-8.0568
▁weight	-8.05898
▁small	-8.06247
▁because	-8.0658
▁oil	-8.0672
▁off	-8.0719
▁set	-8.073
▁code	-8.07635
▁her	-8.07681
▁important	-8.07725
▁eat	-8.08056
p	-8.08278
on	-8.08314
▁range	-8.08868
▁care	-8.09139
▁data	-8.09899
ic	-8.10096
▁When	-8.10216
▁amount	-8.10406
▁want	-8.10561
A	-8.10633
k	-8.10711
▁while	-8.11068
▁color	-8.11614
▁business	-8.11773
com	-8.11847
▁place	-8.12051
▁company	-8.12205
▁both	-8.12473
▁period	-8.12717
ll	-8.12935
▁live	-8.12955
▁level	-8.13272
1	-8.13374
▁following	-8.13432
2	-8.13776
▁become	-8.14301
▁We	-8.15051
▁What	-8.15922
▁credit	-8.1603
▁7	-8.1686
F	-8.1708
▁air	-8.1719
ers	-8.17325
x	-8.17403
▁energy	-8.17499
▁know	-8.18222
▁including	-8.19062
l	-8.19656
▁being	-8.19886
▁8	-8.19934
▁without	-8.19941
▁normal	-8.20287
▁free	-8.20781
▁effects	-8.21049
▁F	-8.22144
▁benefits	-8.22414
▁E	-8.22851
▁How	-8.22904
▁low	-8.23058
ve	-8.23565
▁family	-8.23944
▁function	-8.24338
▁file	-8.24518
▁pressure	-8.24817
▁show	-8.25139
▁school	-8.25167
▁Â	-8.25245
he	-8.25358
▁account	-8.2556
▁another	-8.25607
▁foods	-8.25713
▁large	-8.26023
▁baby	-8.26345
b	-8.2642
▁child	-8.26895
▁list	-8.26959
▁within	-8.27251
h	-8.2742
▁group	-8.27736
▁money	-8.27774
us	-8.27817
▁insurance	-8.27893
▁me	-8.28055
▁D	-8.28191
▁open	-8.28345
▁top	-8.29091
▁muscle	-8.29212
4	-8.2953
to	-8.29712
▁less	-8.29739
▁now	-8.29912
▁even	-8.30024
▁An	-8.30412
▁miles	-8.30498
▁largest	-8.30749
▁non	-8.30797
▁minutes	-8.30897
▁based	-8.31086
▁American	-8.31426
▁month	-8.31828
▁check	-8.31995
▁'	-8.32189
▁keep	-8.32308
▁light	-8.32546
▁below	-8.3291
▁As	-8.33089
▁e	-8.3333
▁total	-8.3357
▁gas	-8.33626
▁P	-8.34052
▁end	-8.34389
▁re	-8.34514
▁income	-8.34532
▁considered	-8.34622
▁full	-8.35073
▁white	-8.35075
▁house	-8.35395
▁c	-8.35461
▁every	-8.35489
3	-8.35824
▁could	-8.36153
▁power	-8.36185
an	-8.36215
▁human	-8.36619
▁T	-8.36657
▁date	-8.36848
▁treatment	-8.37372
▁percent	-8.37472
▁order	-8.3758
▁available	-8.38695
▁computer	-8.38785
man	-8.39017
▁far	-8.39326
▁card	-8.39661
▁20	-8.39845
▁states	-8.39936
▁square	-8.39993
▁feet	-8.41228
▁They	-8.41356
▁those	-8.4177
▁cook	-8.42469
▁law	-8.4262
▁women	-8.42705
▁cancer	-8.42931
▁plant	-8.43381
▁sugar	-8.44031
▁current	-8.44271
▁brain	-8.44777
▁own	-8.45005
the	-8.4508
(	-8.45486
▁point	-8.45686
▁makes	-8.45756
▁play	-8.45832
▁caused	-8.45913
▁M	-8.46079
able	-8.46266
▁He	-8.46375
▁lower	-8.46546
▁protein	-8.46658
D	-8.46795
▁until	-8.46934
▁give	-8.47131
▁don	-8.47307
▁children	-8.47698
▁four	-8.47721
▁government	-8.47754
▁program	-8.47781
B	-8.47831
▁main	-8.48413
▁English	-8.49096
▁degree	-8.49213
▁de	-8.4976
▁value	-8.49909
▁look	-8.50164
en	-8.50358
▁she	-8.50919
▁black	-8.51062
▁12	-8.51484
▁put	-8.51777
▁born	-8.51868
▁/	-8.51878
°	-8.52054
▁great	-8.5224
▁15	-8.52285
▁foot	-8.52744
▁job	-8.52794
▁provide	-8.53101
▁control	-8.53436
▁These	-8.53439
▁infection	-8.53655
▁add	-8.53921
▁b	-8.53953
▁d	-8.54189
▁still	-8.54374
▁un	-8.54448
▁real	-8.54473
▁eye	-8.54521
▁due	-8.54532
is	-8.54603
▁hair	-8.54759
▁affect	-8.5514
▁language	-8.55267
▁second	-8.55303
...	-8.55438
▁dog	-8.55786
▁social	-8.56129
▁All	-8.56342
▁standard	-8.56459
▁few	-8.56533
▁services	-8.56607
▁months	-8.5677
▁hour	-8.57558
▁man	-8.57629
▁18	-8.57765
▁Your	-8.57773
▁here	-8.57897
▁required	-8.57908
▁plan	-8.58166
ton	-8.58268
▁red	-8.58403
▁major	-8.58477
▁grow	-8.58659
▁early	-8.59114
▁doctor	-8.59155
▁run	-8.59493
T	-8.59583
▁costs	-8.59817
▁30	-8.60008
▁game	-8.60244
▁left	-8.60302
▁heat	-8.60393
▁times	-8.60782
▁support	-8.60809
▁single	-8.61058
▁page	-8.6138
¦	-8.61926
▁property	-8.6217
P	-8.62401
▁someone	-8.62427
▁general	-8.63353
▁occur	-8.63653
▁But	-8.64107
▁On	-8.64311
▁levels	-8.64324
▁too	-8.6449
▁case	-8.65046
▁R	-8.65091
▁p	-8.6526
▁line	-8.65359
▁little	-8.65514
▁week	-8.6554
▁worth	-8.65854
▁click	-8.66103
▁big	-8.66116
▁call	-8.66661
▁9	-8.66882
▁history	-8.66886
▁fat	-8.66907
▁above	-8.67178
▁=	-8.67334
▁weeks	-8.67334
▁s	-8.6738
▁head	-8.67448
▁distance	-8.67664
▁result	-8.6767
▁least	-8.67944
▁x	-8.67959
▁given	-8.67994
▁chicken	-8.68135
▁specific	-8.68597
▁natural	-8.68604
▁City	-8.68632
▁W	-8.68781
▁might	-8.69261
▁diet	-8.69268
▁increase	-8.69362
▁experience	-8.6938
▁Some	-8.69837
▁million	-8.69978
▁several	-8.69999
▁plants	-8.70162
▁K	-8.70203
▁highest	-8.7022
▁public	-8.70239
w	-8.70362
u	-8.70404
▁contact	-8.70585
L	-8.709
v	-8.70911
▁m	-8.70912
▁words	-8.71002
▁war	-8.71068
▁effect	-8.71434
▁charge	-8.71477
▁products	-8.71564
▁remove	-8.71633
▁hot	-8.71812
▁loss	-8.71897
▁stand	-8.72124
▁cold	-8.72145
▁something	-8.72286
▁condition	-8.72367
▁popular	-8.72584
▁ca	-8.72864
▁local	-8.72918
▁|	-8.73031
The	-8.73179
▁season	-8.73218
▁[	-8.73276
▁Most	-8.73388
▁O	-8.73804
▁song	-8.74012
▁However	-8.74022
▁say	-8.74248
▁pre	-8.74277
▁online	-8.74377
▁create	-8.74438
▁product	-8.7452
▁:	-8.7471
▁paid	-8.75005
K	-8.75378
▁office	-8.75385
▁men	-8.75489
▁...	-8.75657
▁stay	-8.75662
▁H	-8.75665
le	-8.75827
▁G	-8.76129
▁unit	-8.7632
▁fee	-8.76647
▁conditions	-8.76881
▁death	-8.77022
▁tissue	-8.7703
▁act	-8.77296
▁higher	-8.77324
▁--	-8.77468
▁t	-8.77727
N	-8.77831
▁One	-8.77838
G	-8.77915
▁So	-8.77954
▁president	-8.78016
▁said	-8.78152
▁hard	-8.78241
▁surface	-8.78309
▁things	-8.78335
▁L	-8.78404
▁better	-8.78659
▁federal	-8.78695
▁problems	-8.78742
▁1.	-8.78789
▁since	-8.78848
▁location	-8.78871
▁needed	-8.78876
▁fast	-8.789
▁surgery	-8.78988
na	-8.79123
▁today	-8.79315
▁minimum	-8.79331
▁bank	-8.79446
▁purpose	-8.7964
▁dry	-8.79743
E	-8.79835
▁State	-8.7988
▁pregnancy	-8.79902
▁chemical	-8.79967
▁short	-8.79971
ion	-8.8013
▁college	-8.80172
▁treat	-8.80564
▁country	-8.80573
▁next	-8.80668
▁land	-8.80717
M	-8.80872
▁g	-8.81361
▁legal	-8.81546
▁security	-8.81618
▁hand	-8.81944
▁either	-8.81952
▁address	-8.82218
▁co	-8.82373
▁liver	-8.82421
▁market	-8.82641
▁court	-8.82676
H	-8.82715
▁n	-8.82743
▁movie	-8.82744
▁away	-8.82815
W	-8.82958
as	-8.8299
▁possible	-8.83143
▁space	-8.83218
▁license	-8.83797
▁happens	-8.83917
▁green	-8.83955
▁eggs	-8.8398
▁net	-8.84183
▁report	-8.84349
and	-8.84722
▁living	-8.84812
▁related	-8.84902
▁species	-8.85163
▁risk	-8.85203
]	-8.8537
▁role	-8.85601
ity	-8.8577
▁together	-8.85774
▁bad	-8.85914
▁oven	-8.86001
▁center	-8.86045
▁having	-8.86123
▁half	-8.86155
▁five	-8.86234
st	-8.86234
▁study	-8.86301
▁physical	-8.86313
▁certain	-8.86331
▁move	-8.86408
▁earth	-8.86472
▁research	-8.86524
it	-8.86593
▁buy	-8.8663
▁sales	-8.86715
ation	-8.86756
▁site	-8.86894
ie	-8.87175
▁always	-8.87195
▁turn	-8.87247
▁class	-8.87309
▁length	-8.87433
▁muscles	-8.87459
▁making	-8.87476
▁return	-8.87584
▁music	-8.87586
▁North	-8.87641
▁annual	-8.87773
▁Re	-8.88045
▁And	-8.88053
▁US	-8.8813
el	-8.88202
▁stomach	-8.88344
▁urine	-8.88347
I	-8.88361
z	-8.88534
Ã	-8.88574
▁speed	-8.8878
▁sure	-8.89018
▁daily	-8.89031
▁created	-8.89332
▁contain	-8.89432
▁100	-8.89819
ia	-8.90216
▁post	-8.90529
▁stock	-8.9056
▁acid	-8.91249
▁key	-8.91392
ar	-8.91414
▁With	-8.91421
▁results	-8.91474
▁medication	-8.91521
▁team	-8.9153
▁milk	-8.91771
co	-8.91831
up	-8.91853
▁2015	-8.91898
▁cut	-8.91913
▁building	-8.91986
▁network	-8.92387
▁degrees	-8.92511
▁customer	-8.92634
▁terms	-8.92723
▁2016	-8.92762
▁produce	-8.92793
▁stop	-8.92889
▁am	-8.92972
▁lot	-8.92979
▁night	-8.93078
▁growth	-8.93465
▁primary	-8.93492
▁near	-8.93746
▁really	-8.93892
▁book	-8.93906
▁sign	-8.94268
▁drive	-8.94408
▁education	-8.94466
▁typically	-8.94813
▁along	-8.94816
R	-8.94883
▁against	-8.94914
▁rock	-8.94988
▁dogs	-8.95014
▁alcohol	-8.95173
▁video	-8.95237
▁able	-8.95254
▁source	-8.95286
▁think	-8.95313
▁Windows	-8.95416
te	-8.95502
▁room	-8.95629
▁field	-8.95661
▁fluid	-8.95723
▁taxes	-8.95798
▁nerve	-8.95843
▁done	-8.95934
ine	-8.95954
▁series	-8.95968
▁tree	-8.96015
▁blue	-8.96042
▁complete	-8.96111
▁parts	-8.96124
▁device	-8.9615
▁At	-8.96157
▁structure	-8.96181
▁comes	-8.96347
▁changes	-8.96545
▁America	-8.96557
▁management	-8.96574
▁fish	-8.96668
ville	-8.96679
▁windows	-8.96731
▁N	-8.96763
▁numbers	-8.96782
▁bacteria	-8.9691
▁material	-8.96912
▁associated	-8.96929
▁50	-8.97009
▁die	-8.97028
ism	-8.9712
▁easy	-8.97381
▁american	-8.97423
▁contains	-8.97595
▁problem	-8.97629
ist	-8.97643
▁project	-8.97663
▁patients	-8.97761
▁apply	-8.97872
▁16	-8.97899
▁lead	-8.97948
▁Do	-8.97992
▁oxygen	-8.98029
▁interest	-8.98152
ry	-8.98294
▁needs	-8.98313
▁meat	-8.98542
▁safe	-8.98671
ch	-8.98736
▁feel	-8.98769
▁students	-8.9887
▁access	-8.98898
▁development	-8.98913
▁commonly	-8.99031
▁fire	-8.99095
▁inside	-8.99151
▁going	-8.99453
V	-8.99504
▁York	-8.99593
▁install	-9.00046
▁according	-9.00257
▁record	-9.00283
▁drug	-9.00532
▁receive	-9.00612
▁inches	-9.00805
▁V	-9.00844
▁No	-9.00958
▁ever	-9.01452
▁provides	-9.01514
▁cases	-9.01592
▁simple	-9.01649
▁basic	-9.01686
▁measure	-9.01693
land	-9.01827
▁damage	-9.01855
▁similar	-9.01906
▁u	-9.02039
▁table	-9.02109
ian	-9.02199
▁areas	-9.02213
▁website	-9.02412
▁leave	-9.02435
▁training	-9.02462
▁base	-9.02544
▁mouth	-9.02555
▁individual	-9.02687
▁That	-9.02916
▁By	-9.02969
▁pa	-9.0298
▁present	-9.03033
·	-9.03082
▁close	-9.03327
▁disorder	-9.03328
▁text	-9.03334
▁generally	-9.03512
▁quality	-9.03536
▁build	-9.03624
▁loan	-9.03802
5	-9.03987
▁vitamin	-9.04007
ment	-9.04137
▁maximum	-9.04228
▁search	-9.04228
▁South	-9.04244
¢	-9.04262
▁includes	-9.04263
ur	-9.04297
▁box	-9.04407
▁f	-9.04451
▁birth	-9.04473
▁score	-9.04541
▁airport	-9.04749
ness	-9.04786
▁region	-9.0486
▁limit	-9.04953
	-9.05117
▁patient	-9.05154
▁application	-9.05173
▁course	-9.05479
▁healthy	-9.05553
▁vehicle	-9.05573
▁forms	-9.05586
▁Here	-9.05657
▁cover	-9.05722
▁occurs	-9.05769
▁texas	-9.05835
am	-9.06115
▁requirements	-9.06764
▁university	-9.06829
▁k	-9.06847
▁once	-9.06908
▁screen	-9.06987
▁14	-9.07123
▁sleep	-9.07152
est	-9.07426
▁eyes	-9.07431
▁Click	-9.07471
▁north	-9.07672
▁St	-9.07917
▁records	-9.07921
▁helps	-9.07995
▁11	-9.08035
▁teeth	-9.08103
▁love	-9.08202
▁sea	-9.08217
▁sometimes	-9.08228
▁wall	-9.08242
▁names	-9.08612
▁carbon	-9.088
▁south	-9.09024
▁National	-9.09089
ro	-9.09307
▁ways	-9.09362
®	-9.09389
_	-9.09555
▁produced	-9.09562
um	-9.09574
▁enough	-9.09579
ra	-9.09851
▁animals	-9.09855
nâ	-9.09886
▁tell	-9.10027
▁defined	-9.10047
▁2010	-9.10083
▁California	-9.10093
▁florida	-9.10093
▁taking	-9.10101
▁cat	-9.10141
▁My	-9.10277
▁working	-9.10359
▁paper	-9.10538
ive	-9.10599
▁software	-9.10723
▁travel	-9.10737
▁store	-9.10824
▁design	-9.11112
▁egg	-9.11143
▁origin	-9.11215
▁ground	-9.11215
▁star	-9.11335
▁0	-9.11381
▁won	-9.11387
▁+	-9.11501
▁special	-9.11509
▁likely	-9.11561
▁determine	-9.11618
▁World	-9.11854
time	-9.11952
▁financial	-9.11957
▁bar	-9.12056
▁movement	-9.12189
▁factors	-9.12399
▁May	-9.12413
▁ear	-9.12423
▁especially	-9.12599
▁Use	-9.12655
▁depending	-9.12791
▁mass	-9.12799
▁engine	-9.12844
	-9.1286
▁From	-9.13109
▁takes	-9.13127
son	-9.13262
▁variety	-9.13277
▁kidney	-9.13365
▁drink	-9.13369
ne	-9.13522
▁email	-9.13573
▁See	-9.13599
▁After	-9.13793
▁v	-9.138
▁method	-9.13826
▁25	-9.13845
▁members	-9.13848
▁17	-9.14015
▁face	-9.14138
▁cycle	-9.14192
rs	-9.14232
▁contract	-9.14288
▁whole	-9.14291
▁offer	-9.14332
▁drugs	-9.14371
▁view	-9.14407
▁original	-9.14448
▁across	-9.14489
▁schedule	-9.14499
▁etc	-9.14566
▁position	-9.14679
▁various	-9.14734
▁played	-9.1488
▁flow	-9.15037
▁thing	-9.15051
▁bone	-9.15118
▁percentage	-9.1522
il	-9.15223
▁community	-9.15237
▁begin	-9.15269
id	-9.15323
▁cast	-9.15371
▁prices	-9.15411
▁outside	-9.15479
▁payment	-9.15528
▁points	-9.15538
▁uses	-9.15637
▁force	-9.15679
▁height	-9.15684
▁island	-9.15711
▁salt	-9.15866
▁40	-9.15904
▁animal	-9.16043
▁select	-9.16121
ta	-9.16148
▁2.	-9.16192
▁production	-9.16199
▁iron	-9.16225
▁policy	-9.1633
age	-9.16479
▁six	-9.16884
▁model	-9.17062
▁shows	-9.17131
▁systems	-9.17197
▁liquid	-9.17202
▁require	-9.17373
▁24	-9.17397
et	-9.17447
▁cup	-9.17455
▁works	-9.17488
▁personal	-9.17519
▁wide	-9.17535
▁woman	-9.17613
▁longer	-9.17715
▁hold	-9.17752
▁front	-9.17989
▁Definition	-9.18016
▁clean	-9.18248
▁st	-9.18353
▁california	-9.18551
ma	-9.18643
▁tall	-9.18643
▁o	-9.18829
▁effective	-9.18924
▁cannot	-9.18968
▁diseases	-9.18991
▁syndrome	-9.18994
▁released	-9.18994
▁transfer	-9.19427
▁claim	-9.19448
▁learn	-9.19474
▁him	-9.1954
▁late	-9.19721
▁mg	-9.19779
▁soil	-9.19876
▁actually	-9.19962
▁direct	-9.19964
▁professional	-9.20012
▁fees	-9.20154
▁national	-9.20166
▁estate	-9.20221
▁science	-9.20245
▁formed	-9.205
▁rates	-9.20603
▁University	-9.20664
▁sound	-9.20986
▁wage	-9.21278
▁rights	-9.21386
▁reduce	-9.2141
line	-9.21536
▁built	-9.21543
▁written	-9.21552
▁never	-9.21572
ate	-9.2165
▁answer	-9.21666
▁typical	-9.21822
▁fall	-9.21834
▁died	-9.21941
▁medicine	-9.22183
▁zone	-9.22261
ling	-9.22329
▁addition	-9.22453
▁While	-9.22492
la	-9.22525
▁industry	-9.22604
▁prevent	-9.22617
▁action	-9.22789
▁active	-9.22851
O	-9.23074
▁however	-9.23077
ol	-9.23097
os	-9.23269
▁button	-9.23395
▁later	-9.2344
▁DNA	-9.23562
▁13	-9.23794
▁ago	-9.23843
▁sub	-9.23855
▁employees	-9.23901
▁fact	-9.24153
▁getting	-9.24161
▁tea	-9.24221
▁town	-9.24247
▁grams	-9.24675
ley	-9.24747
ies	-9.24758
▁true	-9.25068
▁countries	-9.25146
▁upper	-9.25475
ty	-9.25542
▁files	-9.25567
▁Find	-9.25605
▁summer	-9.25705
▁past	-9.25849
▁named	-9.25896
▁others	-9.26212
▁mi	-9.26327
▁says	-9.26353
▁taken	-9.26361
▁exercise	-9.26371
▁approximately	-9.26372
▁employee	-9.26401
▁quizlet	-9.2679
▁battery	-9.26792
▁therapy	-9.26918
▁pork	-9.26919
▁female	-9.26921
▁central	-9.26947
▁middle	-9.27092
▁earn	-9.27137
ant	-9.27287
▁excel	-9.27296
▁share	-9.27537
▁vary	-9.27835
▁pass	-9.27941
▁river	-9.28179
▁among	-9.28195
▁hospital	-9.28266
▁whether	-9.28292
▁wear	-9.28359
▁responsible	-9.28366
▁version	-9.28386
▁equal	-9.28431
▁bill	-9.28508
▁read	-9.28728
▁eating	-9.28737
▁third	-9.28778
▁TV	-9.28843
+	-9.28856
▁military	-9.28943
▁routing	-9.28987
▁Office	-9.29107
▁activity	-9.29283
U	-9.29459
▁kids	-9.29466
▁hormone	-9.29593
▁film	-9.29594
▁Texas	-9.2962
▁replace	-9.29647
▁pro	-9.29662
▁companies	-9.29702
▁pan	-9.29782
▁calculate	-9.30019
▁reaction	-9.30058
▁self	-9.3014
6	-9.30192
▁theory	-9.30196
▁sex	-9.30234
▁write	-9.30246
▁injury	-9.30513
▁roast	-9.30621
▁step	-9.30623
▁Best	-9.30624
▁character	-9.30909
▁fl	-9.30912
▁player	-9.30964
▁deep	-9.31037
▁Home	-9.31075
▁benefit	-9.31118
▁la	-9.31131
▁biggest	-9.31195
▁vs	-9.31274
▁brown	-9.31313
▁dna	-9.31408
▁app	-9.3145
▁enter	-9.31614
▁Center	-9.31683
▁necessary	-9.31696
▁web	-9.31767
▁60	-9.31826
▁Many	-9.31943
▁elements	-9.32044
▁section	-9.32056
▁leg	-9.32085
▁l	-9.32091
▁release	-9.32097
▁clear	-9.32146
▁Time	-9.32151
▁signs	-9.32293
▁male	-9.32318
▁colors	-9.32511
▁document	-9.3253
▁bottom	-9.32627
year	-9.32629
▁environment	-9.32823
▁J	-9.32964
▁July	-9.33023
▁park	-9.33269
at	-9.33359
▁ny	-9.33447
▁though	-9.33568
tic	-9.33628
▁student	-9.33745
▁volume	-9.33746
▁send	-9.33773
j	-9.33799
▁Our	-9.33822
▁ice	-9.33841
▁taste	-9.33884
▁convert	-9.33908
▁develop	-9.33984
▁metal	-9.34003
▁directly	-9.34237
▁again	-9.34286
▁sun	-9.34319
▁X	-9.34344
▁April	-9.34463
▁va	-9.3468
▁concrete	-9.3481
▁appear	-9.3491
▁severe	-9.34986
▁wood	-9.35071
▁united	-9.35082
less	-9.35152
▁neck	-9.35224
▁adults	-9.35434
▁save	-9.35455
▁paint	-9.3551
▁fiber	-9.3554
▁humans	-9.35555
▁married	-9.35615
▁According	-9.35636
▁try	-9.35684
▁layer	-9.35699
▁choose	-9.35711
▁Health	-9.35749
▁Answer	-9.35881
▁regular	-9.35883
▁content	-9.35981
de	-9.35984
▁functions	-9.36059
▁She	-9.36158
▁First	-9.36255
▁stress	-9.36289
▁lake	-9.36331
▁labor	-9.36568
▁r	-9.36652
▁San	-9.36701
▁2014	-9.36805
▁brand	-9.36942
://	-9.36961
ter	-9.36982
▁medium	-9.37021
▁let	-9.37024
▁materials	-9.37076
▁lose	-9.37096
0	-9.37178
▁ga	-9.37242
▁technology	-9.37405
ca	-9.37512
▁allow	-9.3752
▁organization	-9.37577
▁thyroid	-9.3771
▁tests	-9.37756
▁adult	-9.37829
▁question	-9.37831
▁nurse	-9.37912
▁cities	-9.37938
▁km	-9.38113
mo	-9.38245
▁party	-9.38261
▁Service	-9.38679
▁mo	-9.38748
▁letter	-9.38797
▁chest	-9.38802
▁More	-9.38854
▁January	-9.38874
▁al	-9.38914
▁article	-9.38919
▁additional	-9.39222
&	-9.39308
▁flight	-9.39328
▁plays	-9.39378
one	-9.39381
▁serious	-9.39471
▁wrote	-9.39496
▁joint	-9.3952
day	-9.39534
▁median	-9.39568
▁Other	-9.39583
▁floor	-9.39788
▁procedure	-9.39825
▁root	-9.39837
▁soon	-9.39892
▁balance	-9.40079
wood	-9.40097
▁allows	-9.40158
lo	-9.4017
▁art	-9.40207
▁commercial	-9.40229
▁glucose	-9.4026
▁refers	-9.40269
▁beef	-9.40308
▁particular	-9.40372
▁visit	-9.40377
▁seen	-9.40385
▁civil	-9.40399
▁temp	-9.40518
▁got	-9.40931
▁famous	-9.41064
▁style	-9.41097
▁zip	-9.41113
▁almost	-9.41144
▁title	-9.41216
▁started	-9.41304
▁yellow	-9.41361
▁member	-9.41397
Y	-9.41422
▁starting	-9.41585
per	-9.41642
▁infections	-9.41668
▁double	-9.41723
▁French	-9.41729
▁break	-9.41768
▁War	-9.41849
▁diabetes	-9.41913
▁pounds	-9.41924
▁format	-9.42019
▁features	-9.42081
▁smell	-9.42177
▁matter	-9.42413
▁formula	-9.42492
▁essential	-9.42551
▁event	-9.42762
▁seat	-9.42808
▁became	-9.42867
▁describe	-9.42875
▁Canada	-9.42882
▁lines	-9.4289
▁international	-9.43048
▁rest	-9.43141
▁burn	-9.43254
▁story	-9.43268
▁solar	-9.43301
▁driver	-9.43311
▁throughout	-9.43316
▁private	-9.43366
▁multiple	-9.43402
▁young	-9.43433
▁driving	-9.43484
▁ma	-9.43576
▁tv	-9.43589
▁designed	-9.43589
▁positive	-9.43605
▁March	-9.43782
▁$1	-9.43847
▁object	-9.43897
▁strong	-9.43972
▁window	-9.44062
▁monthly	-9.44228
▁manager	-9.44353
▁dose	-9.4448
▁statement	-9.44538
▁looking	-9.44547
▁solution	-9.44557
ized	-9.44648
▁offers	-9.44741
▁De	-9.44803
12	-9.44885
▁option	-9.44931
▁wedding	-9.4494
▁practice	-9.44996
▁provided	-9.45009
▁map	-9.45146
▁pound	-9.45314
▁machine	-9.45378
▁writing	-9.45393
▁programs	-9.45442
▁subject	-9.45618
▁questions	-9.4568
▁West	-9.4572
▁status	-9.45724
▁trees	-9.45783
▁beach	-9.4581
▁Earth	-9.45992
▁ability	-9.46006
▁examples	-9.46055
X	-9.46149
▁August	-9.46311
▁sale	-9.46393
▁glass	-9.46627
▁carry	-9.46641
▁doesn	-9.46695
▁fever	-9.46785
▁mind	-9.46801
▁running	-9.46808
▁cash	-9.46979
▁repair	-9.46987
▁Florida	-9.47
▁invented	-9.4707
no	-9.47174
▁June	-9.47223
▁motor	-9.47255
▁Go	-9.47473
▁listed	-9.47515
ir	-9.476
▁$	-9.47613
▁Add	-9.47646
▁steps	-9.47709
▁Get	-9.47721
▁element	-9.47814
▁genetic	-9.47861
▁fresh	-9.47867
▁temperatures	-9.47868
▁extra	-9.48082
▁band	-9.48157
▁climate	-9.48238
▁electric	-9.48368
▁Dr	-9.48463
▁h	-9.48513
ous	-9.48675
▁Of	-9.4872
▁ratio	-9.4876
▁purchase	-9.48768
▁link	-9.48783
▁items	-9.48792
▁referred	-9.48835
▁knee	-9.48883
do	-9.48896
▁response	-9.4895
ul	-9.49164
▁laws	-9.49193
▁already	-9.49257
▁Department	-9.49312
▁covered	-9.49347
ary	-9.49487
▁included	-9.49521
▁President	-9.49529
▁passport	-9.49538
▁legs	-9.49611
▁reason	-9.49637
▁*	-9.49673
▁units	-9.49729
▁century	-9.49802
▁added	-9.49816
▁cream	-9.49842
▁girl	-9.49886
▁heal	-9.49907
▁cheese	-9.49914
▁increased	-9.50046
of	-9.50165
▁simply	-9.50244
▁copy	-9.50284
ce	-9.50343
▁gland	-9.50452
▁dark	-9.50496
ri	-9.50501
▁warm	-9.50549
▁marijuana	-9.50575
▁leaves	-9.50596
▁symbol	-9.50627
▁goes	-9.50628
ent	-9.50693
da	-9.50747
9	-9.50749
▁Act	-9.50771
▁spring	-9.50795
me	-9.50841
▁door	-9.50885
▁idea	-9.50939
▁21	-9.51027
▁culture	-9.51056
▁larger	-9.51109
▁quickly	-9.51175
▁pregnant	-9.51303
▁October	-9.51321
▁probably	-9.51359
▁user	-9.51452
▁John	-9.51577
▁block	-9.51589
▁came	-9.5161
den	-9.51658
▁virus	-9.5169
▁hotel	-9.51705
▁developed	-9.51884
▁depends	-9.51952
▁Park	-9.52029
ka	-9.52053
▁coffee	-9.52134
7	-9.52157
▁behind	-9.52191
▁pool	-9.52229
▁anti	-9.52402
▁performance	-9.52444
ad	-9.52448
▁Be	-9.52481
▁scale	-9.52584
ally	-9.52661
▁Washington	-9.52707
▁sell	-9.52726
▁relationship	-9.52828
▁calcium	-9.53094
▁options	-9.53184
nd	-9.53204
▁dental	-9.53213
▁bring	-9.53293
▁nursing	-9.5332
▁fuel	-9.53322
▁safety	-9.53394
▁House	-9.53555
▁roof	-9.536
by	-9.53717
▁older	-9.53793
▁complex	-9.53819
▁gold	-9.53872
ting	-9.53881
▁stage	-9.54106
▁wind	-9.54175
▁internal	-9.54197
▁final	-9.54207
▁winter	-9.54209
▁media	-9.54256
▁parents	-9.54526
▁drop	-9.54648
▁board	-9.54662
▁dr	-9.54665
▁involved	-9.54678
▁bond	-9.54698
▁ask	-9.54805
▁win	-9.54856
▁father	-9.55012
▁wait	-9.55028
▁Each	-9.5513
▁w	-9.55175
▁nc	-9.55225
▁inflammation	-9.55229
▁River	-9.55269
▁throat	-9.5527
▁lungs	-9.55549
ization	-9.55567
▁wine	-9.55757
▁potential	-9.55778
▁2017	-9.55785
▁notice	-9.55875
▁supply	-9.55913
▁super	-9.55934
▁upon	-9.56011
▁press	-9.56125
▁games	-9.56142
▁modern	-9.56167
▁medications	-9.56237
▁itself	-9.56299
▁bit	-9.56406
▁avoid	-9.56436
▁plus	-9.56464
▁currently	-9.5649
▁hands	-9.56561
▁Also	-9.56702
▁growing	-9.56719
▁membrane	-9.56959
▁king	-9.57008
▁mail	-9.57068
▁values	-9.57123
ated	-9.57136
▁understand	-9.57234
▁Security	-9.57267
▁flu	-9.57279
▁negative	-9.57343
▁branch	-9.57408
▁ft	-9.57485
▁Co	-9.57497
▁established	-9.57538
▁tx	-9.57541
▁held	-9.57652
▁3.	-9.57662
▁construction	-9.57686
▁easily	-9.57733
▁review	-9.5776
▁skills	-9.5783
▁shape	-9.57862
▁System	-9.57871
▁canada	-9.57958
▁groups	-9.58043
▁improve	-9.58122
▁political	-9.5816
▁About	-9.58291
▁horse	-9.58427
▁sources	-9.58592
▁Lake	-9.58598
▁official	-9.58642
▁testing	-9.58652
▁meet	-9.58716
▁sense	-9.58778
▁longest	-9.58868
▁molecules	-9.58934
▁currency	-9.58934
▁spread	-9.59013
▁correct	-9.59126
▁shot	-9.59155
▁apple	-9.59157
▁reach	-9.59177
▁protect	-9.59293
out	-9.59342
▁mortgage	-9.59349
▁19	-9.59425
▁iphone	-9.59494
▁unique	-9.5952
di	-9.59574
▁slow	-9.59636
op	-9.59657
be	-9.59671
▁rule	-9.59702
▁stone	-9.59825
▁expensive	-9.59833
▁future	-9.59833
▁mobile	-9.59939
▁ocean	-9.59944
▁basis	-9.60018
▁Greek	-9.60044
▁smaller	-9.60057
▁sodium	-9.60113
▁grill	-9.60276
▁powder	-9.60364
▁jobs	-9.60438
▁cooking	-9.60495
▁properties	-9.60503
▁san	-9.60508
▁requires	-9.60615
▁electrical	-9.6063
▁mother	-9.60651
▁vitamins	-9.60656
ner	-9.60757
▁arm	-9.60833
▁happen	-9.60919
▁impact	-9.60939
▁career	-9.60959
▁yourself	-9.61064
▁follow	-9.61151
▁menu	-9.61179
▁Although	-9.61201
▁washington	-9.61304
▁swelling	-9.61358
▁Code	-9.61414
▁tool	-9.61419
▁rare	-9.61476
▁September	-9.61502
▁Please	-9.61577
▁via	-9.61636
like	-9.61643
▁useful	-9.61833
▁road	-9.61963
▁$2	-9.61971
▁cholesterol	-9.61987
▁analysis	-9.61989
▁flat	-9.62021
im	-9.62043
▁tooth	-9.62056
▁shoulder	-9.62149
▁organisms	-9.62242
▁entire	-9.62265
▁View	-9.62271
way	-9.62274
go	-9.62324
▁rules	-9.62359
▁Number	-9.6244
▁Pro	-9.62468
▁gain	-9.62524
▁coverage	-9.62556
▁trade	-9.62672
▁attack	-9.62779
▁agent	-9.6298
ish	-9.6301
▁son	-9.63015
▁port	-9.63112
▁installation	-9.63197
▁seeds	-9.63267
▁School	-9.63271
▁auto	-9.63279
▁instead	-9.633
▁salaries	-9.63476
▁gives	-9.63553
▁dead	-9.63595
▁replacement	-9.63623
▁provider	-9.63877
▁2013	-9.63904
▁connect	-9.63906
▁founded	-9.63946
▁medicare	-9.6398
un	-9.64115
▁please	-9.64118
▁ohio	-9.64172
▁host	-9.64256
▁dictionary	-9.64258
▁serve	-9.64295
▁soft	-9.64398
▁voice	-9.64451
▁disability	-9.64489
ge	-9.64556
▁cooked	-9.64654
ac	-9.6471
▁activities	-9.64741
▁mountain	-9.64777
▁image	-9.64811
▁limited	-9.64918
ex	-9.64997
▁chart	-9.6503
▁rather	-9.65126
▁mental	-9.65223
▁noun	-9.65233
▁causing	-9.65281
▁homes	-9.65291
▁cm	-9.65333
▁behavior	-9.65339
▁affected	-9.6545
▁90	-9.65525
▁Social	-9.65639
▁combination	-9.658
ph	-9.65808
▁traditional	-9.65839
▁corn	-9.65879
▁football	-9.65969
ba	-9.65997
for	-9.6611
▁issues	-9.66178
▁factor	-9.66261
▁j	-9.66267
▁began	-9.66284
▁global	-9.66393
▁gene	-9.66395
▁plate	-9.66408
▁moon	-9.66428
ah	-9.66457
▁exchange	-9.66472
▁Now	-9.66489
▁shown	-9.66537
▁tend	-9.66643
▁steel	-9.66675
▁learning	-9.66802
▁organs	-9.66812
▁radio	-9.66899
▁wa	-9.67045
▁leading	-9.67075
▁schools	-9.67132
▁substance	-9.67159
▁reported	-9.6721
ance	-9.6727
▁nose	-9.67325
ha	-9.67343
▁round	-9.67362
con	-9.67391
In	-9.67448
▁sweet	-9.67487
em	-9.67519
▁Check	-9.67646
▁y	-9.67705
▁recommended	-9.67796
▁spend	-9.67842
▁heavy	-9.68185
▁rain	-9.68461
▁wave	-9.68521
▁perfect	-9.68708
▁sings	-9.68814
▁east	-9.68996
▁storage	-9.69034
▁anxiety	-9.69043
▁babies	-9.69301
▁organ	-9.69352
▁sold	-9.69376
▁hit	-9.69408
▁hearing	-9.69424
▁Step	-9.69432
port	-9.69454
▁equipment	-9.69501
based	-9.6952
▁stored	-9.69539
▁fruit	-9.69541
▁diarrhea	-9.69768
▁depression	-9.69969
▁west	-9.70055
ard	-9.70061
▁http	-9.70096
▁compared	-9.70117
▁users	-9.70193
▁individuals	-9.70327
▁feed	-9.70405
▁Day	-9.70504
▁estimated	-9.70505
▁fly	-9.70523
▁watch	-9.70624
▁estimate	-9.70648
ted	-9.70677
▁expect	-9.70678
▁disorders	-9.70767
▁rent	-9.70853
▁rid	-9.70866
▁fit	-9.70872
▁mid	-9.70891
▁Mar	-9.71012
▁english	-9.71049
▁issue	-9.71126
▁reference	-9.71142
▁ten	-9.7123
▁cross	-9.71249
▁resources	-9.71301
▁seed	-9.71309
▁motion	-9.71356
ite	-9.7136
▁sc	-9.71393
▁piece	-9.71457
J	-9.7154
▁#	-9.71552
▁Latin	-9.71602
▁economic	-9.71615
▁capital	-9.71626
▁station	-9.71747
▁seven	-9.71897
▁internet	-9.7194
▁beginning	-9.72008
▁registered	-9.7202
▁Europe	-9.72038
▁bake	-9.72061
▁flag	-9.72117
8	-9.72164
▁explain	-9.72196
▁anything	-9.72286
▁Not	-9.72294
▁usa	-9.72353
▁walk	-9.72354
▁Once	-9.7239
▁proper	-9.72422
▁union	-9.72457
▁minute	-9.7263
▁beans	-9.72635
▁doing	-9.72685
▁details	-9.72754
▁British	-9.72774
▁employer	-9.72779
pa	-9.72786
▁processes	-9.72826
▁weigh	-9.72844
▁bones	-9.73111
▁butter	-9.73197
▁Medical	-9.73331
▁Search	-9.73353
▁cards	-9.73453
ize	-9.73533
10	-9.73589
▁census	-9.73589
min	-9.73615
▁ancient	-9.73629
▁Since	-9.73666
ler	-9.73722
▁greater	-9.73744
▁December	-9.73752
▁Learn	-9.73794
▁ingredients	-9.73834
▁devices	-9.73857
▁Information	-9.73868
se	-9.73974
▁German	-9.74138
▁police	-9.74148
▁drinking	-9.74172
▁expenses	-9.74178
▁High	-9.74208
▁author	-9.74211
old	-9.74235
▁tuition	-9.74288
▁consists	-9.74304
ut	-9.74309
▁events	-9.74327
▁ex	-9.74345
▁vessels	-9.74362
▁Z	-9.74466
▁refrigerator	-9.74511
▁moving	-9.7458
▁perform	-9.74634
▁International	-9.74639
▁rich	-9.74656
▁2000	-9.74763
ci	-9.74828
ating	-9.74914
▁server	-9.74933
▁cable	-9.75079
▁Meaning	-9.75189
▁sports	-9.75208
▁believe	-9.7522
▁prior	-9.75265
▁tongue	-9.75274
▁operating	-9.75346
▁Water	-9.7536
▁separate	-9.75495
▁en	-9.7552
▁characteristics	-9.75584
▁failure	-9.75629
▁cats	-9.75686
▁workers	-9.75724
▁channel	-9.75727
▁opening	-9.75736
▁Open	-9.75761
▁Air	-9.75877
side	-9.75938
▁molecule	-9.75976
field	-9.75977
▁variable	-9.75981
▁Microsoft	-9.7601
▁thought	-9.76031
▁cool	-9.76052
▁count	-9.76068
▁illness	-9.76082
▁increases	-9.76089
▁Top	-9.76101
▁recent	-9.76134
term	-9.76144
▁tools	-9.76153
▁chronic	-9.76215
▁difficult	-9.76243
▁received	-9.76265
▁laptop	-9.76269
▁cord	-9.76295
▁debt	-9.7641
▁immune	-9.76412
▁carbs	-9.76426
ga	-9.76569
▁documents	-9.76572
):	-9.76605
▁People	-9.7665
▁direction	-9.76681
▁evidence	-9.76698
▁Place	-9.76745
▁protection	-9.76937
▁john	-9.7697
▁Island	-9.77029
▁White	-9.77037
▁speech	-9.7713
▁serving	-9.7717
▁lung	-9.77179
▁Court	-9.77194
▁guide	-9.77266
▁download	-9.77309
▁forecast	-9.77346
▁bed	-9.77371
▁Internet	-9.77374
▁billion	-9.77386
▁applied	-9.77686
▁affects	-9.77696
ft	-9.77715
▁agreement	-9.77764
▁Name	-9.77884
▁native	-9.77939
▁wild	-9.7798
▁actor	-9.78097
▁retirement	-9.78227
▁figure	-9.78317
▁vision	-9.78325
▁lost	-9.78362
▁refer	-9.78369
▁fine	-9.7842
va	-9.78506
▁core	-9.78611
▁army	-9.78615
▁note	-9.78669
▁message	-9.78786
▁reasons	-9.78796
▁composed	-9.78956
▁mix	-9.78998
▁consider	-9.7929
▁bowl	-9.79324
▁places	-9.79335
ti	-9.79364
▁Can	-9.79373
▁dis	-9.79397
▁proteins	-9.79433
▁tab	-9.79441
▁took	-9.79445
▁bag	-9.79553
▁potatoes	-9.79572
▁tract	-9.7963
▁ring	-9.79707
▁reading	-9.79748
▁owner	-9.79768
▁parent	-9.79824
▁significant	-9.79845
▁battle	-9.79905
▁November	-9.80001
ator	-9.80055
▁nature	-9.80135
▁Note	-9.80295
▁wife	-9.80317
▁nervous	-9.80352
▁juice	-9.80373
▁rice	-9.80546
▁breast	-9.80685
▁Select	-9.80724
▁although	-9.80852
▁memory	-9.80886
men	-9.80939
ium	-9.8095
▁appropriate	-9.8096
▁amendment	-9.80976
▁plastic	-9.81006
▁70	-9.81017
▁vegetables	-9.81019
▁track	-9.8119
▁allowed	-9.81258
▁players	-9.81281
if	-9.81306
▁La	-9.81396
▁During	-9.81413
ten	-9.81637
▁installed	-9.81667
▁maintain	-9.817
▁Black	-9.82103
▁bread	-9.82121
▁Weather	-9.82235
net	-9.82308
▁refund	-9.82338
mm	-9.82498
▁organic	-9.8252
▁anywhere	-9.82546
▁independent	-9.82574
▁pump	-9.82599
▁setting	-9.82658
▁scientific	-9.82756
$	-9.82832
▁couple	-9.82871
▁vaccine	-9.82902
▁Carolina	-9.82916
▁arthritis	-9.82926
▁print	-9.82952
▁request	-9.83013
▁portion	-9.8308
▁switch	-9.83138
▁morning	-9.83146
▁goal	-9.83162
▁vote	-9.83238
▁passed	-9.83255
▁choice	-9.83272
▁default	-9.83318
▁recorded	-9.83338
▁1/2	-9.83387
▁tank	-9.83456
▁pop	-9.83477
▁Con	-9.83508
▁sample	-9.83538
▁sand	-9.83637
▁General	-9.83649
▁plans	-9.83782
▁hourly	-9.83792
▁Great	-9.83846
▁database	-9.83921
▁sheet	-9.83931
▁Tax	-9.83936
town	-9.83941
▁aid	-9.83972
▁picture	-9.84018
▁index	-9.84041
▁Inc	-9.84042
▁further	-9.84068
▁load	-9.84076
▁breath	-9.84095
ee	-9.84143
▁Virginia	-9.84186
▁ship	-9.84305
▁broken	-9.84334
▁chain	-9.84364
▁Services	-9.84366
▁Make	-9.84398
▁news	-9.84448
▁beautiful	-9.84455
▁assistant	-9.84493
▁stores	-9.8453
▁radiation	-9.84532
▁(1	-9.84576
www	-9.84594
▁kitchen	-9.8461
▁fridge	-9.84612
▁di	-9.84631
▁India	-9.84636
▁solid	-9.84685
ful	-9.84706
▁eight	-9.84709
▁talk	-9.84723
▁Average	-9.8475
▁studies	-9.84767
▁glands	-9.84821
▁mineral	-9.84865
▁photo	-9.8491
▁budget	-9.84921
▁pet	-9.84962
▁grass	-9.84996
▁produces	-9.85007
▁lack	-9.85012
▁rash	-9.85084
▁Bank	-9.85213
▁Then	-9.85236
▁hormones	-9.85267
▁mile	-9.85287
▁Don	-9.85322
▁Because	-9.8533
▁officer	-9.85348
▁lyrics	-9.85376
▁foreign	-9.8539
▁Area	-9.85447
▁yet	-9.85454
ap	-9.85479
▁department	-9.85499
end	-9.8551
▁con	-9.85514
▁speak	-9.85621
▁derived	-9.85659
▁certificate	-9.85752
▁coming	-9.85906
▁bleeding	-9.86002
▁master	-9.86022
▁york	-9.86029
▁Start	-9.86039
▁removed	-9.86044
▁published	-9.86048
▁entry	-9.86141
sa	-9.86147
▁2011	-9.86162
▁command	-9.86168
▁February	-9.86195
▁phase	-9.86237
ow	-9.8625
▁thin	-9.86292
▁electricity	-9.86433
▁deal	-9.86468
lin	-9.86542
▁spinal	-9.86576
▁feature	-9.86598
▁z	-9.86651
▁singer	-9.86913
▁communication	-9.87031
▁meal	-9.87073
▁wire	-9.87107
▁silver	-9.87152
yl	-9.87313
▁column	-9.87339
▁exam	-9.87362
▁earned	-9.87433
▁completely	-9.87633
▁represent	-9.87677
bo	-9.87677
nt	-9.87685
▁trump	-9.87689
▁bridge	-9.87811
▁fill	-9.87918
▁marriage	-9.88007
itis	-9.88024
▁expected	-9.88107
▁insulin	-9.88111
▁customers	-9.882
▁methods	-9.88206
▁friends	-9.8829
▁burning	-9.88327
▁el	-9.88431
▁waste	-9.88451
▁pick	-9.88587
▁mode	-9.88588
ina	-9.88616
▁changed	-9.88644
▁waves	-9.88664
▁disc	-9.88723
▁nearly	-9.88765
▁80	-9.88819
	-9.8885
ak	-9.88856
▁train	-9.88857
▁List	-9.88949
▁district	-9.89008
▁nutrients	-9.89108
▁photos	-9.89131
▁multi	-9.89131
▁normally	-9.89138
▁CA	-9.89187
ou	-9.8919
▁northern	-9.89222
▁fix	-9.89248
▁turkey	-9.89301
▁artery	-9.89305
▁begins	-9.89366
▁Web	-9.89438
▁album	-9.89462
▁tube	-9.89492
▁math	-9.89507
▁television	-9.89546
▁raw	-9.89644
▁led	-9.89656
▁200	-9.89706
▁UK	-9.89713
▁payments	-9.89781
▁surname	-9.89791
▁Federal	-9.89826
▁actual	-9.8983
▁irs	-9.89874
▁Street	-9.89886
▁cars	-9.89925
▁collection	-9.89939
ana	-9.89967
▁USA	-9.8998
▁quite	-9.9001
▁friend	-9.9004
▁East	-9.90056
▁(19	-9.90077
▁acids	-9.90094
.	-9.90121
▁wi	-9.90166
▁Blue	-9.90182
▁Mexico	-9.90282
.2	-9.90353
▁2012	-9.90396
▁agency	-9.90447
▁feeling	-9.90525
▁overall	-9.90532
▁hip	-9.90561
▁$3	-9.90575
see	-9.90585
▁Car	-9.90605
der	-9.90716
▁distribution	-9.90755
▁College	-9.90777
▁certification	-9.90793
▁rise	-9.91075
▁indicate	-9.91118
▁Central	-9.91124
▁sentence	-9.91199
ver	-9.91222
▁staff	-9.9126
▁potassium	-9.91286
mi	-9.91287
▁breathing	-9.91327
▁Over	-9.91354
▁Red	-9.91368
q	-9.91377
▁visa	-9.914
▁executive	-9.9144
▁45	-9.91485
▁Dictionary	-9.91536
▁clinical	-9.91573
▁ready	-9.91604
pi	-9.91624
li	-9.91629
▁compound	-9.91751
▁nation	-9.91815
▁everything	-9.91861
▁planning	-9.91869
▁dependent	-9.91924
▁cap	-9.92041
▁consist	-9.92106
▁Free	-9.92109
▁codes	-9.92134
▁500	-9.92237
▁Report	-9.92248
▁lab	-9.92252
pe	-9.92282
▁strength	-9.92385
=	-9.92413
▁Di	-9.92505
▁latest	-9.9257
▁nj	-9.92602
▁measured	-9.92603
▁Beach	-9.92625
▁frequency	-9.92636
▁knowledge	-9.92699
▁mild	-9.92731
▁locations	-9.92748
mer	-9.9275
ot	-9.92784
▁organism	-9.92789
ise	-9.92813
▁approved	-9.92846
▁steak	-9.92868
▁trip	-9.92891
ology	-9.9313
▁focus	-9.93138
▁biology	-9.9316
au	-9.93239
▁frame	-9.93249
▁mark	-9.93249
▁leader	-9.9326
▁kidneys	-9.9326
ham	-9.93267
It	-9.93323
ip	-9.93398
▁boat	-9.93416
rd	-9.93434
▁password	-9.93458
▁scan	-9.93494
▁display	-9.9357
mon	-9.93574
▁Read	-9.93613
▁owns	-9.93706
po	-9.9375
▁determined	-9.93783
▁mexico	-9.93796
▁economy	-9.93796
▁forward	-9.93898
▁28	-9.93908
▁pc	-9.9396
▁prostate	-9.93972
▁contribute	-9.94004
▁connection	-9.9401
▁gift	-9.94013
15	-9.94088
▁tissues	-9.94127
ni	-9.94132
▁Census	-9.94137
▁stars	-9.94197
▁crime	-9.943
▁telephone	-9.94308
11	-9.94311
▁initial	-9.94319
▁23	-9.94319
ng	-9.94367
▁accounts	-9.94425
▁Just	-9.94452
▁lay	-9.94476
50	-9.9453
▁dollars	-9.9456
▁criminal	-9.94565
▁obtain	-9.94812
▁hydrogen	-9.94912
▁Africa	-9.94929
▁performed	-9.94934
▁majority	-9.94964
▁prime	-9.95013
▁grand	-9.95138
ny	-9.95168
ford	-9.95172
ey	-9.95285
▁killed	-9.95287
▁truck	-9.95358
▁appears	-9.95709
▁inch	-9.95737
▁thick	-9.95845
▁Page	-9.95871
▁22	-9.95945
▁delivery	-9.95994
▁diagnosis	-9.96034
▁divided	-9.96111
▁limits	-9.96113
▁garden	-9.96127
▁King	-9.96136
▁ira	-9.96192
▁fully	-9.96207
▁accounting	-9.96283
▁amazon	-9.96296
▁originally	-9.96395
▁minerals	-9.96459
▁pot	-9.96497
▁boil	-9.96507
▁ounces	-9.96737
▁symptom	-9.968
▁favorite	-9.96825
▁else	-9.9683
▁alone	-9.96844
▁touch	-9.96846
▁concept	-9.96905
▁club	-9.96908
▁browser	-9.9693
▁whose	-9.9699
▁teacher	-9.97029
20	-9.97035
▁lymph	-9.97079
▁boy	-9.97123
▁valve	-9.97181
▁microsoft	-9.97282
É	-9.97334
▁dangerous	-9.97351
▁continue	-9.97392
▁Cost	-9.97511
▁orange	-9.97567
▁Q	-9.97684
▁ticket	-9.97708
▁deficiency	-9.97715
▁decision	-9.97798
▁width	-9.97824
▁Al	-9.97849
▁sit	-9.9786
▁operation	-9.97928
▁deposit	-9.97949
▁properly	-9.97976
bi	-9.97984
▁went	-9.98102
back	-9.98115
▁structures	-9.98123
▁prescription	-9.98162
▁Man	-9.98197
▁transport	-9.98226
▁stool	-9.98256
▁raise	-9.98341
▁society	-9.98413
▁spot	-9.98421
▁il	-9.98464
▁daughter	-9.98503
▁Itâ	-9.98532
▁Care	-9.9859
▁breed	-9.98609
19	-9.98781
▁residents	-9.98829
▁books	-9.98873
▁faster	-9.98886
▁fixed	-9.98938
▁appearance	-9.98962
▁Credit	-9.98964
▁density	-9.98979
▁PC	-9.99021
▁southern	-9.9904
▁frozen	-9.99051
▁bowel	-9.9906
▁settings	-9.99077
▁division	-9.99079
▁girls	-9.99121
▁discovered	-9.99125
que	-9.99153
▁director	-9.99208
▁engineering	-9.99236
ster	-9.99314
pro	-9.99492
ron	-9.99509
▁india	-9.99534
▁psychology	-9.9958
▁baseball	-9.99586
▁purposes	-9.996
▁tile	-9.99645
▁Congress	-9.99664
▁colon	-9.99677
30	-9.99694
▁35	-9.99743
▁atmosphere	-9.9976
▁primarily	-9.9976
▁golf	-9.99762
▁sauce	-9.99769
▁Business	-9.99778
▁slightly	-9.99783
▁Or	-9.99856
▁26	-9.99915
▁walking	-9.99938
▁eligible	-9.99962
▁nuclear	-9.99971
▁lowest	-10.0003
▁joints	-10.0005
▁straight	-10.0013
ke	-10.0016
▁background	-10.0023
▁angle	-10.0023
▁assessment	-10.0023
▁fastest	-10.0025
▁target	-10.0026
▁airlines	-10.0034
▁Symptoms	-10.0037
▁Company	-10.004
▁4.	-10.0041
▁trying	-10.0042
sville	-10.0042
▁bladder	-10.0058
▁uk	-10.0059
▁anyone	-10.006
▁mostly	-10.0082
▁micro	-10.0083
▁wheel	-10.0088
▁sore	-10.0089
▁highly	-10.0094
io	-10.0105
.3	-10.0106
▁quick	-10.0106
▁placed	-10.0109
▁item	-10.0109
▁England	-10.0113
▁folder	-10.0113
▁ideal	-10.0118
▁wireless	-10.0123
▁differences	-10.0123
▁served	-10.0135
▁treated	-10.0139
▁dioxide	-10.014
▁google	-10.0142
16	-10.0143
▁edge	-10.015
▁Ma	-10.0154
▁marketing	-10.0161
▁starts	-10.0164
▁employment	-10.0171
▁fun	-10.0171
▁acute	-10.0171
▁planet	-10.0175
▁emergency	-10.0187
▁lives	-10.0189
ial	-10.0204
▁Australia	-10.0213
▁critical	-10.0219
▁oral	-10.0219
▁applications	-10.0221
▁mixture	-10.0223
▁ensure	-10.0224
▁healthcare	-10.0225
▁digital	-10.023
▁Google	-10.0243
▁originate	-10.0261
▁connected	-10.0273
▁claims	-10.0276
free	-10.0277
▁trust	-10.0278
▁exposure	-10.029
▁dollar	-10.0292
▁delete	-10.0295
▁yeast	-10.0298
▁minor	-10.03
▁cake	-10.0306
also	-10.0307
▁becomes	-10.0307
▁pepper	-10.0308
▁previous	-10.0309
▁recovery	-10.0312
▁rocks	-10.032
▁grade	-10.0324
▁classes	-10.0331
▁Star	-10.0335
▁capacity	-10.0336
▁pull	-10.0337
45	-10.034
▁michigan	-10.0363
▁match	-10.0364
▁Plan	-10.0371
▁amounts	-10.0374
▁domestic	-10.0381
▁package	-10.0382
▁signed	-10.0384
mp	-10.0386
18	-10.0393
17	-10.0394
▁bottle	-10.0419
▁investment	-10.0424
ig	-10.0428
▁walls	-10.0435
▁approach	-10.0442
▁firm	-10.0452
▁enzyme	-10.0454
hi	-10.046
▁gets	-10.0468
▁pattern	-10.0471
▁paying	-10.0478
▁involves	-10.0478
▁sides	-10.048
▁measures	-10.0482
¢	-10.0485
▁widely	-10.0485
▁respiratory	-10.0486
▁sent	-10.0487
▁Bar	-10.0488
▁ribs	-10.0496
▁describes	-10.0498
▁filing	-10.0498
75	-10.0498
▁His	-10.0499
▁certified	-10.0499
▁Spanish	-10.0499
▁selection	-10.0502
▁Sun	-10.0506
not	-10.0507
▁constant	-10.0507
▁identify	-10.0513
▁valid	-10.0516
▁demand	-10.052
▁path	-10.0522
▁Form	-10.0524
▁existing	-10.0536
▁PA	-10.0537
▁phrase	-10.054
▁bacterial	-10.0542
▁reports	-10.0542
▁II	-10.0549
▁providing	-10.0553
▁savings	-10.0564
▁fabric	-10.057
▁influence	-10.0572
▁id	-10.0573
▁Take	-10.0582
▁snow	-10.0583
▁$10	-10.0585
▁flower	-10.0587
▁physician	-10.0588
vo	-10.0597
▁mold	-10.0598
org	-10.0599
▁Ohio	-10.0601
▁Los	-10.0603
▁ph	-10.061
▁digestive	-10.0611
▁measurement	-10.0611
▁western	-10.0614
▁followed	-10.0615
35	-10.0619
▁issued	-10.062
▁maintenance	-10.0631
▁fan	-10.0631
stone	-10.0631
▁tips	-10.0636
▁cough	-10.0639
▁fair	-10.0644
▁foundation	-10.0651
▁described	-10.0655
▁french	-10.0659
▁flowers	-10.066
▁constitution	-10.0663
▁survey	-10.0682
▁happened	-10.0682
▁exactly	-10.0684
▁earnings	-10.069
▁themselves	-10.0697
▁ne	-10.0703
▁funds	-10.0706
▁household	-10.0721
▁panel	-10.0721
US	-10.0725
▁Mac	-10.0729
▁race	-10.0734
▁rose	-10.0735
▁respiration	-10.0736
▁Post	-10.0737
well	-10.0748
▁pink	-10.0749
▁potato	-10.0751
ber	-10.0753
▁draw	-10.0757
▁History	-10.0757
▁prepare	-10.0762
▁divorce	-10.0772
▁Association	-10.0775
▁parking	-10.0781
▁Union	-10.0787
▁inter	-10.0788
ier	-10.0789
▁external	-10.0795
▁verb	-10.08
▁(2	-10.0803
▁coconut	-10.0805
sh	-10.0808
▁powerful	-10.082
▁excess	-10.0823
▁constipation	-10.0824
▁?	-10.0825
▁bird	-10.0828
▁seconds	-10.083
▁transmission	-10.0834
▁copper	-10.0835
▁situation	-10.0837
▁pieces	-10.0837
▁falls	-10.084
▁owned	-10.0842
▁oldest	-10.0845
▁frequently	-10.0849
▁update	-10.0849
▁tri	-10.0852
▁gross	-10.0855
▁meant	-10.086
dy	-10.0866
▁china	-10.0869
▁intake	-10.0873
▁China	-10.0874
▁Call	-10.0877
▁Let	-10.0881
▁iPhone	-10.0884
▁join	-10.0885
▁synonym	-10.0885
▁oz	-10.0899
▁IRS	-10.09
▁vinegar	-10.0913
▁Standard	-10.0917
▁revenue	-10.0918
▁components	-10.0918
.00	-10.0919
▁sang	-10.092
oid	-10.0924
▁James	-10.0925
ub	-10.0936
▁Un	-10.0937
▁domain	-10.0938
▁Power	-10.094
▁equivalent	-10.0944
ile	-10.0946
▁smooth	-10.0946
ab	-10.0946
▁former	-10.0951
▁bathroom	-10.0953
off	-10.0954
▁translation	-10.0957
▁shop	-10.0958
ran	-10.0961
over	-10.0962
▁basketball	-10.0963
▁Even	-10.0968
▁formation	-10.0973
▁Mo	-10.0976
▁carbohydrates	-10.0983
95	-10.0986
▁giving	-10.0986
▁naturally	-10.0994
▁votes	-10.1006
▁bonds	-10.1014
Z	-10.102
▁chromosomes	-10.103
▁street	-10.1032
▁lawn	-10.1036
▁tip	-10.1037
▁27	-10.1042
*	-10.1047
ell	-10.1047
▁jail	-10.1064
▁atoms	-10.1073
▁hotels	-10.1076
▁engineer	-10.1077
ja	-10.1084
▁trial	-10.1087
use	-10.1089
▁Food	-10.1102
▁presence	-10.1104
gi	-10.111
▁stem	-10.1111
▁European	-10.1112
▁Le	-10.1112
▁containing	-10.1119
▁Is	-10.1131
▁headache	-10.1131
▁regions	-10.1135
all	-10.1153
▁chance	-10.1153
▁closing	-10.1154
▁everyone	-10.1159
▁Data	-10.116
board	-10.1163
mar	-10.1164
▁Illinois	-10.1165
▁category	-10.1166
▁removal	-10.1166
▁intestine	-10.1183
▁facility	-10.1185
▁apart	-10.1193
▁sq	-10.1195
les	-10.12
▁caffeine	-10.1205
▁recently	-10.1226
▁mission	-10.1229
▁immediately	-10.124
▁border	-10.1245
▁inner	-10.1246
▁sexual	-10.1247
head	-10.125
▁australia	-10.1253
▁string	-10.1255
▁poor	-10.1256
▁Amazon	-10.1257
.4	-10.126
-1	-10.1261
▁plane	-10.1276
▁disney	-10.1276
▁Under	-10.1278
▁ball	-10.129
▁valley	-10.1298
▁accurate	-10.1301
▁Like	-10.1301
tro	-10.1308
▁housing	-10.1308
▁CO	-10.1308
▁split	-10.131
▁nail	-10.131
ix	-10.1317
▁arteries	-10.1318
▁families	-10.1318
▁lease	-10.132
▁Group	-10.132
▁Pre	-10.1326
▁spray	-10.1329
▁beer	-10.1329
▁permanent	-10.1334
▁languages	-10.1335
▁onto	-10.134
28	-10.1345
▁attached	-10.1348
▁Two	-10.135
▁express	-10.1353
▁substances	-10.1354
▁Long	-10.1355
▁ms	-10.1357
ring	-10.136
▁penalty	-10.136
▁George	-10.136
▁illinois	-10.136
▁dates	-10.136
▁bi	-10.1368
▁ham	-10.1374
▁rental	-10.1381
▁toilet	-10.1383
ze	-10.1383
▁statistics	-10.1394
▁Public	-10.1398
▁instructions	-10.14
▁drain	-10.14
99	-10.1401
▁nucleus	-10.1401
▁Medicare	-10.1401
▁spanish	-10.1402
▁reactions	-10.1404
▁dream	-10.1406
▁georgia	-10.1412
▁fund	-10.1414
▁salmon	-10.1422
▁magnesium	-10.1422
▁colorado	-10.1423
▁meter	-10.1442
▁bio	-10.1445
▁stick	-10.1448
kin	-10.1449
▁fight	-10.1455
▁movies	-10.1456
▁Na	-10.1459
▁coast	-10.1461
▁$5	-10.1462
▁Old	-10.1465
▁deductible	-10.1466
▁detect	-10.1471
▁cellular	-10.1471
ure	-10.1474
01	-10.1484
▁Sea	-10.1485
▁Show	-10.149
▁Price	-10.1492
▁row	-10.1493
▁gender	-10.1496
ula	-10.1497
▁profit	-10.1503
32	-10.1505
▁le	-10.1517
▁circuit	-10.1522
▁profile	-10.1524
▁episode	-10.1533
▁London	-10.1538
▁looks	-10.1538
▁drivers	-10.1539
ities	-10.1541
▁introduced	-10.1543
▁gallon	-10.1547
▁opposite	-10.1548
▁honey	-10.1549
▁fear	-10.155
▁withdrawal	-10.1557
ative	-10.156
▁quarter	-10.1564
▁worked	-10.1564
red	-10.1566
▁lock	-10.1567
▁cancel	-10.157
▁Airport	-10.1571
▁relatively	-10.1577
▁attorney	-10.1587
▁actress	-10.1587
▁easier	-10.1591
▁resistance	-10.1591
▁garage	-10.1591
▁France	-10.1592
▁Excel	-10.1592
▁scores	-10.1592
▁wrong	-10.1597
ries	-10.1599
▁calculator	-10.1601
ray	-10.1614
▁coat	-10.1614
▁attention	-10.1623
▁essay	-10.1623
▁Apple	-10.1624
▁decrease	-10.1627
▁bo	-10.1642
▁News	-10.1643
▁collect	-10.1651
▁router	-10.1651
▁meeting	-10.1655
si	-10.1656
▁enjoy	-10.1659
▁filmed	-10.1659
our	-10.1661
▁se	-10.1661
▁deck	-10.1662
▁2007	-10.1668
▁characterized	-10.1669
▁Part	-10.1674
▁camera	-10.1677
▁32	-10.1678
▁doctors	-10.1679
▁IRA	-10.1688
izing	-10.1699
▁tech	-10.17
▁Y	-10.171
▁Ã	-10.1711
▁playing	-10.1714
▁understanding	-10.1714
▁roll	-10.1715
▁im	-10.1719
▁Before	-10.172
▁indiana	-10.1724
vi	-10.1726
▁abdominal	-10.1731
▁nausea	-10.1741
▁ranges	-10.1749
▁Board	-10.1752
▁Road	-10.1752
▁dance	-10.1752
▁relative	-10.1754
▁cloud	-10.1754
▁tap	-10.1755
ane	-10.176
▁baking	-10.1774
▁spine	-10.1777
▁manage	-10.1779
▁trans	-10.1784
▁corporate	-10.1795
▁registration	-10.1795
▁bay	-10.1798
▁membership	-10.1806
▁yard	-10.1807
▁varies	-10.1807
▁sick	-10.1808
▁Fire	-10.1809
%	-10.181
▁changing	-10.181
▁filter	-10.1813
▁desert	-10.1817
▁sum	-10.1821
▁particularly	-10.1824
ING	-10.1826
▁description	-10.1828
▁Age	-10.1832
so	-10.1833
▁corporation	-10.1838
ps	-10.1847
▁operations	-10.1848
▁concentration	-10.1849
▁Common	-10.1853
▁arms	-10.1857
▁Americans	-10.1857
▁covers	-10.1869
▁Type	-10.1872
▁kill	-10.1874
▁rating	-10.1878
▁remain	-10.1879
▁marine	-10.188
▁Program	-10.1886
▁birds	-10.1895
▁stroke	-10.1903
▁Monday	-10.1904
ola	-10.1906
ud	-10.1916
▁sport	-10.1918
▁forces	-10.1919
▁grown	-10.193
▁error	-10.193
▁African	-10.1935
▁hear	-10.1939
▁represents	-10.1939
ide	-10.1949
▁cleaning	-10.1949
▁Up	-10.1951
▁unless	-10.1956
▁compensation	-10.1959
▁retail	-10.1959
▁traffic	-10.196
▁messages	-10.1963
.1	-10.1966
ence	-10.1968
▁processing	-10.1974
▁pure	-10.1975
▁success	-10.1979
▁da	-10.1983
▁detailed	-10.1989
▁garlic	-10.1992
▁businesses	-10.1997
▁District	-10.2003
▁recipe	-10.2005
▁nerves	-10.2008
▁Per	-10.2011
▁steam	-10.2011
▁Pennsylvania	-10.2014
▁depend	-10.2017
70	-10.2027
▁Facebook	-10.2036
▁zero	-10.2037
▁synonyms	-10.2038
▁era	-10.2041
▁pair	-10.2046
▁nothing	-10.2049
▁periods	-10.2055
▁output	-10.2061
▁atom	-10.2065
his	-10.2072
▁God	-10.2074
▁permit	-10.2075
▁farm	-10.2076
▁finish	-10.2077
▁generation	-10.2083
▁Real	-10.2083
▁personality	-10.2085
▁na	-10.2086
▁graduate	-10.2098
▁facts	-10.2099
▁pages	-10.2102
▁sperm	-10.2103
▁adding	-10.2106
▁bath	-10.2113
▁fatigue	-10.2114
▁automatically	-10.2115
cl	-10.2118
▁client	-10.2119
▁outer	-10.2119
▁amino	-10.212
dale	-10.212
▁pen	-10.2125
▁holiday	-10.213
This	-10.2136
▁Georgia	-10.2137
▁chemistry	-10.215
▁Both	-10.2156
▁nationality	-10.2163
▁Today	-10.2167
▁hyper	-10.2172
oc	-10.2173
▁chief	-10.2175
▁cure	-10.2175
my	-10.2179
60	-10.218
▁disk	-10.2183
oma	-10.2183
tion	-10.2201
▁Education	-10.221
▁painful	-10.2213
▁Contact	-10.2217
▁log	-10.2219
▁icon	-10.2225
▁reduced	-10.2229
▁Bill	-10.2234
▁Family	-10.224
ru	-10.2244
▁restaurant	-10.2245
▁taxable	-10.2253
house	-10.2253
▁charged	-10.2256
▁equation	-10.2257
▁signal	-10.2267
▁em	-10.2268
▁chemicals	-10.2269
▁standards	-10.2278
▁toward	-10.2279
▁closed	-10.2288
▁hatch	-10.2291
▁printer	-10.2294
▁29	-10.2295
▁oregon	-10.2295
ney	-10.2296
▁successful	-10.2299
29	-10.2302
▁pretty	-10.2306
▁Phone	-10.231
▁combined	-10.2315
▁literature	-10.2318
▁usage	-10.2319
▁65	-10.2324
▁industrial	-10.2325
▁remember	-10.2326
lan	-10.2333
▁Hi	-10.2338
▁ct	-10.2341
▁procedures	-10.2345
ris	-10.2349
▁tn	-10.2353
▁roots	-10.2355
▁soap	-10.236
▁differ	-10.2363
▁cruise	-10.2364
▁lemon	-10.2364
▁Ca	-10.2365
▁hope	-10.2368
▁mainly	-10.2372
▁assets	-10.2375
▁village	-10.2376
▁Friday	-10.2377
▁biological	-10.2379
▁duty	-10.2382
▁runs	-10.2385
tin	-10.2386
▁deduction	-10.2386
▁PM	-10.2387
▁pipe	-10.2393
▁Her	-10.2395
▁generic	-10.2398
▁stands	-10.24
▁dish	-10.2401
▁2005	-10.2404
55	-10.2408
▁chocolate	-10.2409
▁charges	-10.2416
▁environmental	-10.242
▁sky	-10.2421
▁illegal	-10.2421
▁Share	-10.2422
▁Life	-10.2423
▁mac	-10.2429
▁golden	-10.2429
31	-10.243
▁advantage	-10.2432
▁layers	-10.2436
▁Indian	-10.2438
▁wash	-10.2442
▁Source	-10.2453
▁brake	-10.2457
▁objects	-10.2466
▁formal	-10.2472
▁anemia	-10.2474
▁secondary	-10.2475
▁shower	-10.2476
▁absorb	-10.2477
ger	-10.248
▁Word	-10.2485
▁earlier	-10.2491
▁heater	-10.2491
▁mn	-10.2492
let	-10.2495
▁saw	-10.2497
▁Causes	-10.2499
▁hurt	-10.2512
cy	-10.2525
▁contagious	-10.2525
▁ha	-10.2527
ped	-10.2531
▁exist	-10.2532
▁bus	-10.2534
-2	-10.2536
ff	-10.2538
▁Sunday	-10.2538
▁reviews	-10.2539
▁qualify	-10.254
▁Using	-10.2541
ping	-10.2543
▁counter	-10.2552
▁thinking	-10.2566
▁Middle	-10.2572
▁completed	-10.2574
▁prescribed	-10.2577
▁Human	-10.258
▁supplements	-10.2586
▁plasma	-10.2587
ship	-10.2588
▁asked	-10.2588
▁300	-10.2594
▁vomiting	-10.2598
▁driveway	-10.2601
▁custom	-10.2603
▁surgical	-10.2608
▁spent	-10.2608
eg	-10.2615
▁Population	-10.2619
▁shall	-10.2621
▁ba	-10.2622
▁dress	-10.2623
▁letters	-10.2628
ase	-10.2629
▁pension	-10.2631
▁Management	-10.2643
▁prison	-10.2643
22	-10.2644
▁Germany	-10.2645
▁announced	-10.2647
▁thousands	-10.2648
▁flour	-10.2655
13	-10.2665
▁abnormal	-10.2669
▁36	-10.267
▁Rock	-10.2671
▁deed	-10.2673
▁finance	-10.2678
▁alternative	-10.2679
▁q	-10.268
▁os	-10.2681
ya	-10.2684
bar	-10.2688
▁shock	-10.2689
▁creating	-10.269
38	-10.2693
▁premium	-10.2706
▁authority	-10.2716
▁Another	-10.2716
▁mar	-10.2719
▁march	-10.2719
▁resulting	-10.2719
▁lived	-10.2721
▁controls	-10.2726
24	-10.2728
▁Green	-10.2729
▁Research	-10.2735
▁crust	-10.2739
▁holding	-10.2739
▁weekend	-10.2742
ang	-10.2753
▁facebook	-10.2753
hen	-10.2753
36	-10.2756
▁cubic	-10.2762
▁Why	-10.2762
▁lift	-10.2763
▁AM	-10.2763
▁visual	-10.2765
cal	-10.2774
▁Examples	-10.2776
▁enzymes	-10.2781
her	-10.2782
49	-10.279
▁pronunciation	-10.2797
▁Blood	-10.2798
▁opened	-10.28
▁component	-10.2803
ens	-10.2804
▁grant	-10.2804
▁specialist	-10.2808
▁recommend	-10.2811
▁wish	-10.2813
▁finger	-10.2819
▁classified	-10.2822
▁Yes	-10.2826
▁hall	-10.2836
▁nutrition	-10.2837
▁Bay	-10.2838
▁artist	-10.2841
▁nine	-10.2841
▁insert	-10.2844
▁characters	-10.2848
▁ride	-10.2852
ER	-10.2853
#	-10.2862
▁vehicles	-10.2864
▁interview	-10.2867
▁register	-10.2869
14	-10.2872
cu	-10.2873
▁max	-10.2874
▁fax	-10.288
▁Asia	-10.288
▁mechanical	-10.2887
27	-10.2892
▁Pacific	-10.2895
ade	-10.2899
▁31	-10.2904
▁injection	-10.2911
▁regarding	-10.2912
▁Any	-10.2915
▁remains	-10.2918
▁shoes	-10.2918
▁extremely	-10.2925
▁rib	-10.2925
▁controlled	-10.2925
▁flavor	-10.2926
▁calculated	-10.2929
▁Good	-10.2935
▁returns	-10.2939
▁(3	-10.2939
▁Bureau	-10.2942
▁flights	-10.2949
IN	-10.295
▁healing	-10.2951
▁cavity	-10.2954
▁tickets	-10.2954
▁electronic	-10.2954
▁survive	-10.2965
▁principal	-10.2966
▁Ex	-10.2967
34	-10.297
▁ka	-10.2976
▁told	-10.2983
▁shingles	-10.2986
inch	-10.2992
▁Guide	-10.2993
▁husband	-10.3003
▁Me	-10.3008
▁league	-10.3015
▁2017.	-10.3019
▁harmful	-10.3028
▁hp	-10.3029
ella	-10.3034
▁peak	-10.3034
▁catch	-10.3036
▁et	-10.3039
▁seasons	-10.3044
▁exact	-10.3047
▁therefore	-10.3064
▁requirement	-10.3066
▁mini	-10.3068
▁moved	-10.3073
▁stones	-10.3074
▁interior	-10.3078
▁cow	-10.3079
▁freeze	-10.3085
osis	-10.3087
▁Chicago	-10.3101
90	-10.3104
tr	-10.3106
▁oh	-10.3114
▁worldwide	-10.3115
▁compounds	-10.3117
44	-10.3117
LE	-10.3128
born	-10.313
▁warranty	-10.313
▁bear	-10.3131
rate	-10.3138
▁dosage	-10.314
▁ends	-10.3146
▁leaf	-10.3147
▁camp	-10.315
▁swollen	-10.3151
▁visible	-10.3151
▁Bo	-10.3152
zo	-10.3153
hu	-10.3155
▁sort	-10.3157
▁Western	-10.3164
▁partner	-10.3173
but	-10.3174
▁veins	-10.3175
▁greek	-10.3176
▁acre	-10.3177
▁outlook	-10.3177
bit	-10.3178
▁except	-10.3182
▁electrons	-10.3182
▁context	-10.3188
▁conversion	-10.3188
▁smart	-10.3193
▁Paul	-10.3193
▁pi	-10.3197
▁bra	-10.32
▁Enter	-10.3201
▁lights	-10.3202
▁ky	-10.3207
▁hepatitis	-10.3226
▁Angeles	-10.3227
▁treatments	-10.3229
▁Network	-10.3229
▁salad	-10.324
▁2009	-10.324
▁wet	-10.3244
ric	-10.3247
▁cramps	-10.3249
▁David	-10.325
▁twice	-10.3251
▁kept	-10.3251
▁links	-10.3259
▁alaska	-10.3263
▁William	-10.3264
▁canal	-10.3277
▁theme	-10.3286
▁becoming	-10.3287
▁urinary	-10.3288
▁functional	-10.3292
ight	-10.3296
▁tear	-10.3301
▁tire	-10.3304
▁mm	-10.3307
▁technical	-10.3309
ong	-10.331
▁images	-10.3318
▁drops	-10.3321
▁calorie	-10.3324
▁facilities	-10.3326
▁Robert	-10.3326
▁wound	-10.3328
▁mount	-10.3329
▁beyond	-10.3339
Re	-10.334
▁carpet	-10.334
cc	-10.3344
▁cups	-10.3347
wa	-10.3348
car	-10.3349
▁Map	-10.335
▁mucus	-10.3352
▁pulse	-10.3352
▁germany	-10.3358
48	-10.3362
▁$8	-10.3369
▁islands	-10.3373
can	-10.3374
▁metabolism	-10.3377
▁stream	-10.3377
▁smoke	-10.3379
▁developing	-10.3381
▁congress	-10.34
▁48	-10.3401
▁cardiac	-10.3403
▁italy	-10.3404
▁Next	-10.3405
▁Italian	-10.3418
▁Law	-10.3419
▁mc	-10.3426
33	-10.3426
▁academic	-10.3428
▁hole	-10.3435
▁ID	-10.3436
such	-10.3444
65	-10.3447
▁spots	-10.3451
▁Irish	-10.3456
05	-10.3459
▁ideas	-10.3459
fe	-10.3464
▁horses	-10.3467
▁graph	-10.347
ble	-10.347
▁Full	-10.3472
▁Valley	-10.3479
▁forest	-10.3482
▁tub	-10.3484
▁seems	-10.3487
▁Remove	-10.3488
▁expression	-10.3489
ck	-10.3494
▁belong	-10.3499
led	-10.35
▁aluminum	-10.3505
▁voltage	-10.3505
▁2015.	-10.3514
▁par	-10.3516
▁comprehensive	-10.3518
▁vacation	-10.3518
▁Press	-10.3523
▁ni	-10.3523
▁cultural	-10.3525
ria	-10.3528
▁gram	-10.3528
▁Jersey	-10.353
▁150	-10.3534
▁fatty	-10.3536
▁cutting	-10.3537
▁tender	-10.3538
64	-10.3539
pm	-10.354
▁mono	-10.3546
▁bright	-10.3546
▁infected	-10.3551
▁historical	-10.3553
▁Pa	-10.3554
▁genre	-10.356
▁continent	-10.356
▁Army	-10.3561
▁virginia	-10.3565
▁buying	-10.3569
▁brought	-10.3569
ome	-10.357
▁sites	-10.358
▁genes	-10.3581
▁poly	-10.3581
▁ok	-10.3582
▁intended	-10.3585
▁plug	-10.3587
▁depth	-10.3589
▁courses	-10.3589
▁reset	-10.3591
▁van	-10.3591
▁teams	-10.3593
▁assistance	-10.3596
cho	-10.3597
▁specifically	-10.3599
▁tie	-10.36
▁container	-10.3604
▁Season	-10.361
hr	-10.3611
▁audio	-10.3612
▁advance	-10.3618
mg	-10.3619
▁urban	-10.3621
▁Welcome	-10.3621
▁corner	-10.3629
▁technique	-10.3631
▁handle	-10.3631
ning	-10.3638
▁airline	-10.3639
ho	-10.3642
▁yearly	-10.3644
nic	-10.3645
▁importance	-10.3648
▁renew	-10.3652
▁seem	-10.3652
▁greatest	-10.3654
▁conduct	-10.3656
▁weakness	-10.3657
▁broad	-10.3657
▁bachelor	-10.366
▁independence	-10.366
▁fishing	-10.3665
▁extreme	-10.3669
▁technician	-10.3671
more	-10.3671
chi	-10.3675
▁supplement	-10.3677
▁Set	-10.3679
▁raised	-10.368
ob	-10.3683
▁tumor	-10.3684
▁decide	-10.3686
▁microwave	-10.3687
▁shared	-10.3688
▁ro	-10.3689
▁shell	-10.3692
▁loans	-10.3692
▁Ad	-10.3693
80	-10.3694
ec	-10.3696
▁elevation	-10.37
▁flash	-10.3701
▁thus	-10.3702
ata	-10.3703
▁sensation	-10.3713
▁advice	-10.3713
▁kinds	-10.3714
mail	-10.3715
▁nitrogen	-10.3725
▁semi	-10.373
▁mood	-10.3731
▁roughly	-10.3731
▁closest	-10.3733
ach	-10.3736
▁Disney	-10.3738
▁puppy	-10.3739
);	-10.3743
which	-10.3744
▁instrument	-10.3748
▁sequence	-10.3752
▁dairy	-10.3752
▁guitar	-10.3754
▁$100	-10.3755
▁ml	-10.3755
▁birthday	-10.3755
lu	-10.3756
om	-10.3757
▁fourth	-10.3759
za	-10.3761
▁extension	-10.3765
▁Calories	-10.3767
▁THE	-10.3768
▁spoken	-10.3769
▁remote	-10.3771
air	-10.3771
▁instance	-10.3778
▁lb	-10.3781
▁Sometimes	-10.3781
▁Japanese	-10.3781
book	-10.3788
▁agencies	-10.3792
cha	-10.3794
▁Last	-10.3795
▁VA	-10.3802
▁10%	-10.3807
▁met	-10.3807
▁pin	-10.3808
▁selling	-10.3811
▁Constitution	-10.3813
▁az	-10.3815
▁Michigan	-10.3818
▁brother	-10.3818
▁mountains	-10.3822
state	-10.3833
down	-10.3833
▁tail	-10.3838
ura	-10.3838
▁Lo	-10.3838
▁meters	-10.3847
▁africa	-10.3851
▁boys	-10.3856
▁contribution	-10.3859
▁task	-10.3859
ible	-10.3861
▁kg	-10.3864
▁novel	-10.3865
▁ankle	-10.3867
▁fruits	-10.3869
▁wages	-10.3871
▁arizona	-10.3871
▁carolina	-10.3872
▁senior	-10.3873
▁eastern	-10.3879
▁NY	-10.3885
▁advanced	-10.3885
▁Control	-10.3887
56	-10.3889
▁determines	-10.389
we	-10.3897
▁administration	-10.3898
▁purchased	-10.3904
▁surrounding	-10.3905
▁diameter	-10.3912
▁unemployment	-10.3912
▁moves	-10.3912
ks	-10.3912
▁sizes	-10.3914
ability	-10.3921
▁injuries	-10.3925
▁Civil	-10.3936
▁viruses	-10.3937
▁array	-10.3939
▁Canadian	-10.394
▁pulmonary	-10.3942
▁md	-10.3943
▁therapist	-10.3944
▁atomic	-10.3945
▁mixed	-10.3953
▁bodies	-10.3956
39	-10.3957
▁consumer	-10.3963
▁linear	-10.3964
▁coach	-10.3982
▁respond	-10.3984
▁75	-10.3984
200	-10.3995
88	-10.3997
▁Sa	-10.3997
star	-10.4004
▁showing	-10.4004
sp	-10.4005
▁beat	-10.4009
qui	-10.401
▁Town	-10.4011
▁increasing	-10.4012
▁answers	-10.4015
▁classic	-10.4016
▁antibiotics	-10.4019
ical	-10.4019
▁label	-10.4023
▁didn	-10.4023
▁mph	-10.4027
▁george	-10.4032
▁Arizona	-10.4033
▁strategy	-10.4033
▁gel	-10.4033
].	-10.4033
▁Super	-10.4034
▁viral	-10.4035
▁resource	-10.4038
▁las	-10.4042
▁helpful	-10.4043
▁goals	-10.4056
▁calls	-10.4056
▁manufacturing	-10.406
▁pancreas	-10.406
▁te	-10.4063
▁$4	-10.4067
▁Its	-10.4068
▁worker	-10.4074
▁shipping	-10.4074
▁Card	-10.4082
▁acts	-10.4083
▁File	-10.4085
▁france	-10.4091
▁holds	-10.4094
21	-10.4099
▁vegas	-10.4101
▁secret	-10.4104
▁serves	-10.4105
▁headaches	-10.4105
▁eclipse	-10.4115
▁span	-10.4116
▁fibers	-10.4117
▁heard	-10.4126
▁extended	-10.4127
▁2008	-10.4133
▁samsung	-10.4142
▁El	-10.4142
▁info	-10.4142
han	-10.4144
ene	-10.4146
▁collected	-10.4148
▁shift	-10.4149
▁pH	-10.415
▁models	-10.4154
▁mt	-10.4155
▁freezer	-10.4155
▁discharge	-10.4156
▁pm	-10.4158
▁organizations	-10.4158
▁Back	-10.4162
▁Pay	-10.4163
▁pictures	-10.4169
▁empire	-10.4169
ious	-10.417
▁Japan	-10.4183
▁nice	-10.4183
▁humidity	-10.4184
▁plates	-10.4186
point	-10.419
▁Keep	-10.4192
▁1000	-10.4195
▁Insurance	-10.4197
▁association	-10.4197
▁sp	-10.4207
▁selected	-10.4209
▁monitor	-10.4211
▁freedom	-10.4212
▁justice	-10.4215
▁owners	-10.4215
▁uterus	-10.4225
▁Colorado	-10.4225
Q	-10.4233
▁Institute	-10.4238
▁Labor	-10.424
▁allergic	-10.4241
top	-10.4241
lic	-10.4244
water	-10.4254
▁ears	-10.4258
▁gum	-10.4263
▁parties	-10.4268
▁fence	-10.4268
▁expense	-10.4274
▁manufacturer	-10.4277
▁abbreviation	-10.4278
▁supplies	-10.428
78	-10.4287
▁excessive	-10.4288
▁characteristic	-10.4289
▁offered	-10.4293
▁defense	-10.4294
▁bankruptcy	-10.4308
▁Community	-10.431
tri	-10.4312
▁indicates	-10.4313
▁assist	-10.4314
ward	-10.4315
▁agents	-10.4317
▁Salary	-10.4322
▁Michael	-10.4323
▁poisoning	-10.4324
▁Vi	-10.4329
▁para	-10.433
tra	-10.4333
▁Low	-10.4335
▁apps	-10.4335
ala	-10.4336
▁circle	-10.4336
▁classification	-10.4337
▁updated	-10.4341
view	-10.4343
ack	-10.435
▁citizens	-10.4352
▁hill	-10.4356
▁Total	-10.4356
46	-10.4363
▁Massachusetts	-10.4364
▁spouse	-10.4364
▁comparison	-10.4364
nie	-10.4364
▁sink	-10.4366
▁follows	-10.4366
▁movements	-10.4366
▁sudden	-10.437
▁effort	-10.4374
▁Trump	-10.4378
▁ip	-10.4379
▁Pain	-10.4385
ging	-10.4389
▁calendar	-10.4392
▁counties	-10.4394
▁olive	-10.4396
▁Key	-10.4402
uff	-10.4405
▁sharp	-10.4416
▁toxic	-10.4417
▁upload	-10.4426
▁5.	-10.4433
▁achieve	-10.4434
▁checks	-10.4434
▁Every	-10.4437
▁gray	-10.444
ko	-10.4442
▁liability	-10.4448
▁Kingdom	-10.4448
▁crown	-10.4449
▁Hall	-10.4461
rie	-10.4462
▁itching	-10.4464
▁colour	-10.4466
▁Online	-10.4468
▁Ra	-10.447
▁narrow	-10.4471
▁reverse	-10.4478
▁si	-10.4488
sis	-10.4501
▁Fort	-10.4502
mb	-10.4503
▁Test	-10.4503
▁moment	-10.4508
▁rapid	-10.4513
25	-10.4515
▁entity	-10.452
▁james	-10.4521
▁tour	-10.4523
54	-10.4524
▁consume	-10.4526
▁solutions	-10.4528
ino	-10.4531
▁vessel	-10.4533
▁stamp	-10.4533
04	-10.4534
aw	-10.4536
lon	-10.4541
▁Cook	-10.4547
▁marks	-10.4548
▁franchise	-10.4548
RE	-10.4551
09	-10.4552
37	-10.4554
▁linked	-10.456
▁digestion	-10.4563
ST	-10.4563
▁ounce	-10.4566
▁(4	-10.4566
▁orbit	-10.4568
▁Roman	-10.4573
▁recover	-10.4576
▁DVD	-10.458
▁pilot	-10.4581
▁accept	-10.4584
▁Customer	-10.4585
▁belt	-10.4588
▁workout	-10.459
▁keyboard	-10.4592
▁Year	-10.4602
▁Ocean	-10.4605
▁residential	-10.4605
▁lo	-10.4606
▁award	-10.4608
▁techniques	-10.4609
▁deer	-10.461
▁compare	-10.4611
▁prepared	-10.4612
ED	-10.4618
2.	-10.4624
▁gases	-10.463
▁Ireland	-10.4634
▁vegetable	-10.4635
▁tiny	-10.4642
▁heating	-10.4644
▁bell	-10.4645
07	-10.466
▁rear	-10.4662
▁attend	-10.4666
▁Science	-10.4667
▁fingers	-10.4669
ki	-10.4671
40	-10.4676
▁criteria	-10.4677
▁chicago	-10.4677
▁accepted	-10.4678
▁Out	-10.4687
▁120	-10.4688
▁contributions	-10.4691
gate	-10.4691
▁Land	-10.4692
▁aircraft	-10.4693
▁dimensions	-10.4696
▁hi	-10.4696
▁50%	-10.4702
fa	-10.4708
ette	-10.4709
don	-10.4712
▁bite	-10.4719
▁abdomen	-10.472
▁relief	-10.472
▁suggest	-10.4737
▁weak	-10.4743
▁gallons	-10.4744
burg	-10.4752
▁Chinese	-10.4752
▁Only	-10.4753
▁En	-10.4756
▁stages	-10.4758
▁extract	-10.4762
▁standing	-10.4765
▁transaction	-10.4768
▁IN	-10.4774
act	-10.4778
▁huge	-10.4784
▁input	-10.4786
▁USB	-10.479
▁consumption	-10.4793
▁elevated	-10.4795
ae	-10.4797
▁associate	-10.4799
ag	-10.48
▁resort	-10.48
related	-10.4801
▁teaching	-10.481
▁chromosome	-10.4812
▁hat	-10.4814
lar	-10.4815
▁jump	-10.4817
▁laser	-10.482
▁tablet	-10.4824
▁hay	-10.4828
gen	-10.483
▁cite	-10.4831
mat	-10.4835
▁worse	-10.4835
▁categories	-10.4837
▁photosynthesis	-10.4837
▁elected	-10.4842
▁400	-10.4843
▁bike	-10.4844
100	-10.4862
▁th	-10.4862
▁TX	-10.4864
▁min	-10.4865
▁tattoo	-10.4873
▁estimates	-10.4874
▁frequent	-10.4874
▁(1)	-10.4876
▁lbs	-10.4877
▁sensor	-10.488
▁saying	-10.488
ick	-10.4881
-3	-10.4881
▁bought	-10.4881
▁beauty	-10.4881
▁damaged	-10.4882
▁nfl	-10.4883
▁sets	-10.4885
▁Rights	-10.4886
ett	-10.4894
▁Where	-10.4896
▁cotton	-10.4896
▁happy	-10.4896
96	-10.4897
▁leadership	-10.4897
▁particles	-10.4898
▁RE	-10.4901
ax	-10.4907
86	-10.491
▁secure	-10.491
▁identity	-10.4911
08	-10.4918
▁bile	-10.4919
▁sinus	-10.4923
▁Quick	-10.4924
▁Treatment	-10.4927
▁contrast	-10.4927
▁lamb	-10.4928
▁agree	-10.4929
▁actions	-10.4932
▁attempt	-10.4933
▁jet	-10.4936
▁gave	-10.4938
85	-10.4945
low	-10.4951
hour	-10.4954
▁sounds	-10.4955
▁substitute	-10.4957
02	-10.4962
ez	-10.4963
▁CD	-10.4964
gg	-10.4968
▁peace	-10.4975
ada	-10.4977
▁annually	-10.4978
▁directed	-10.4981
47	-10.4989
▁carrier	-10.4995
▁honor	-10.5001
▁2003	-10.5009
▁Ba	-10.5013
ena	-10.5014
▁excellent	-10.5015
▁Android	-10.5016
▁nor	-10.5027
▁logo	-10.5033
▁coal	-10.5033
▁cyst	-10.5036
▁Anti	-10.504
▁regulation	-10.5044
▁pizza	-10.5045
▁lu	-10.5046
▁route	-10.5048
▁controller	-10.5049
▁church	-10.5059
▁dc	-10.506
▁london	-10.506
▁shares	-10.5064
▁listing	-10.5076
▁Non	-10.5077
▁push	-10.5077
ita	-10.5077
▁guy	-10.5077
▁draft	-10.5078
▁tropical	-10.5081
▁Ro	-10.5085
▁appointment	-10.5091
▁duration	-10.5091
▁delta	-10.5092
▁giant	-10.5092
26	-10.5093
▁Play	-10.5101
▁Outlook	-10.5105
ano	-10.5107
▁genus	-10.5107
▁fitness	-10.5108
▁vaginal	-10.5117
▁terminal	-10.5117
▁moderate	-10.5118
23	-10.512
▁tobacco	-10.512
▁evolve	-10.5122
▁hemoglobin	-10.5124
▁bull	-10.5132
▁divide	-10.5133
▁desktop	-10.5136
▁boiled	-10.5138
▁Manager	-10.5141
▁Men	-10.5141
▁ahead	-10.5144
▁ho	-10.5145
▁100%	-10.5146
▁subscription	-10.5151
▁composition	-10.5151
▁hardware	-10.5152
ever	-10.5154
▁Save	-10.5158
ery	-10.5163
▁allergies	-10.5166
▁campaign	-10.5166
▁opportunity	-10.5166
▁chinese	-10.5166
▁respect	-10.5168
▁seats	-10.517
▁reached	-10.5174
▁fracture	-10.518
▁ages	-10.5181
▁wrist	-10.5197
▁blocks	-10.5199
▁goods	-10.5202
▁toll	-10.5202
ken	-10.5205
ware	-10.5207
▁citizen	-10.5211
art	-10.5216
ding	-10.5225
▁temporary	-10.5227
▁habitat	-10.5227
ay	-10.5228
▁Related	-10.5232
ised	-10.5238
▁2018	-10.524
▁Support	-10.5242
▁2016.	-10.5242
▁0.	-10.5245
ep	-10.525
▁$15	-10.5253
▁branches	-10.5254
▁font	-10.5259
▁audit	-10.5264
▁gun	-10.5282
▁trouble	-10.5283
▁religion	-10.5288
tu	-10.5288
▁Saturday	-10.529
ai	-10.5292
▁videos	-10.5295
▁import	-10.5298
▁clause	-10.5303
▁Tennessee	-10.5304
▁policies	-10.5304
▁arrive	-10.5304
▁rainfall	-10.5304
ara	-10.5312
▁protected	-10.5313
▁Music	-10.5317
▁headquarters	-10.5319
▁edit	-10.532
▁Choose	-10.5321
▁Review	-10.5321
▁Who	-10.5321
▁platform	-10.5321
5%	-10.5323
▁contractor	-10.5323
▁script	-10.5326
▁finding	-10.5329
▁Senate	-10.5335
▁jaw	-10.5342
▁33	-10.5346
▁ta	-10.5346
▁false	-10.535
ost	-10.5353
▁wanted	-10.5367
▁pack	-10.5371
▁nodes	-10.5373
dd	-10.5373
57	-10.5375
▁producing	-10.5377
▁mouse	-10.5383
bb	-10.5383
▁Township	-10.5397
▁wonder	-10.54
▁evaluation	-10.54
-5	-10.5403
ue	-10.5406
▁mom	-10.5411
▁universal	-10.5412
▁asset	-10.5417
▁offering	-10.5417
▁Origin	-10.5424
▁%	-10.5426
8%	-10.5426
▁ceiling	-10.5427
▁Southern	-10.5428
▁template	-10.5428
▁55	-10.5429
▁lawyer	-10.543
▁purple	-10.5431
pen	-10.5432
▁MD	-10.5434
ons	-10.5436
▁wax	-10.5442
▁leaving	-10.5443
▁boundary	-10.5444
MS	-10.5445
▁otherwise	-10.5447
▁$9	-10.5451
▁popularity	-10.5452
ES	-10.5453
You	-10.5454
AS	-10.5454
▁strain	-10.5459
▁remedies	-10.5459
rin	-10.546
▁talking	-10.5468
74	-10.5471
▁lean	-10.5472
For	-10.5475
▁Help	-10.5475
▁lots	-10.5479
nes	-10.5479
▁carries	-10.548
-4	-10.5482
▁attacks	-10.5485
▁plural	-10.5485
▁launch	-10.5491
▁painting	-10.5493
▁pad	-10.5497
▁songs	-10.5497
SS	-10.5498
98	-10.5499
▁filed	-10.55
▁Se	-10.5501
▁employers	-10.5505
▁submit	-10.5505
▁Date	-10.5505
▁acres	-10.5505
▁sim	-10.5506
▁parallel	-10.5508
▁slowly	-10.5509
▁projects	-10.5515
▁spectrum	-10.5521
If	-10.5525
▁teachers	-10.5526
▁pe	-10.5527
▁lining	-10.5527
▁Photo	-10.5531
▁Video	-10.5531
bu	-10.5532
6%	-10.5534
43	-10.5534
▁dust	-10.5537
▁Oregon	-10.5537
76	-10.5539
7%	-10.554
▁towards	-10.5547
▁du	-10.5551
▁fields	-10.5551
▁replaced	-10.5552
▁specified	-10.5553
▁Hot	-10.5565
▁guidelines	-10.5569
▁kingdom	-10.5569
▁Northern	-10.5569
▁AND	-10.557
ice	-10.5583
▁Brown	-10.5585
ual	-10.5587
ren	-10.5589
▁relieve	-10.559
83	-10.5591
▁Jan	-10.5591
▁mentioned	-10.5592
▁1:	-10.5597
▁Government	-10.56
▁equity	-10.5601
part	-10.5601
foot	-10.5602
▁FL	-10.5602
▁apartment	-10.5607
iv	-10.5608
▁hire	-10.5612
▁diagnosed	-10.5613
▁underlying	-10.5617
▁Club	-10.5617
▁prefer	-10.5617
▁fats	-10.5624
▁everyday	-10.5624
▁rub	-10.5627
▁League	-10.5632
▁po	-10.5633
▁2006	-10.5636
▁curve	-10.5637
▁RNA	-10.5637
▁Table	-10.5641
▁emotional	-10.5642
▁soda	-10.5644
▁discover	-10.5645
-19	-10.5646
▁sores	-10.5648
▁moisture	-10.5648
▁regulations	-10.5655
▁stretch	-10.5656
▁sensitive	-10.5657
[	-10.5664
▁Thursday	-10.5664
▁Women	-10.5664
▁pronounce	-10.5667
▁judge	-10.5669
▁Their	-10.5672
▁leads	-10.5672
▁Edit	-10.5674
▁election	-10.5687
▁Net	-10.5694
▁Tuesday	-10.5696
hether	-10.5698
▁turned	-10.5699
▁upgrade	-10.5703
ists	-10.5705
▁settlement	-10.5713
▁flooring	-10.5714
▁dragon	-10.5714
from	-10.5714
illa	-10.572
79	-10.5727
▁Lincoln	-10.5728
▁alabama	-10.5728
▁$20	-10.5734
fer	-10.574
▁tablets	-10.5741
che	-10.5743
73	-10.5745
jo	-10.5745
▁Overview	-10.5745
light	-10.5746
ash	-10.5753
▁calling	-10.5754
▁remaining	-10.5758
▁Turn	-10.5759
▁connective	-10.5763
▁sausage	-10.5776
▁minecraft	-10.5777
▁nurses	-10.5777
▁Italy	-10.5777
▁Below	-10.5777
▁Section	-10.5778
▁hernia	-10.5778
▁adjective	-10.5781
tal	-10.5782
▁OF	-10.5784
▁electron	-10.5785
▁harm	-10.5792
▁duct	-10.5793
▁interface	-10.5793
▁batteries	-10.5793
▁spending	-10.5794
med	-10.5796
care	-10.5802
▁scientists	-10.5802
500	-10.5804
AN	-10.5805
▁lists	-10.5805
▁updates	-10.5806
ign	-10.5806
▁smallest	-10.5807
▁Administration	-10.5809
ions	-10.581
▁empty	-10.5811
▁adjust	-10.5812
▁august	-10.5824
▁triangle	-10.5825
▁Li	-10.5826
▁Market	-10.5826
89	-10.5827
▁diagnose	-10.5828
▁grain	-10.583
¦.	-10.584
▁tin	-10.5841
ib	-10.5841
▁jack	-10.5841
▁nest	-10.5842
▁Light	-10.5843
▁ch	-10.5843
▁vent	-10.5855
▁deliver	-10.5858
pre	-10.5858
oo	-10.5862
▁experienced	-10.5864
▁rack	-10.5871
bury	-10.5871
▁identified	-10.5874
▁rural	-10.5874
fi	-10.5875
▁nba	-10.5877
▁founder	-10.5883
▁powers	-10.5885
era	-10.5887
▁2014.	-10.5892
▁roles	-10.5893
ming	-10.5895
97	-10.59
▁dizziness	-10.5906
▁thumb	-10.5906
▁transplant	-10.5907
▁su	-10.5908
▁Grand	-10.5909
▁closely	-10.5909
▁musical	-10.5914
▁progress	-10.5915
▁$50	-10.5923
▁exposed	-10.5926
▁directions	-10.5937
▁Big	-10.5939
▁clothing	-10.5939
▁pneumonia	-10.5939
ms	-10.5939
▁bigger	-10.5942
▁ed	-10.5943
▁Change	-10.5947
AP	-10.5956
58	-10.5959
66	-10.5961
ik	-10.5965
▁Fat	-10.5966
▁destination	-10.5969
▁Fahrenheit	-10.5972
▁lincoln	-10.5972
▁banks	-10.5972
▁Hospital	-10.5973
▁Ho	-10.5974
▁Hu	-10.5976
▁Ka	-10.5978
▁seal	-10.5988
od	-10.5991
▁continental	-10.5991
▁spain	-10.5992
eb	-10.5994
▁pills	-10.5994
▁Heat	-10.5999
▁diamond	-10.6001
▁keeping	-10.6002
ew	-10.6003
▁michael	-10.6007
▁180	-10.6008
1%	-10.6012
▁ban	-10.6015
ID	-10.6021
▁Example	-10.6021
▁dentist	-10.6021
▁Wednesday	-10.6022
▁shrimp	-10.6022
▁gear	-10.6022
▁springs	-10.6029
▁crystal	-10.6037
ther	-10.6039
▁$7	-10.604
▁topic	-10.6041
▁ko	-10.6041
▁articles	-10.6049
▁providers	-10.6053
▁landlord	-10.6055
▁inspection	-10.6055
ns	-10.6062
▁Travel	-10.6069
3%	-10.6069
▁representative	-10.6069
▁brush	-10.607
▁smoking	-10.6071
CO	-10.6073
▁Wood	-10.6073
▁beta	-10.6085
▁Game	-10.6086
▁japan	-10.6088
▁TO	-10.6099
▁boost	-10.6101
▁plain	-10.6101
▁loose	-10.6102
▁vital	-10.6104
▁gravity	-10.6105
▁combine	-10.6106
▁cu	-10.6107
▁institution	-10.6112
2%	-10.6114
▁Color	-10.6115
▁op	-10.6115
▁licensed	-10.6116
▁34	-10.6116
▁Follow	-10.6118
▁filled	-10.6121
▁utility	-10.6121
▁operate	-10.6123
▁Children	-10.6139
▁Ni	-10.615
▁cal	-10.6153
▁storm	-10.6153
▁mutation	-10.6154
▁Spain	-10.6157
▁choices	-10.6161
▁fa	-10.6163
▁comp	-10.6171
▁Mississippi	-10.6172
▁significance	-10.6172
▁galaxy	-10.6172
pp	-10.6172
▁arrest	-10.6173
41	-10.6173
▁reporting	-10.6174
qua	-10.6174
▁creates	-10.6176
▁NC	-10.6178
EN	-10.6181
▁noise	-10.6182
▁Vitamin	-10.6188
▁menstrual	-10.6191
with	-10.6197
▁credits	-10.6199
▁oils	-10.6202
▁wisconsin	-10.6205
▁rank	-10.6209
▁Work	-10.6211
▁tried	-10.6215
▁hawaii	-10.6219
form	-10.6221
▁numerous	-10.6222
▁allergy	-10.6222
▁collagen	-10.6222
▁Visit	-10.6222
▁trading	-10.6222
▁reduction	-10.6223
SE	-10.6226
▁extend	-10.6236
▁snake	-10.6239
▁Britain	-10.6239
▁quantity	-10.6239
▁consent	-10.6239
▁discuss	-10.624
▁library	-10.6242
▁sha	-10.625
▁nations	-10.625
▁pairs	-10.6251
▁distinct	-10.6251
ose	-10.6254
▁antibiotic	-10.6256
▁turns	-10.6263
▁broker	-10.6265
▁accident	-10.6268
▁ad	-10.6269
▁soup	-10.6272
▁nails	-10.6273
▁jackson	-10.6273
▁examination	-10.6273
▁earthquake	-10.6274
▁patent	-10.6275
▁LLC	-10.6275
▁Zone	-10.6275
▁treating	-10.628
ct	-10.6281
▁precipitation	-10.629
▁swimming	-10.629
▁transmitted	-10.629
▁vapor	-10.629
▁listings	-10.6301
71	-10.6301
og	-10.6303
ker	-10.6305
▁Sheriff	-10.6307
▁responsibility	-10.6307
▁Therefore	-10.6307
▁pokemon	-10.6307
▁Mark	-10.6308
▁passes	-10.6308
tor	-10.6312
▁Port	-10.6313
▁professionals	-10.6314
▁believed	-10.6322
▁resolution	-10.6324
▁boot	-10.6324
▁proof	-10.6325
set	-10.6326
▁palm	-10.6328
▁Ar	-10.6333
▁german	-10.6336
▁mu	-10.6336
▁stuff	-10.634
▁vinyl	-10.6341
▁grows	-10.6341
▁kick	-10.6344
▁NOT	-10.635
▁magazine	-10.636
▁vein	-10.6363
ball	-10.6365
tz	-10.6366
▁forming	-10.6367
▁sap	-10.6369
▁principles	-10.637
▁shooting	-10.6372
▁gout	-10.6373
▁programming	-10.6377
▁applying	-10.638
▁Si	-10.6383
▁Lu	-10.6384
▁Roth	-10.6393
▁promote	-10.6402
▁roth	-10.6403
▁mis	-10.6404
▁poison	-10.6406
fish	-10.6406
▁usual	-10.6406
▁exists	-10.6409
▁cartilage	-10.6409
▁variables	-10.641
▁educational	-10.641
▁mechanism	-10.6413
▁estrogen	-10.6413
▁tower	-10.6414
▁HIV	-10.6418
▁interested	-10.642
▁lee	-10.642
▁texture	-10.6425
▁resume	-10.6427
▁Boston	-10.6427
▁Local	-10.6429
-6	-10.643
ung	-10.6432
▁cd	-10.6443
uring	-10.6446
▁Eastern	-10.6446
▁Benefits	-10.6447
▁brands	-10.6447
▁Watch	-10.6455
▁recognized	-10.6458
ona	-10.6459
ug	-10.6463
▁Store	-10.6463
▁Live	-10.6464
ets	-10.6465
51	-10.6468
▁supposed	-10.6473
▁varieties	-10.6478
▁Kansas	-10.6481
▁fashion	-10.6487
▁assigned	-10.6492
▁Bra	-10.6492
▁administrative	-10.6496
▁superior	-10.6496
▁dried	-10.6497
▁recording	-10.6498
▁principle	-10.6501
▁gap	-10.6501
▁ar	-10.6504
▁del	-10.6508
81	-10.6509
▁strip	-10.6513
▁spark	-10.6513
▁guard	-10.6514
▁tomatoes	-10.6518
92	-10.6525
▁Minnesota	-10.6531
▁Statistics	-10.6531
▁tires	-10.6532
ini	-10.6533
ified	-10.6536
▁restore	-10.6537
▁Ha	-10.6539
▁sa	-10.6545
▁enable	-10.6546
noun	-10.6547
ero	-10.6547
▁circulation	-10.6548
▁checking	-10.6549
▁america	-10.655
▁Drive	-10.6553
▁notes	-10.6554
▁vertical	-10.6558
tes	-10.6561
▁Natural	-10.6565
ute	-10.6567
▁hiv	-10.6571
▁factory	-10.6572
▁sharing	-10.6572
▁expressed	-10.6573
▁cent	-10.6574
vis	-10.6576
▁magnetic	-10.6578
▁Figure	-10.6579
▁algae	-10.6583
▁jury	-10.6584
▁dominant	-10.6587
▁www	-10.6587
▁african	-10.6592
ification	-10.6595
▁positions	-10.6598
▁Description	-10.6601
▁transportation	-10.6603
▁Baby	-10.6603
row	-10.6603
▁tallest	-10.6605
sen	-10.6612
▁Dec	-10.6615
▁Love	-10.6616
▁significantly	-10.6618
▁isn	-10.662
▁stations	-10.6622
▁producer	-10.6622
rk	-10.6622
▁manner	-10.6624
▁vet	-10.6624
▁sister	-10.6628
▁Try	-10.6631
▁turning	-10.6635
▁communities	-10.6636
▁Cl	-10.6636
▁duties	-10.6636
▁Indiana	-10.6636
rich	-10.6638
▁Head	-10.6643
▁episodes	-10.6646
br	-10.6647
▁Well	-10.6649
▁margin	-10.6649
▁glasses	-10.6651
▁dinner	-10.6653
▁Weight	-10.6661
CA	-10.6663
▁quote	-10.6666
▁managers	-10.6666
click	-10.6669
ld	-10.6672
▁Language	-10.6673
▁1980	-10.6674
94	-10.6676
▁seizures	-10.6678
▁tan	-10.6679
▁eventually	-10.6688
▁tight	-10.6689
lum	-10.669
▁partial	-10.669
▁Cal	-10.6694
tis	-10.6694
▁dating	-10.6695
▁pie	-10.6696
▁pharmacy	-10.6706
▁squash	-10.6706
▁vascular	-10.6707
▁Christian	-10.6708
ular	-10.6709
▁Po	-10.671
▁lies	-10.6711
▁ingredient	-10.6715
▁surgeon	-10.6717
4%	-10.672
▁Bi	-10.6721
▁oak	-10.6725
▁deaths	-10.6732
tan	-10.6736
▁ireland	-10.6742
▁trailer	-10.6743
▁shake	-10.6748
▁qualified	-10.6749
sburg	-10.675
▁Have	-10.6759
▁Medicine	-10.6759
tation	-10.6761
▁competitive	-10.6762
▁android	-10.6765
▁cor	-10.6768
tive	-10.6773
▁trigger	-10.6773
▁acidic	-10.6777
▁Cor	-10.6777
▁synthesis	-10.6782
RA	-10.6783
▁breaks	-10.6785
▁250	-10.6789
▁outdoor	-10.6792
▁1990	-10.68
▁bags	-10.68
including	-10.6801
amine	-10.6802
▁daylight	-10.6802
▁immediate	-10.6806
▁clients	-10.6806
▁conflict	-10.6807
▁stable	-10.6809
CC	-10.6811
ave	-10.6811
▁checked	-10.6812
▁professor	-10.6813
▁structural	-10.6813
▁acne	-10.6814
cent	-10.6816
lock	-10.6821
▁virtual	-10.6823
▁hypo	-10.6823
▁brief	-10.6824
▁clock	-10.6826
▁Mary	-10.6827
▁gallbladder	-10.6831
▁conference	-10.6831
▁slang	-10.6832
▁truth	-10.6832
▁Class	-10.6834
▁Ga	-10.6842
▁sing	-10.6847
▁roman	-10.6847
▁$6	-10.6848
▁Jackson	-10.6848
▁mileage	-10.6851
400	-10.6852
▁helped	-10.6852
▁dietary	-10.6854
log	-10.6855
▁pill	-10.6859
▁gu	-10.6863
zi	-10.6864
▁judgment	-10.6867
▁applies	-10.6867
▁spin	-10.6872
IT	-10.6874
▁(5	-10.6877
▁pasta	-10.6877
▁ju	-10.6881
▁Right	-10.6882
▁tu	-10.6882
▁Current	-10.6882
▁relation	-10.6884
▁decisions	-10.6884
▁peripheral	-10.6885
pin	-10.6885
▁Express	-10.6886
63	-10.6886
AL	-10.6888
az	-10.689
▁approval	-10.6903
▁ending	-10.6904
▁navy	-10.6905
▁continuous	-10.6914
gar	-10.6915
su	-10.6915
42	-10.6917
▁brick	-10.6919
▁summary	-10.6921
▁fungi	-10.6922
▁abuse	-10.6922
▁chi	-10.6923
▁deduct	-10.6923
▁wheat	-10.6925
box	-10.6931
▁tunnel	-10.6939
▁Heart	-10.6942
▁OK	-10.6944
▁2013,	-10.6944
87	-10.6947
▁metals	-10.6949
▁gone	-10.695
▁random	-10.695
68	-10.6953
▁tomato	-10.6953
▁calculation	-10.6953
cm	-10.6955
▁Depending	-10.6958
▁Abuse	-10.6958
gov	-10.6963
▁signals	-10.6964
▁massage	-10.6972
▁yield	-10.6975
▁relevant	-10.6975
▁iowa	-10.6976
▁Dis	-10.6977
▁gi	-10.6977
▁newborn	-10.6982
▁poem	-10.6992
▁involve	-10.6994
▁spelling	-10.6994
▁buildings	-10.6994
▁tag	-10.6996
▁Pi	-10.7
▁basement	-10.7002
▁ob	-10.7002
▁younger	-10.7003
▁pine	-10.7006
ox	-10.7008
▁lifetime	-10.7011
▁previously	-10.7011
▁practices	-10.7019
▁Hill	-10.7022
▁rings	-10.7023
▁teaspoon	-10.7027
▁opinion	-10.7028
▁legally	-10.7028
▁Look	-10.7028
▁adrenal	-10.7029
▁Financial	-10.703
▁Division	-10.703
▁#1	-10.7032
▁suit	-10.7033
▁till	-10.7035
▁meals	-10.7037
▁MA	-10.7041
▁1960	-10.7044
▁infant	-10.7045
ological	-10.7047
AR	-10.7051
▁Access	-10.7051
▁onion	-10.7054
▁zones	-10.7056
▁Plus	-10.7062
▁receiving	-10.7067
▁swim	-10.7071
▁floors	-10.7072
▁Ko	-10.7073
▁males	-10.7075
▁1.5	-10.7076
▁2002	-10.7077
▁fo	-10.7078
gra	-10.708
▁screening	-10.708
▁manual	-10.708
▁clerk	-10.7085
▁flying	-10.7086
▁Columbia	-10.7087
▁foil	-10.7087
▁difficulty	-10.7089
▁clothes	-10.7089
▁Mail	-10.709
▁renewal	-10.7093
▁figures	-10.7093
most	-10.7094
exe	-10.7096
▁republic	-10.71
▁preparation	-10.7104
▁vacuum	-10.7104
▁zinc	-10.7104
▁ZIP	-10.7104
▁lip	-10.7104
▁menopause	-10.7105
▁lifestyle	-10.7106
▁thickness	-10.7109
▁synthetic	-10.7109
coming	-10.7111
▁Republic	-10.7118
▁Introduction	-10.7123
▁circumstances	-10.7123
▁facial	-10.7126
▁Design	-10.7129
fl	-10.7132
law	-10.7133
9%	-10.7135
▁MS	-10.7136
▁ranked	-10.7139
▁missouri	-10.7141
▁Nurse	-10.7141
▁breakdown	-10.7142
▁trail	-10.715
2)	-10.715
▁Ke	-10.715
▁Gold	-10.7153
03	-10.7159
▁Schedule	-10.7159
▁eBay	-10.7159
▁axis	-10.716
06	-10.7163
▁tumors	-10.7163
▁arch	-10.7164
▁females	-10.7166
lie	-10.7169
▁rod	-10.7171
dia	-10.7175
77	-10.7177
▁Three	-10.7178
▁laboratory	-10.7178
▁transition	-10.7181
ius	-10.7183
▁equals	-10.7184
▁backup	-10.7185
▁pdf	-10.7191
▁Pass	-10.7191
▁tested	-10.7193
▁$25	-10.7194
name	-10.7195
▁Qu	-10.7199
▁Project	-10.72
MA	-10.7201
▁Ne	-10.7204
▁350	-10.7205
▁72	-10.7206
▁ver	-10.7207
hy	-10.7211
▁dedicated	-10.7215
▁tennis	-10.7215
▁analyst	-10.7216
▁session	-10.7217
▁presidential	-10.7218
▁studio	-10.722
▁doors	-10.7221
▁Art	-10.7221
are	-10.7222
▁familiar	-10.7225
▁prince	-10.7228
▁neuropathy	-10.7234
▁leather	-10.7234
▁tenant	-10.7237
▁apa	-10.7238
▁Early	-10.7238
AM	-10.7249
▁attach	-10.7251
▁Library	-10.7252
▁Gas	-10.7253
▁persons	-10.7255
▁Coast	-10.7255
▁felt	-10.7256
▁wrap	-10.7257
▁trim	-10.7257
▁entered	-10.7258
▁hydro	-10.7261
▁2001	-10.7264
▁leak	-10.7265
▁dye	-10.7265
▁Thus	-10.7268
▁regional	-10.7271
▁Ford	-10.7272
ins	-10.7279
▁pollution	-10.729
▁psychological	-10.729
▁herpes	-10.729
▁Mountain	-10.7292
fo	-10.7296
▁(18	-10.7302
1,	-10.7303
▁Auto	-10.7304
▁Book	-10.7306
▁volcano	-10.7306
▁baked	-10.7308
▁tells	-10.731
cer	-10.731
▁protocol	-10.7311
▁er	-10.7316
▁Does	-10.7317
SA	-10.7318
▁centers	-10.732
53	-10.7321
ji	-10.7324
▁mirror	-10.7327
▁Sub	-10.7328
▁efficient	-10.7329
▁martin	-10.733
▁2)	-10.7333
▁rough	-10.7334
▁capable	-10.7338
▁Rate	-10.7341
▁obtained	-10.7342
▁nasal	-10.7342
▁Generally	-10.7346
▁boundaries	-10.7346
▁numbness	-10.7347
▁signature	-10.7347
▁molecular	-10.735
▁renal	-10.7351
▁Main	-10.7352
▁rep	-10.7355
istic	-10.7364
▁measuring	-10.7365
▁ovulation	-10.7365
▁skeletal	-10.7365
61	-10.7366
▁magic	-10.737
▁Fair	-10.7371
▁Tom	-10.7371
.8	-10.738
▁ST	-10.7384
▁Corporation	-10.7384
▁furniture	-10.7384
▁houston	-10.7384
▁ultrasound	-10.7384
▁Wikipedia	-10.7384
▁experiment	-10.7384
▁himself	-10.7384
▁Buy	-10.7385
▁bulb	-10.7388
▁Australian	-10.739
▁sole	-10.7393
▁$1,000	-10.7397
ek	-10.7398
▁ke	-10.74
▁territory	-10.7403
▁Obama	-10.7403
▁weekly	-10.7406
▁concern	-10.7408
-7	-10.7413
▁absolute	-10.7415
▁onions	-10.7416
test	-10.7417
▁hy	-10.7417
▁Sale	-10.7418
▁europe	-10.7419
▁Connect	-10.7421
▁automatic	-10.7422
▁Thomas	-10.7422
▁oklahoma	-10.7422
▁rarely	-10.7426
▁mature	-10.7426
▁pole	-10.743
ear	-10.7431
room	-10.7436
CH	-10.7437
▁processed	-10.744
▁commission	-10.744
▁37	-10.7443
uc	-10.7447
kg	-10.7447
▁meanings	-10.7451
▁teach	-10.7452
▁identification	-10.746
▁Oil	-10.7461
▁slavery	-10.7461
ast	-10.7461
67	-10.7463
▁campus	-10.7465
▁evening	-10.7466
▁chair	-10.747
▁hook	-10.7471
▁react	-10.7471
▁views	-10.7472
▁arc	-10.7473
rick	-10.7474
▁2013.	-10.7475
late	-10.7477
berg	-10.7477
▁metric	-10.7478
▁opportunities	-10.7479
▁officers	-10.7482
▁Sign	-10.7484
▁IT	-10.7491
▁passing	-10.7491
▁spiritual	-10.7499
▁rubber	-10.7499
▁unknown	-10.75
val	-10.75
▁Will	-10.7503
▁guarantee	-10.7504
▁wings	-10.7506
▁offenders	-10.7509
▁tone	-10.7511
▁2015,	-10.7511
ole	-10.7512
▁tracking	-10.7512
meter	-10.7513
▁trauma	-10.7517
▁Download	-10.7518
▁shopping	-10.7519
▁Second	-10.7519
level	-10.7521
▁fault	-10.7529
▁neurons	-10.7529
▁obama	-10.7537
▁dementia	-10.7537
▁tennessee	-10.7537
▁township	-10.7539
▁computers	-10.7539
▁Alaska	-10.7539
rt	-10.7545
▁Martin	-10.7547
type	-10.7549
▁Sp	-10.7551
▁generate	-10.7551
▁vice	-10.7552
mu	-10.7554
▁testosterone	-10.7556
▁progressive	-10.7557
▁efficiency	-10.756
▁ram	-10.7562
▁machines	-10.7562
2,	-10.7563
▁restaurants	-10.7564
known	-10.7564
▁cha	-10.7569
TA	-10.7573
▁($	-10.7576
▁kit	-10.7581
▁Media	-10.7581
▁Account	-10.7582
▁resident	-10.7582
▁Wi	-10.7583
▁nutrient	-10.7585
▁Master	-10.7585
00	-10.7586
lip	-10.7591
▁delivered	-10.7593
▁soccer	-10.7595
▁walmart	-10.7595
▁reflect	-10.7596
▁scientist	-10.7602
▁sweat	-10.7603
life	-10.7608
cap	-10.761
▁Wisconsin	-10.7614
▁removing	-10.7614
▁festival	-10.7614
▁deviation	-10.7614
▁flexible	-10.7615
▁Order	-10.7615
▁bacon	-10.7616
................	-10.7616
har	-10.7617
▁Mer	-10.7623
TE	-10.7628
▁Series	-10.7634
▁elderly	-10.7636
▁chops	-10.7637
▁mine	-10.7638
▁houses	-10.7642
▁pronounced	-10.7644
▁rooms	-10.7646
▁Lee	-10.7653
▁enterprise	-10.7653
▁Line	-10.7653
▁fungus	-10.7653
▁suffer	-10.7653
▁correctly	-10.7658
▁wolf	-10.7658
▁manufactured	-10.766
ea	-10.7662
▁cervical	-10.7663
▁skill	-10.7667
▁Point	-10.7669
▁ray	-10.7671
▁Cat	-10.7672
▁patch	-10.7672
▁Which	-10.7673
▁replacing	-10.7673
▁literary	-10.7673
▁coating	-10.7675
▁asthma	-10.7675
72	-10.7676
▁patterns	-10.7683
52	-10.7684
▁ended	-10.7685
▁Special	-10.7687
▁specialized	-10.7687
▁contraction	-10.769
cr	-10.769
▁competition	-10.7692
▁experts	-10.7699
▁towns	-10.7704
▁phosphate	-10.7706
▁Alabama	-10.7712
▁Mount	-10.7712
▁april	-10.7712
▁boston	-10.7712
bra	-10.7714
▁Basic	-10.7714
▁bills	-10.7715
▁Pe	-10.7717
ari	-10.772
▁grains	-10.7721
▁scope	-10.7723
▁starch	-10.773
▁immigration	-10.7731
▁Sch	-10.7733
▁java	-10.7735
▁digit	-10.774
▁anterior	-10.774
▁whereas	-10.7741
AT	-10.7744
▁pituitary	-10.7751
▁Henry	-10.7752
▁carried	-10.7753
▁digest	-10.7755
▁6.	-10.7756
▁millions	-10.7758
ven	-10.776
▁cheap	-10.7761
OR	-10.7762
▁Du	-10.7762
▁regularly	-10.7762
tain	-10.7764
▁unable	-10.777
▁aspects	-10.7771
▁replication	-10.7771
▁creation	-10.7772
2	-10.7776
▁lips	-10.7778
▁adopted	-10.7778
▁belly	-10.7781
▁scene	-10.7782
▁statute	-10.7782
▁vocal	-10.779
▁Francisco	-10.7791
▁sitting	-10.7792
▁Su	-10.7795
▁tick	-10.78
▁reality	-10.7804
▁suggests	-10.7805
▁Prince	-10.7805
▁helping	-10.7806
▁spirit	-10.7806
▁kid	-10.7809
▁scalp	-10.781
69	-10.7815
▁discussion	-10.7815
▁(6	-10.7815
▁38	-10.7822
▁IL	-10.7825
3,	-10.7828
▁1/4	-10.7829
▁1,000	-10.783
▁custody	-10.783
par	-10.7831
IS	-10.7831
▁comfortable	-10.7832
-12	-10.7833
▁Ph	-10.7833
▁colleges	-10.7835
▁MO	-10.7837
▁drinks	-10.7838
▁objective	-10.7847
▁Charles	-10.7848
▁explains	-10.785
▁yards	-10.7851
▁Oct	-10.7852
▁bow	-10.7854
▁physics	-10.7855
▁boiling	-10.7856
▁medicines	-10.7857
IC	-10.7858
▁DC	-10.7867
PA	-10.7868
▁perhaps	-10.787
▁Box	-10.7873
▁BC	-10.788
res	-10.7888
▁Medicaid	-10.789
▁plenty	-10.789
▁september	-10.789
▁committee	-10.789
▁writer	-10.789
▁NBA	-10.7891
▁lime	-10.7891
▁compression	-10.7893
▁exception	-10.7893
▁ra	-10.7895
▁reasonable	-10.7897
▁rapidly	-10.79
▁waiting	-10.79
▁chat	-10.79
▁Records	-10.7902
▁explore	-10.7903
▁dealer	-10.7905
▁vi	-10.7908
▁Aug	-10.7909
▁snakes	-10.791
▁Louisiana	-10.791
▁japanese	-10.791
▁classroom	-10.7911
▁slice	-10.7912
▁2004	-10.7921
▁Know	-10.7923
▁winning	-10.7928
▁burned	-10.7929
▁expiration	-10.7929
▁fundamental	-10.7929
▁exterior	-10.793
NA	-10.7943
▁Da	-10.7943
▁rust	-10.7944
▁hide	-10.7946
▁consumers	-10.7947
▁motorcycle	-10.795
▁decided	-10.795
▁landscape	-10.795
▁$0.	-10.7955
ify	-10.7956
▁loop	-10.7957
▁Spring	-10.7964
▁Direct	-10.7969
▁Energy	-10.797
▁Though	-10.797
▁governor	-10.7972
king	-10.7972
▁installing	-10.7972
af	-10.7976
▁tape	-10.7976
▁bedroom	-10.7977
▁originated	-10.7982
nce	-10.7984
und	-10.7984
▁tablespoon	-10.7985
ica	-10.7986
▁Tri	-10.7989
59	-10.7991
▁treaty	-10.7993
▁tables	-10.7995
▁nickname	-10.7997
▁OR	-10.7999
▁filling	-10.8001
▁organized	-10.8004
▁miss	-10.8009
▁Missouri	-10.801
▁furnace	-10.801
ico	-10.8015
▁desired	-10.8021
▁Russia	-10.8022
sc	-10.8026
▁Am	-10.8027
gle	-10.8028
▁saving	-10.8032
▁Van	-10.8035
▁expand	-10.8037
▁acronym	-10.8038
▁med	-10.8039
long	-10.8044
▁americans	-10.8045
▁rhythm	-10.8046
▁courts	-10.8049
▁wisdom	-10.805
▁rabbits	-10.8051
93	-10.8053
▁presented	-10.8058
shaped	-10.8065
▁employed	-10.8067
▁es	-10.8068
tel	-10.807
▁explanation	-10.8071
▁netflix	-10.8071
▁$500	-10.8072
▁lump	-10.8072
▁Springs	-10.8076
▁finally	-10.8077
▁blend	-10.8079
▁52	-10.808
ore	-10.808
▁Gu	-10.8083
▁greatly	-10.8083
▁39	-10.8084
▁covering	-10.8086
▁chip	-10.8091
▁affordable	-10.8092
▁unlock	-10.8093
▁Are	-10.8095
▁clay	-10.8097
ju	-10.8097
▁aware	-10.8097
▁deals	-10.81
▁thomas	-10.8111
▁antibodies	-10.8111
▁glue	-10.8113
▁1970	-10.8117
▁joined	-10.8122
▁cents	-10.8125
▁odor	-10.8126
▁arrow	-10.8129
▁revolution	-10.8131
▁fahrenheit	-10.8132
▁pricing	-10.8132
▁metabolic	-10.8132
▁Richard	-10.8132
ston	-10.8132
gue	-10.8134
▁Server	-10.8135
AD	-10.8137
▁tendon	-10.814
▁throw	-10.8145
▁versions	-10.8147
▁implant	-10.815
about	-10.815
▁fossil	-10.8151
▁determining	-10.8152
▁interesting	-10.8157
▁designer	-10.8157
▁slide	-10.816
▁hybrid	-10.8161
▁blade	-10.8162
▁artificial	-10.8173
press	-10.8173
▁foam	-10.8174
▁latitude	-10.8175
▁mat	-10.8179
▁spell	-10.818
▁Building	-10.818
link	-10.8181
▁downtown	-10.8182
you	-10.8182
▁rated	-10.8186
▁statements	-10.8189
▁complications	-10.8191
▁satellite	-10.8193
▁semester	-10.8193
▁felony	-10.8193
▁diagram	-10.8194
▁drill	-10.8195
3.	-10.8196
▁Put	-10.8198
▁putting	-10.8201
▁bass	-10.8206
▁hospitals	-10.8209
▁styles	-10.821
▁IP	-10.8212
84	-10.8213
▁cognitive	-10.8214
▁lifespan	-10.8214
▁hundreds	-10.8215
▁contained	-10.8217
▁holes	-10.8217
▁absorbed	-10.822
▁moist	-10.823
▁marked	-10.823
ich	-10.8233
▁Academy	-10.8234
▁Houston	-10.8234
▁breakfast	-10.8235
▁setup	-10.8235
mal	-10.8236
▁supports	-10.8237
▁diabetic	-10.824
▁genital	-10.8241
▁digits	-10.8245
▁indicated	-10.8247
▁7.	-10.8248
▁supported	-10.8249
▁Director	-10.8252
▁Protein	-10.8255
▁absorption	-10.8255
▁administrator	-10.8255
▁worst	-10.8255
▁thermometer	-10.8255
▁modified	-10.8255
▁advantages	-10.8256
▁inventory	-10.826
non	-10.8261
tric	-10.8262
▁Fe	-10.8263
▁exit	-10.8263
▁offices	-10.8264
▁cloth	-10.827
▁fairly	-10.8271
▁Hawaii	-10.8273
▁advertising	-10.8276
▁usb	-10.8278
▁royal	-10.8278
▁speaking	-10.8279
work	-10.8279
▁chloride	-10.8284
▁Ben	-10.8284
▁fi	-10.8284
▁traits	-10.8285
▁stain	-10.8288
OL	-10.8289
▁duck	-10.8294
▁appetite	-10.8296
-10	-10.8297
▁Queen	-10.8298
▁uniform	-10.8298
▁debit	-10.8302
▁periodic	-10.8302
▁carbohydrate	-10.8303
▁Hebrew	-10.8304
▁PO	-10.8305
▁extensive	-10.831
▁sac	-10.8312
▁crash	-10.8314
▁pharmacist	-10.8317
▁puppies	-10.8317
▁Worth	-10.8317
▁religious	-10.8317
▁variation	-10.8319
▁crop	-10.832
▁centre	-10.8323
▁segment	-10.8324
▁License	-10.8325
▁coin	-10.8325
▁aids	-10.8326
▁detail	-10.8326
▁Marine	-10.8326
▁latin	-10.8328
▁sam	-10.8328
▁coil	-10.8332
▁ser	-10.8335
▁presentation	-10.8337
nia	-10.8338
▁Dallas	-10.8338
▁supreme	-10.8338
ov	-10.834
ory	-10.8343
▁Level	-10.8344
▁flows	-10.8347
▁shade	-10.8347
hat	-10.8351
table	-10.8353
▁limitations	-10.8356
▁46	-10.8357
▁perspective	-10.8359
62	-10.8359
▁matrix	-10.8359
▁hardwood	-10.8365
ned	-10.8367
▁strand	-10.8369
▁Ta	-10.8374
▁42	-10.8378
▁Clerk	-10.838
▁crisis	-10.838
▁extent	-10.838
▁bulk	-10.838
▁Development	-10.8381
▁Zip	-10.8381
▁velocity	-10.8383
ates	-10.8383
▁lens	-10.8384
▁swell	-10.8387
▁discount	-10.8392
-9	-10.8394
▁drawn	-10.8396
▁Safety	-10.8401
▁shelf	-10.8402
▁clot	-10.8402
▁solve	-10.8404
▁cabinet	-10.8404
▁Small	-10.8404
▁enhance	-10.8405
emia	-10.8408
▁pulled	-10.8414
To	-10.8416
▁exhaust	-10.842
eal	-10.8421
▁dehydration	-10.8422
▁reproduction	-10.8422
▁Daily	-10.8422
▁Maryland	-10.8423
▁occurred	-10.8426
▁pr	-10.8427
▁officially	-10.8427
1.	-10.8436
▁Station	-10.844
▁reliable	-10.8444
▁kilometers	-10.8447
ert	-10.8448
▁15,	-10.8448
high	-10.8458
▁crab	-10.8458
▁Mc	-10.8459
▁receives	-10.8462
wi	-10.8463
▁anchor	-10.8463
▁museum	-10.8464
▁funeral	-10.8464
▁Address	-10.8465
▁Channel	-10.8467
lb	-10.8475
▁ATP	-10.8484
▁bloom	-10.8485
▁paste	-10.8486
▁childhood	-10.8487
▁candy	-10.8491
▁cylinder	-10.8492
▁Las	-10.8495
▁regulate	-10.8498
▁ranch	-10.85
▁soluble	-10.8502
▁hr	-10.8502
▁Mr	-10.8502
ele	-10.8505
▁dvd	-10.8506
▁regardless	-10.8507
▁sm	-10.8507
ram	-10.8509
▁sector	-10.8509
▁appeared	-10.8511
▁hurricane	-10.8512
▁scheduled	-10.8516
▁ginger	-10.8516
▁relate	-10.8518
▁arts	-10.8526
▁Council	-10.8528
▁continues	-10.8528
▁plot	-10.853
▁seek	-10.8532
▁allowance	-10.8536
▁bid	-10.8537
▁Ly	-10.8538
lot	-10.8538
▁MI	-10.8546
▁castle	-10.8548
via	-10.8549
here	-10.8552
lia	-10.8552
ky	-10.8554
▁managed	-10.8555
▁occurring	-10.8556
▁Cut	-10.8557
ches	-10.8566
▁fail	-10.8566
PS	-10.8567
▁marrow	-10.8571
▁64	-10.8572
▁possibly	-10.8573
▁allowing	-10.8575
▁proposed	-10.8575
▁Index	-10.8575
▁Force	-10.8575
%)	-10.8578
▁argument	-10.858
PO	-10.8583
LA	-10.8584
▁neuro	-10.8586
▁clinic	-10.8586
▁pitch	-10.8587
▁asphalt	-10.8592
▁diagnostic	-10.8592
▁amazing	-10.8592
▁medicaid	-10.8592
▁missing	-10.8592
▁Hard	-10.8593
▁lady	-10.8594
▁infants	-10.8595
4,	-10.8602
▁constitutional	-10.8603
▁receptors	-10.8606
lc	-10.8607
▁posted	-10.8613
▁undergraduate	-10.8613
uck	-10.8614
▁listen	-10.8617
▁chips	-10.8618
▁warning	-10.8621
▁drawing	-10.8621
▁assume	-10.8622
▁des	-10.8629
▁tar	-10.8632
TH	-10.8634
▁Usually	-10.8634
▁reproductive	-10.8635
▁coronary	-10.8635
▁escape	-10.8635
▁ran	-10.8636
ress	-10.8639
▁paul	-10.8639
▁nearby	-10.8639
▁ri	-10.864
▁(2)	-10.8641
bin	-10.8641
▁establish	-10.8642
▁grey	-10.8643
▁fort	-10.8647
▁recipes	-10.8651
▁sensory	-10.8652
▁insects	-10.8654
▁drama	-10.8656
▁Police	-10.8656
▁elbow	-10.8656
▁chosen	-10.866
▁jo	-10.8661
▁thread	-10.8664
▁seller	-10.8667
▁fans	-10.8676
▁SC	-10.8677
ato	-10.8678
▁robert	-10.8678
▁copies	-10.8678
▁represented	-10.8679
▁insulation	-10.868
▁ranging	-10.8682
▁harvest	-10.8685
▁def	-10.8689
▁20%	-10.8692
▁oxide	-10.8692
▁trend	-10.8693
▁lion	-10.8696
▁CT	-10.8696
pr	-10.8699
▁stadium	-10.8699
▁drainage	-10.8701
▁Disease	-10.8708
that	-10.8709
▁Images	-10.871
▁ski	-10.8711
▁symbolize	-10.8715
▁vast	-10.8715
▁Based	-10.8716
▁Chapter	-10.8721
▁posterior	-10.8721
▁inflation	-10.8723
▁neutral	-10.8724
▁orders	-10.8725
lam	-10.8726
▁somewhat	-10.8726
van	-10.8729
▁burns	-10.8729
▁convention	-10.874
▁legislation	-10.8742
▁utah	-10.8743
card	-10.8745
▁respectively	-10.8746
OS	-10.8746
ith	-10.8749
▁nutritional	-10.875
ition	-10.8751
▁neuron	-10.8751
▁delay	-10.8752
▁tension	-10.8758
▁Side	-10.8758
▁reducing	-10.8764
▁discomfort	-10.8764
▁intelligence	-10.8766
▁fifth	-10.877
▁Moon	-10.8774
▁44	-10.8776
▁angles	-10.8778
how	-10.8778
▁AC	-10.8778
▁ti	-10.8778
▁binding	-10.8783
▁reserve	-10.8784
▁Short	-10.8786
▁fraud	-10.8786
▁Transfer	-10.8786
▁mammals	-10.8787
▁blog	-10.8789
▁esophagus	-10.879
▁sections	-10.8791
▁Rating	-10.8792
MP	-10.8794
▁traveling	-10.8797
▁dense	-10.88
▁practical	-10.88
▁learned	-10.8802
▁HD	-10.8804
cat	-10.8804
▁ash	-10.8805
▁autoimmune	-10.8806
▁Annual	-10.8808
▁fewer	-10.8809
▁honda	-10.8809
▁cement	-10.881
▁Explorer	-10.8811
▁edition	-10.8813
▁Cover	-10.8813
▁Instead	-10.8814
▁cam	-10.8816
▁decades	-10.8818
▁banking	-10.8819
▁breaking	-10.882
▁exclusive	-10.8822
▁contracts	-10.8826
▁democracy	-10.883
▁expansion	-10.883
▁obesity	-10.883
▁lunch	-10.883
▁Week	-10.883
rr	-10.8834
av	-10.8835
▁Republican	-10.8835
▁Times	-10.884
ux	-10.884
ient	-10.8846
▁closer	-10.8848
▁2:	-10.885
▁liberty	-10.8852
▁clearly	-10.8865
▁trait	-10.8865
▁stronger	-10.8867
▁2012,	-10.8867
0.	-10.8868
▁caught	-10.8874
▁configuration	-10.8874
▁broadcast	-10.8874
ros	-10.8877
▁Motor	-10.8877
▁murder	-10.8881
▁cleaner	-10.8881
▁fertilizer	-10.8881
▁membranes	-10.8883
ple	-10.8886
82	-10.8888
ock	-10.889
▁leaders	-10.8891
▁highway	-10.8893
▁journey	-10.8896
▁junction	-10.8896
▁partnership	-10.8896
▁inherited	-10.8899
▁optic	-10.8901
▁craft	-10.8907
▁comfort	-10.8909
ill	-10.8911
AC	-10.8911
vin	-10.8913
▁friendly	-10.8914
▁patio	-10.8915
▁posts	-10.8916
▁Vegas	-10.8918
▁Iowa	-10.8918
▁planting	-10.8919
▁converted	-10.8923
▁sql	-10.8926
▁buyer	-10.893
▁sch	-10.893
▁WA	-10.8935
▁falling	-10.8938
▁yogurt	-10.894
▁italian	-10.894
▁chapter	-10.8941
▁Scott	-10.8941
▁ownership	-10.8941
▁diesel	-10.8941
▁Jones	-10.8942
▁shorter	-10.8944
▁polar	-10.8945
▁copyright	-10.8947
▁Create	-10.8949
rit	-10.895
onia	-10.8951
lay	-10.8955
▁imp	-10.8957
▁aspirin	-10.8959
▁peel	-10.8962
▁Church	-10.8962
▁earliest	-10.8962
▁privacy	-10.8962
▁enlarged	-10.8966
▁Jr	-10.8968
▁itchy	-10.8972
▁recognize	-10.8978
cut	-10.898
▁soul	-10.8981
▁$30	-10.8982
▁partners	-10.8983
▁Atlanta	-10.8984
▁southwest	-10.8985
▁seattle	-10.8985
▁Unlike	-10.8986
▁Reading	-10.8993
gu	-10.8996
▁unusual	-10.8999
▁compliance	-10.9008
▁awards	-10.9012
▁acting	-10.9016
die	-10.9016
:00	-10.902
IP	-10.9023
▁spider	-10.9023
▁reaches	-10.9024
▁Drug	-10.9025
▁risks	-10.9027
▁fu	-10.9027
▁static	-10.9027
▁tasks	-10.9028
▁Silver	-10.9029
▁geography	-10.9029
▁Cancer	-10.9029
▁cattle	-10.903
▁expire	-10.9031
▁overnight	-10.9032
5,000	-10.9032
power	-10.9033
▁rn	-10.9034
▁keeps	-10.9034
▁reform	-10.9034
▁export	-10.9034
▁Team	-10.9036
▁cysts	-10.9037
eo	-10.9042
gram	-10.9042
▁ce	-10.9052
▁worn	-10.9052
▁representatives	-10.9055
▁App	-10.9056
▁feeding	-10.9062
▁lice	-10.9064
ians	-10.907
▁david	-10.9073
▁resting	-10.9073
▁buried	-10.9074
▁enforcement	-10.9074
▁stories	-10.9074
▁engineers	-10.9077
▁fur	-10.9078
▁confirm	-10.9079
▁massive	-10.908
3	-10.9088
▁Facts	-10.9089
▁cc	-10.9093
▁Kentucky	-10.9096
▁flush	-10.91
▁Commission	-10.9103
▁Foods	-10.9103
▁editor	-10.9104
▁exempt	-10.9104
▁saturated	-10.9104
▁11,	-10.9105
▁ordered	-10.9107
▁maple	-10.9112
▁neighborhood	-10.9113
▁concerned	-10.9114
▁notary	-10.9116
▁improvement	-10.9117
▁worry	-10.9119
▁sunlight	-10.912
▁panels	-10.9121
▁NFL	-10.9124
▁finished	-10.9127
▁Bio	-10.9129
▁AR	-10.9131
▁resistant	-10.9132
91	-10.9133
▁admission	-10.9136
▁bases	-10.9137
bed	-10.9139
▁architecture	-10.9142
▁herbs	-10.9145
▁cage	-10.9147
▁lateral	-10.9154
app	-10.9154
▁experiences	-10.9155
▁blocked	-10.9157
▁Between	-10.9164
▁gauge	-10.9164
▁concert	-10.9164
▁Cross	-10.9166
▁Highway	-10.9167
▁crystals	-10.9169
▁stated	-10.9171
ama	-10.9171
▁fluids	-10.9177
sco	-10.9179
▁province	-10.9182
▁beats	-10.9184
▁Install	-10.9185
▁moral	-10.9186
▁Empire	-10.9186
▁tomorrow	-10.9186
▁jersey	-10.9186
▁louisiana	-10.9187
▁melt	-10.9188
▁Route	-10.9189
▁lie	-10.919
▁whom	-10.9192
▁comments	-10.9192
▁twin	-10.9194
▁entering	-10.9197
ense	-10.9205
▁saved	-10.9208
▁debate	-10.9209
▁involving	-10.9209
▁Site	-10.921
▁soy	-10.9211
gy	-10.9215
▁euro	-10.9217
▁Louis	-10.9227
▁nyc	-10.9228
¦	-10.923
▁shots	-10.9231
▁vietnam	-10.9232
▁Diet	-10.9233
uma	-10.9234
▁returned	-10.9235
▁decimal	-10.9235
tus	-10.9237
▁contacts	-10.9241
▁decline	-10.9243
cell	-10.9243
class	-10.9245
▁Students	-10.9248
▁historic	-10.9249
▁arkansas	-10.9255
▁investigation	-10.9255
▁judicial	-10.9255
▁preferred	-10.9256
▁consultant	-10.9257
▁bomb	-10.9257
▁bearing	-10.9259
▁Radio	-10.9261
▁Joe	-10.9265
▁eaten	-10.9267
▁engines	-10.9269
▁pit	-10.9274
▁bonus	-10.9275
pt	-10.9275
▁abundant	-10.9278
▁wifi	-10.9278
▁confused	-10.9281
▁2.5	-10.9282
elle	-10.9284
▁shoe	-10.9288
▁reg	-10.9291
▁Ab	-10.9291
▁sn	-10.9294
▁situations	-10.9296
▁hundred	-10.9299
▁cortana	-10.9301
▁pennsylvania	-10.9301
▁instruments	-10.9302
▁Smith	-10.9304
rant	-10.9306
▁stir	-10.9309
▁manufacturers	-10.931
▁Plant	-10.9315
▁maps	-10.9318
▁$11	-10.9321
RI	-10.9323
phone	-10.9331
▁Types	-10.9331
▁Islands	-10.9341
Fi	-10.9341
▁strep	-10.9342
right	-10.9342
cast	-10.9342
▁Pan	-10.9344
▁communicate	-10.9347
▁suffix	-10.9347
▁YouTube	-10.9347
▁alkaline	-10.9347
▁decay	-10.9348
▁institutions	-10.9351
▁specialty	-10.9353
▁dip	-10.9355
▁Run	-10.9357
dis	-10.9358
▁evaluate	-10.9359
▁relationships	-10.9363
▁Major	-10.9368
▁bipolar	-10.937
oz	-10.937
▁maryland	-10.9371
▁Hotel	-10.9371
▁doses	-10.9377
▁ab	-10.9378
▁clicking	-10.9383
▁prize	-10.9387
▁rabbit	-10.9392
▁aspect	-10.9392
▁Dan	-10.9393
▁operated	-10.9394
▁li	-10.9395
▁bloating	-10.9396
▁fry	-10.9396
▁lightning	-10.9397
▁Russian	-10.9402
▁desire	-10.9403
▁Print	-10.9404
▁markets	-10.9405
▁washing	-10.941
▁bu	-10.9411
▁stove	-10.9416
▁dallas	-10.9416
▁universe	-10.9416
▁statue	-10.9416
▁Those	-10.9417
ulation	-10.9418
ese	-10.942
▁drag	-10.942
▁carb	-10.9421
play	-10.9423
▁booster	-10.9424
▁reader	-10.9426
▁dishes	-10.9426
▁blind	-10.9426
hand	-10.9429
▁addresses	-10.9432
▁prefix	-10.9435
▁Supreme	-10.9439
▁industries	-10.9439
▁altitude	-10.9439
▁shut	-10.9439
▁Income	-10.944
▁Application	-10.9443
▁ps	-10.9443
▁hills	-10.9445
-8	-10.9446
▁deadline	-10.9447
▁Falls	-10.9448
aka	-10.9453
▁ford	-10.9456
avi	-10.9456
some	-10.9458
▁applicable	-10.9463
▁Summary	-10.9463
▁challenge	-10.9464
▁ulcers	-10.9464
CM	-10.9464
iff	-10.9468
any	-10.9469
▁1999	-10.9473
▁rec	-10.9474
mark	-10.9476
▁routine	-10.9478
▁Sports	-10.9479
▁iodine	-10.9486
▁gasoline	-10.9486
▁cardiovascular	-10.9486
▁granite	-10.9486
▁payroll	-10.9488
▁hub	-10.9489
▁Located	-10.949
▁bun	-10.949
▁bench	-10.9491
3)	-10.9492
iness	-10.9492
▁incorporated	-10.9492
▁symbols	-10.9496
▁2012.	-10.9501
▁classical	-10.9506
▁deposits	-10.9507
▁necessarily	-10.9509
▁aerobic	-10.9509
▁creative	-10.951
▁intense	-10.951
▁bound	-10.9511
▁tough	-10.9511
▁barrel	-10.9511
▁peanut	-10.9511
▁(10	-10.9517
▁observed	-10.9517
list	-10.953
▁Navy	-10.9533
▁strike	-10.9535
▁barrier	-10.9536
nc	-10.9538
▁attract	-10.9538
▁Atlantic	-10.9539
du	-10.954
ants	-10.9544
ectomy	-10.9544
▁affecting	-10.9546
▁effectively	-10.9553
▁Amendment	-10.9556
▁cerebral	-10.9557
▁Xbox	-10.9558
▁Typically	-10.956
▁workplace	-10.9561
▁occupational	-10.9562
▁los	-10.9566
▁exercises	-10.9568
▁encourage	-10.9571
▁alive	-10.9572
▁$12	-10.9572
▁milligrams	-10.9573
range	-10.9574
-20	-10.9576
▁anatomy	-10.958
▁miami	-10.9581
▁keys	-10.9581
▁billing	-10.9582
▁Size	-10.9583
▁Col	-10.9584
▁7,	-10.9584
▁Eye	-10.9588
▁evolution	-10.9588
▁inflammatory	-10.9589
▁Clinic	-10.9595
▁Global	-10.9604
▁Country	-10.9604
▁$10,000	-10.9605
▁cuff	-10.9608
▁Continue	-10.9612
▁wars	-10.9613
▁gums	-10.9615
▁LA	-10.9617
▁epi	-10.9618
ture	-10.9622
▁separated	-10.9624
▁Professional	-10.9627
▁intestinal	-10.9627
called	-10.9628
▁muscular	-10.9628
▁Dutch	-10.9631
▁Cha	-10.9631
▁tuna	-10.9632
▁interval	-10.9632
▁protective	-10.9634
▁origins	-10.9637
▁july	-10.9637
▁Training	-10.9638
▁winds	-10.9641
lation	-10.9643
▁contents	-10.9643
▁horizontal	-10.9644
▁WI	-10.9646
▁eliminate	-10.9649
▁Society	-10.9651
▁valuable	-10.9651
▁kansas	-10.9651
▁railroad	-10.9651
▁mitosis	-10.9652
▁Summer	-10.9653
▁interact	-10.9653
amp	-10.9656
▁easiest	-10.9675
▁Farm	-10.9675
▁mill	-10.9676
▁foster	-10.9676
▁ligament	-10.968
▁col	-10.9687
▁mri	-10.969
iz	-10.9691
▁Ve	-10.9694
ani	-10.9694
▁bug	-10.9696
PM	-10.9697
	-10.9698
▁invention	-10.9698
▁shelter	-10.9699
▁relating	-10.9699
▁airplane	-10.97
6.	-10.97
▁integrated	-10.9702
▁mr	-10.9703
▁practitioner	-10.9704
mic	-10.9711
▁displayed	-10.9717
▁canadian	-10.9723
▁Remember	-10.9723
▁framework	-10.9724
ans	-10.9725
▁Johnson	-10.9728
▁speaker	-10.9731
▁Way	-10.9731
▁charging	-10.9732
▁appeal	-10.9733
▁acquired	-10.9735
▁mal	-10.9738
▁protects	-10.9738
▁sleeping	-10.9739
responsibilities	-10.9747
▁Avenue	-10.9747
▁nicotine	-10.9747
▁hemisphere	-10.9747
▁enrollment	-10.9747
▁Night	-10.9749
▁colonies	-10.9749
▁concepts	-10.9749
ching	-10.975
▁shark	-10.9754
▁boxes	-10.9755
▁saliva	-10.9755
▁influenced	-10.9757
▁85	-10.9761
▁retain	-10.9762
▁citation	-10.9763
▁cooling	-10.9767
▁Nov	-10.9768
▁Miami	-10.9771
▁Christmas	-10.9771
▁6,	-10.9774
▁speakers	-10.9774
▁endocrine	-10.9776
rid	-10.9778
▁chase	-10.9779
▁iOS	-10.9781
▁mega	-10.9782
month	-10.9785
▁exceed	-10.979
▁combat	-10.9791
▁beds	-10.9792
ika	-10.9794
▁ships	-10.9794
▁situated	-10.9795
American	-10.9796
▁electromagnetic	-10.9796
yn	-10.9797
▁Donald	-10.9798
▁june	-10.9799
▁cho	-10.98
ington	-10.9803
▁lin	-10.9803
▁interaction	-10.9804
mes	-10.9806
▁repeat	-10.9808
▁biome	-10.9808
ister	-10.9812
ency	-10.9814
▁feels	-10.9817
mit	-10.9817
▁meiosis	-10.9819
▁wake	-10.982
▁incident	-10.9821
ye	-10.9821
▁Wall	-10.9823
▁decreased	-10.9825
Co	-10.9825
▁potentially	-10.9826
▁merge	-10.9828
▁exemption	-10.9828
▁detected	-10.983
▁Paris	-10.9833
▁dia	-10.9836
▁largely	-10.9836
▁Arm	-10.9837
▁moss	-10.9839
▁fraction	-10.984
LO	-10.9842
▁bc	-10.9843
ili	-10.9843
▁uti	-10.9844
▁theatre	-10.9845
▁serum	-10.9845
▁indicator	-10.9852
▁whale	-10.9854
▁val	-10.9856
▁flood	-10.9857
▁streaming	-10.9858
▁ion	-10.9864
▁ceremony	-10.9867
▁lactose	-10.9868
▁Andrew	-10.9868
lis	-10.9868
▁worksheet	-10.987
▁remodel	-10.9872
▁mL	-10.9873
▁granted	-10.9874
▁;	-10.9875
▁III	-10.9877
▁sd	-10.9879
▁worms	-10.988
▁pads	-10.9889
▁suicide	-10.9892
▁Chief	-10.9892
▁1)	-10.9892
▁grew	-10.9893
▁mask	-10.9894
ori	-10.9896
▁intensity	-10.9897
▁eagle	-10.9897
▁ur	-10.9904
▁brings	-10.9905
9.	-10.9906
len	-10.9908
▁printing	-10.9908
▁Born	-10.991
▁architect	-10.9916
▁composite	-10.9916
▁Process	-10.9917
▁Return	-10.9917
▁conditioning	-10.9917
▁personnel	-10.9918
▁ac	-10.9921
▁Estate	-10.9922
▁meta	-10.9924
▁postage	-10.9925
▁carrots	-10.9927
▁$200	-10.9927
▁uber	-10.993
▁wearing	-10.9931
▁ease	-10.9933
▁swing	-10.9934
▁proportion	-10.9936
▁aren	-10.9936
▁End	-10.9941
▁mon	-10.9942
ima	-10.9942
burn	-10.9948
▁dad	-10.9948
▁candidate	-10.9951
▁pays	-10.9957
▁Te	-10.9958
ations	-10.9964
▁ceramic	-10.9965
▁survival	-10.9965
▁residence	-10.9965
▁Little	-10.9965
▁thermal	-10.9967
▁zoo	-10.9973
▁authorized	-10.9976
▁peer	-10.9976
St	-10.9977
▁conditioner	-10.9977
▁legislative	-10.999
▁strategies	-10.999
del	-10.9992
▁connects	-10.9997
▁malt	-11.0003
▁bob	-11.0005
ret	-11.0006
▁Tu	-11.0007
▁trap	-11.0012
▁charles	-11.0013
▁diffusion	-11.0014
▁hidden	-11.0014
▁pelvic	-11.0014
▁tingling	-11.0014
▁entertainment	-11.0015
▁voting	-11.0015
▁Pet	-11.0015
▁1998	-11.0015
7.	-11.0016
▁shirt	-11.0017
▁Sam	-11.0019
▁distributed	-11.002
▁Bur	-11.0022
▁Java	-11.0022
▁Salt	-11.0022
▁seeing	-11.0023
▁psychologist	-11.0026
uk	-11.0027
▁paris	-11.0029
▁bears	-11.003
▁Prices	-11.003
▁rows	-11.0031
▁converter	-11.0032
▁sour	-11.0035
ties	-11.0039
▁generator	-11.0039
▁Seattle	-11.0039
▁Property	-11.0039
▁Cold	-11.0044
ean	-11.0046
▁administered	-11.0048
▁maine	-11.0049
▁roofing	-11.0053
▁tons	-11.0059
sion	-11.0059
▁heartbeat	-11.0065
rim	-11.0065
▁shaft	-11.0066
▁occasionally	-11.0068
▁hypertension	-11.0068
▁god	-11.0069
▁permission	-11.0069
▁basically	-11.0069
▁onset	-11.0071
▁lava	-11.0075
key	-11.0077
read	-11.0083
▁scar	-11.0085
▁Field	-11.0089
▁beneficial	-11.0089
▁ontario	-11.0089
▁hottest	-11.0091
▁republican	-11.0094
▁Mix	-11.0097
▁lesson	-11.0098
ml	-11.0099
▁processor	-11.01
▁operator	-11.0102
▁banana	-11.0102
▁fusion	-11.0103
▁ya	-11.0107
til	-11.0111
▁prove	-11.0112
unk	-11.0112
▁senate	-11.0114
▁tubes	-11.0115
▁freezing	-11.0115
▁xbox	-11.0116
▁homemade	-11.0118
load	-11.0119
▁youtube	-11.0119
▁alpha	-11.0119
▁verify	-11.012
▁maybe	-11.0121
▁soldiers	-11.0124
▁thousand	-11.0127
▁decade	-11.0128
▁Ja	-11.0129
▁thigh	-11.0129
▁weed	-11.0129
▁metro	-11.0135
▁channels	-11.0136
▁kentucky	-11.0138
▁minnesota	-11.0138
▁saint	-11.0139
▁yoga	-11.014
▁transferred	-11.0141
▁GA	-11.0143
▁pat	-11.0146
▁actors	-11.0153
▁specialize	-11.0154
IL	-11.0157
eye	-11.0159
eth	-11.016
▁passage	-11.016
▁journal	-11.0162
▁launched	-11.0163
▁committed	-11.0164
▁Che	-11.0166
▁warrant	-11.017
▁pacific	-11.0171
▁spa	-11.0173
▁Hand	-11.0176
▁Chi	-11.0178
tom	-11.0178
▁fame	-11.0179
▁pros	-11.0183
▁snap	-11.0186
sia	-11.0188
▁printed	-11.0188
▁geo	-11.0188
▁irregular	-11.0188
▁brakes	-11.0189
▁Mean	-11.019
▁Sha	-11.0193
▁efforts	-11.0195
▁surfaces	-11.0195
▁Fall	-11.0197
▁FDA	-11.0204
▁transactions	-11.0207
▁lobe	-11.0209
▁Skin	-11.0211
▁cytoplasm	-11.0214
▁fetus	-11.0214
▁directory	-11.0214
▁Death	-11.0214
▁performing	-11.0215
▁dough	-11.0216
▁OS	-11.0217
▁ton	-11.0221
▁documentation	-11.0221
▁talent	-11.0224
▁asking	-11.0224
▁Frank	-11.0229
▁Settings	-11.0231
▁den	-11.0232
▁ions	-11.0235
▁rotation	-11.0236
▁losing	-11.0236
▁wants	-11.0238
▁prominent	-11.0239
▁intervention	-11.0239
▁llc	-11.024
▁Orange	-11.0241
▁columns	-11.0243
ral	-11.0244
▁debut	-11.0254
▁Jo	-11.0254
▁blisters	-11.0257
▁Peter	-11.0257
▁homeowners	-11.0262
▁Twitter	-11.0264
▁alternate	-11.0264
▁audience	-11.0264
▁expectancy	-11.0265
▁researchers	-11.0265
▁accent	-11.0265
▁visiting	-11.0266
war	-11.0266
▁siding	-11.0269
▁entirely	-11.0269
▁Mal	-11.0272
▁violation	-11.0281
▁600	-11.0283
ote	-11.0285
▁eu	-11.0286
▁clots	-11.0288
▁continuing	-11.0289
▁forget	-11.029
▁Cu	-11.0291
▁suitable	-11.0292
ira	-11.0292
▁gpa	-11.0292
▁literally	-11.0293
ago	-11.0295
▁trained	-11.0296
▁cart	-11.0299
▁dissolve	-11.0301
▁continued	-11.0302
CS	-11.0303
SC	-11.0305
▁Ten	-11.0305
▁expert	-11.0306
We	-11.0308
ls	-11.031
▁Terms	-11.0314
▁depreciation	-11.0315
▁greece	-11.0315
▁atlanta	-11.0315
trop	-11.0315
▁feedback	-11.0316
▁harbor	-11.0317
▁bleed	-11.032
▁Personal	-11.0322
Pro	-11.0325
▁braces	-11.0326
▁cheaper	-11.0326
▁capture	-11.0327
▁operational	-11.0328
▁donate	-11.0329
BA	-11.033
uri	-11.0331
▁overtime	-11.0332
▁diem	-11.0332
▁wheels	-11.0332
sized	-11.0334
UR	-11.0334
▁compact	-11.0339
▁philosophy	-11.034
▁lakes	-11.0342
▁offense	-11.0344
▁steering	-11.0345
▁ridge	-11.0346
▁jar	-11.0348
▁shoot	-11.035
ook	-11.0352
▁embryo	-11.0354
▁monitoring	-11.0355
▁shaped	-11.0356
▁lasts	-11.0358
▁holder	-11.0359
▁cr	-11.0362
▁beaches	-11.0363
▁october	-11.0366
▁mercury	-11.0366
▁yahoo	-11.0366
▁lymphatic	-11.0366
▁shapes	-11.0367
▁irish	-11.0368
▁Often	-11.0368
▁sight	-11.0371
▁dysfunction	-11.0371
▁sentences	-11.0374
▁develops	-11.0375
▁nuts	-11.0376
▁graphics	-11.0378
ments	-11.0379
▁triple	-11.0379
▁node	-11.038
▁2,000	-11.038
▁william	-11.0387
▁cabinets	-11.0388
▁Celsius	-11.0391
▁assembly	-11.0391
▁compatible	-11.0392
▁sail	-11.0393
▁macro	-11.0395
▁Stock	-11.0396
▁prevention	-11.0401
▁aged	-11.0405
▁spasms	-11.0407
▁angel	-11.0408
▁migraine	-11.0411
▁comment	-11.0411
ere	-11.0411
TI	-11.0414
▁needle	-11.0416
▁functioning	-11.0416
▁syrup	-11.0417
data	-11.0419
▁Bridge	-11.0419
▁Grant	-11.0423
▁planets	-11.0424
▁8,	-11.0429
▁PS	-11.043
▁cuts	-11.0432
▁54	-11.0437
style	-11.044
▁Mexican	-11.0443
▁luxury	-11.0443
▁absence	-11.0443
▁adverse	-11.0443
▁operates	-11.0446
▁tablespoons	-11.0449
▁Rome	-11.0452
▁360	-11.0452
usually	-11.0454
▁Sky	-11.0456
▁wool	-11.0458
▁9.	-11.0458
▁feelings	-11.0459
▁defects	-11.0461
▁marginal	-11.0461
▁Yellow	-11.0468
▁lumbar	-11.0468
▁Utah	-11.0468
▁bre	-11.0469
▁submitted	-11.047
▁metropolitan	-11.047
▁pocket	-11.0472
▁deductions	-11.0472
▁Sh	-11.0477
▁ulcer	-11.048
▁poll	-11.0481
▁activate	-11.0481
▁parks	-11.0482
atory	-11.0482
tte	-11.0483
▁sandwich	-11.049
▁com	-11.0492
▁pond	-11.0492
▁lighting	-11.0493
ving	-11.0494
▁Cleveland	-11.0494
▁Philadelphia	-11.0494
▁serial	-11.0495
▁visitors	-11.0497
▁conventional	-11.0497
▁fiction	-11.0502
▁physicians	-11.0502
ration	-11.0504
▁mall	-11.0505
▁dynamic	-11.0507
sk	-11.0507
▁pl	-11.0509
ough	-11.0513
▁fried	-11.0515
▁cabbage	-11.0521
-$1	-11.0521
DI	-11.0522
▁injured	-11.0523
▁Computer	-11.0524
tail	-11.0527
▁safely	-11.0527
▁hunt	-11.0529
▁ge	-11.0529
▁che	-11.0535
sky	-11.0536
▁OH	-11.0536
des	-11.0537
▁permits	-11.0538
▁ill	-11.0538
▁consistent	-11.0541
▁bl	-11.0541
▁Museum	-11.0546
▁academy	-11.0546
▁entitled	-11.0546
▁pineapple	-11.0546
▁intestines	-11.0551
▁carefully	-11.0554
▁800	-11.0559
▁earning	-11.0559
vent	-11.0561
▁sexually	-11.0565
▁bypass	-11.0567
▁Inter	-11.0567
MC	-11.0568
▁pour	-11.0568
▁coins	-11.0568
▁steaks	-11.0571
run	-11.058
▁(8	-11.0583
▁sin	-11.0587
▁Product	-11.0588
▁instant	-11.0592
▁trace	-11.0598
▁irritation	-11.0598
▁Through	-11.0598
▁Different	-11.0598
▁Village	-11.0599
ump	-11.0599
ida	-11.0601
▁Com	-11.0602
▁dam	-11.0602
Rate	-11.0616
▁14,	-11.0621
▁paragraph	-11.0622
▁SD	-11.0623
▁magnitude	-11.0624
▁strategic	-11.0624
▁versus	-11.0625
▁intra	-11.0627
▁bands	-11.0628
▁59	-11.0631
▁Santa	-11.0633
▁wealth	-11.0642
▁bars	-11.0643
2-	-11.0643
▁washer	-11.0645
▁constantly	-11.0645
▁nh	-11.0646
▁wavelength	-11.0649
▁(7	-11.065
▁Child	-11.0651
▁proposal	-11.0651
▁friction	-11.0651
▁cortex	-11.0651
▁diverse	-11.0651
▁1996	-11.0652
▁Mill	-11.0653
▁biopsy	-11.0656
▁Cup	-11.0659
▁rises	-11.0659
▁47	-11.0661
eau	-11.0666
▁sal	-11.0671
▁Ju	-11.0671
▁PDF	-11.0672
▁Scotland	-11.0677
▁verizon	-11.0677
▁orlando	-11.0677
▁Hollywood	-11.0677
code	-11.0678
▁gen	-11.068
ef	-11.0682
▁multiply	-11.0683
face	-11.0683
pan	-11.0686
▁nearest	-11.0687
uit	-11.0688
▁disabled	-11.0688
GB	-11.0691
▁obvious	-11.0696
▁Stone	-11.0698
▁gate	-11.0698
▁rum	-11.0699
rian	-11.0703
▁retention	-11.0703
▁Franklin	-11.0704
▁piano	-11.0704
▁chlorine	-11.0704
▁definitely	-11.0707
▁sheep	-11.0707
▁conducted	-11.0708
▁communications	-11.0711
▁killer	-11.0712
▁killing	-11.0713
▁rna	-11.0714
itch	-11.0716
▁bites	-11.0722
oli	-11.0726
▁catheter	-11.0729
▁generated	-11.0729
▁Sal	-11.0729
▁62	-11.0729
▁availability	-11.073
▁afternoon	-11.073
▁ammonia	-11.073
▁nuclei	-11.073
▁rising	-11.0731
▁adjusted	-11.0735
▁transcription	-11.0737
▁Much	-11.0737
▁Mon	-11.0737
▁sync	-11.074
▁enters	-11.0741
▁beam	-11.0742
▁rail	-11.0749
tone	-11.075
▁cur	-11.0752
▁errors	-11.0754
▁gre	-11.0756
▁eligibility	-11.0756
▁nm	-11.0757
▁addiction	-11.0757
▁crest	-11.0759
PP	-11.0759
▁truly	-11.0759
▁releases	-11.076
▁european	-11.0761
▁brothers	-11.0762
▁43	-11.0763
▁crew	-11.0764
▁16,	-11.0766
IA	-11.0767
▁lipid	-11.0767
▁overview	-11.0768
▁ap	-11.0772
▁dual	-11.0773
▁explorer	-11.0774
▁warts	-11.0779
▁colony	-11.0782
▁17,	-11.0783
▁lupus	-11.0783
▁breathe	-11.0783
ind	-11.0784
▁carrying	-11.0784
▁dan	-11.0784
away	-11.0787
▁winner	-11.0787
▁Value	-11.0788
▁anesthesia	-11.0793
▁chrome	-11.0793
▁Dark	-11.0794
Pa	-11.0803
▁peppers	-11.0805
▁pets	-11.0805
▁shed	-11.0805
wall	-11.0806
gr	-11.0807
ters	-11.0808
dra	-11.0808
▁massachusetts	-11.081
▁poverty	-11.081
▁rheumatoid	-11.081
▁jewelry	-11.081
▁introduction	-11.0811
▁Location	-11.0811
TV	-11.0812
▁95	-11.0812
▁chamber	-11.0812
▁behavioral	-11.0813
▁refrigerated	-11.0815
▁13,	-11.0815
▁Email	-11.0815
what	-11.0818
yle	-11.082
▁louis	-11.0828
▁postal	-11.0835
▁Policy	-11.0836
▁1997	-11.0838
▁masters	-11.0838
▁creatinine	-11.0838
▁prompt	-11.084
uch	-11.0841
▁exclusively	-11.0846
FA	-11.0846
▁edema	-11.0846
▁networks	-11.0847
▁Wind	-11.0854
SP	-11.0858
▁1950	-11.0861
ache	-11.0863
▁1-800-	-11.0863
▁Idaho	-11.0863
▁confidence	-11.0864
▁poetry	-11.0864
▁Williams	-11.0865
▁Alcohol	-11.0865
▁bark	-11.0866
▁DO	-11.0868
▁shield	-11.0868
mile	-11.0869
▁Names	-11.0875
▁looked	-11.0875
▁fatal	-11.0876
....	-11.0877
▁AL	-11.0878
▁smith	-11.0879
▁bugs	-11.0886
▁pediatric	-11.0887
▁benign	-11.089
▁eukaryotic	-11.089
▁butterfly	-11.089
date	-11.0892
▁ecosystem	-11.0893
now	-11.09
ake	-11.0902
▁Mu	-11.0904
▁rivers	-11.0905
▁Down	-11.0907
▁successfully	-11.0908
hal	-11.0916
BS	-11.0916
▁opt	-11.0916
▁centuries	-11.0917
▁assault	-11.0917
▁Muscle	-11.0918
▁canyon	-11.0919
▁sheets	-11.0919
▁jones	-11.092
▁surrounded	-11.0923
▁]	-11.0924
▁wing	-11.0925
▁measurements	-11.0925
▁Rose	-11.0926
▁dys	-11.0926
tech	-11.0932
▁Har	-11.0933
▁heel	-11.0933
▁loved	-11.0935
▁ut	-11.0936
▁consumed	-11.0942
▁stains	-11.0943
▁Mini	-11.0944
ace	-11.0944
▁Technology	-11.0944
▁iTunes	-11.0944
▁tutorial	-11.0944
▁propane	-11.0944
ev	-11.0946
▁bloodstream	-11.0947
▁bend	-11.0948
▁sh	-11.0949
▁Feb	-11.0949
▁frost	-11.0952
▁happening	-11.0953
▁injections	-11.0953
▁hero	-11.0954
▁assess	-11.0957
▁magnet	-11.0959
▁Min	-11.096
De	-11.0961
▁Near	-11.0963
▁Range	-11.0965
ography	-11.0966
▁Oklahoma	-11.0971
▁fiscal	-11.0971
▁probability	-11.0971
▁Codes	-11.0972
▁FOR	-11.0973
▁romantic	-11.0973
▁predict	-11.0974
din	-11.0974
▁infectious	-11.0975
▁Royal	-11.0976
▁insured	-11.0985
300	-11.0986
▁fer	-11.0986
▁discovery	-11.0986
▁fasting	-11.0986
▁noted	-11.0989
▁confirmed	-11.099
▁warming	-11.0993
▁idaho	-11.0998
▁Joseph	-11.0999
▁ranks	-11.1
▁implants	-11.1
▁consult	-11.1
▁9,	-11.1
▁economics	-11.1002
▁statistical	-11.1003
phy	-11.1003
▁uncommon	-11.1008
▁qua	-11.1009
▁Legal	-11.1009
TER	-11.1014
▁wonderful	-11.1016
▁profession	-11.102
▁gestation	-11.102
▁painted	-11.1022
▁reflux	-11.1026
▁Tree	-11.1027
ail	-11.1028
▁dump	-11.1028
▁Carbon	-11.103
▁thoracic	-11.1031
fat	-11.1032
▁pur	-11.1034
▁tre	-11.1034
▁IS	-11.1035
ologist	-11.1038
▁representation	-11.1038
▁belongs	-11.1038
▁kittens	-11.1041
▁reduces	-11.1041
▁speeds	-11.1042
▁destroy	-11.1045
▁horn	-11.1045
▁401	-11.1045
max	-11.1046
▁_____	-11.1048
▁pearl	-11.1049
▁lighter	-11.1049
▁designated	-11.1049
▁declaration	-11.1053
▁hypothesis	-11.1053
▁violence	-11.1053
▁sociology	-11.1053
▁casino	-11.1053
▁skull	-11.1053
▁Executive	-11.1053
▁citizenship	-11.1054
▁Homes	-11.1054
rated	-11.1055
▁scheme	-11.1058
▁guest	-11.106
▁nut	-11.1061
▁Feed	-11.1065
▁essentially	-11.1066
▁russia	-11.1072
▁25%	-11.1075
made	-11.1079
▁vanilla	-11.1081
▁prevents	-11.1081
fu	-11.1081
▁flame	-11.1082
▁Lord	-11.1083
ably	-11.1084
▁Nursing	-11.1084
▁sat	-11.1084
xi	-11.1085
▁clouds	-11.1085
▁Corn	-11.1086
▁Need	-11.1094
▁https	-11.1096
▁hop	-11.1096
eria	-11.1097
▁rotate	-11.1097
used	-11.1099
ban	-11.1099
▁tears	-11.1104
▁passenger	-11.1104
▁har	-11.1105
▁Zealand	-11.1108
▁opioid	-11.1108
▁RN	-11.1108
▁Four	-11.1111
▁princess	-11.1113
▁Thank	-11.1116
▁qualifications	-11.1121
▁Posted	-11.1123
▁Apply	-11.1124
▁departments	-11.1125
▁promotion	-11.113
▁exhibit	-11.1134
duct	-11.1134
NC	-11.1134
▁ceo	-11.1135
▁incubation	-11.1135
▁Thesaurus	-11.1135
▁bleach	-11.1135
▁freight	-11.1136
▁severity	-11.1136
▁dies	-11.1138
rat	-11.1139
▁slope	-11.114
lee	-11.114
▁boneless	-11.1142
▁trademark	-11.1143
▁ru	-11.1146
graph	-11.1149
700	-11.1149
dent	-11.115
▁blank	-11.1159
▁Climate	-11.1164
otic	-11.1168
▁Kit	-11.1168
▁bat	-11.1174
▁30,	-11.1182
▁sufficient	-11.1187
rous	-11.119
▁Nevada	-11.1191
▁separation	-11.1191
▁dialysis	-11.1191
▁Resort	-11.1191
ali	-11.1199
▁Mi	-11.1199
▁australian	-11.1202
bs	-11.1202
▁defect	-11.1204
▁identical	-11.1218
▁console	-11.1219
▁focused	-11.1219
▁hives	-11.1221
.25	-11.1221
▁greenhouse	-11.1222
▁extraction	-11.1224
▁Driver	-11.1224
ua	-11.1225
cher	-11.1228
▁iv	-11.1233
▁whatever	-11.1235
pot	-11.1238
▁Ice	-11.1238
▁Record	-11.1243
▁Systems	-11.1247
▁Justice	-11.1247
▁films	-11.1247
▁Tap	-11.1247
▁vegan	-11.1248
▁influenza	-11.1249
-18	-11.1252
▁Gar	-11.1253
▁transform	-11.1253
▁3:	-11.1254
▁designs	-11.1255
▁heated	-11.1259
▁showed	-11.1262
▁mla	-11.1264
▁convenient	-11.1267
▁herb	-11.1267
▁outline	-11.1268
▁theater	-11.127
ope	-11.1272
▁accredited	-11.1274
▁Title	-11.1274
▁fungal	-11.1275
▁Creek	-11.1275
▁creek	-11.1278
PC	-11.128
00,000	-11.1283
▁yes	-11.1288
▁mad	-11.1295
▁adjacent	-11.1296
%),	-11.1296
▁receptor	-11.1297
▁pigment	-11.1298
▁bumps	-11.1299
unt	-11.1299
▁Translation	-11.1302
▁doubt	-11.1302
▁poisonous	-11.1303
▁Sales	-11.1304
▁managing	-11.1304
▁opposed	-11.1305
▁tendons	-11.1306
▁Cap	-11.1309
aries	-11.1311
▁withdraw	-11.1312
NO	-11.1313
▁cookies	-11.1314
ito	-11.1315
bus	-11.1318
▁certainly	-11.1318
▁dig	-11.132
▁Del	-11.1321
▁Prime	-11.1323
▁connections	-11.1323
▁Edward	-11.1331
▁smartphone	-11.1331
▁vector	-11.1331
▁damages	-11.1331
▁lyme	-11.1332
▁Mor	-11.1333
▁temple	-11.1333
▁66	-11.1338
wing	-11.134
▁comic	-11.1342
▁fighting	-11.1343
rom	-11.1343
▁polish	-11.1343
las	-11.1344
▁charter	-11.1346
py	-11.1348
rea	-11.135
IG	-11.1353
▁ligaments	-11.1353
rc	-11.1355
ku	-11.1358
▁plaque	-11.1359
▁iq	-11.1359
▁Saint	-11.136
▁mer	-11.136
▁rome	-11.1361
▁Iron	-11.1362
▁youngest	-11.1365
He	-11.1367
▁bur	-11.1367
▁welding	-11.1368
▁relax	-11.1368
▁alter	-11.1369
Me	-11.1371
ok	-11.1372
och	-11.1375
▁31,	-11.1375
▁illnesses	-11.1377
▁Dry	-11.1378
▁stack	-11.1381
▁none	-11.1382
▁ks	-11.1382
▁extends	-11.1386
▁spleen	-11.1387
▁Course	-11.1387
▁Complete	-11.1387
▁suggested	-11.1388
▁shallow	-11.1388
▁Em	-11.1389
ame	-11.1389
▁placenta	-11.1391
▁npi	-11.1398
▁prey	-11.1399
▁participate	-11.1402
ject	-11.1404
▁bitter	-11.1406
8,000	-11.1406
▁hol	-11.1407
bre	-11.1409
▁driven	-11.141
ect	-11.1412
▁Jack	-11.1413
▁disappear	-11.1415
▁iPad	-11.1415
▁trunk	-11.1415
▁Degree	-11.1415
▁Native	-11.1419
▁variant	-11.1421
rist	-11.1422
▁reproduce	-11.1423
▁crowd	-11.1425
▁danger	-11.1428
▁newspaper	-11.1428
▁mod	-11.1428
▁eyelid	-11.1429
▁roasting	-11.1429
8.	-11.1433
▁Compare	-11.1434
▁blow	-11.1434
vers	-11.1435
▁dressing	-11.1436
▁qualifying	-11.1436
▁calf	-11.1437
▁guests	-11.1438
tile	-11.1439
▁grades	-11.144
▁2011.	-11.144
pl	-11.1443
▁dying	-11.1444
▁hiring	-11.1444
▁Ver	-11.145
matic	-11.145
gal	-11.1452
▁invoice	-11.1458
onic	-11.1458
osa	-11.1459
▁hang	-11.1461
oe	-11.1463
lies	-11.1464
▁complaint	-11.1465
▁stools	-11.1467
edit	-11.1467
statin	-11.1471
▁accuracy	-11.1472
▁appraisal	-11.1472
▁Movie	-11.1472
▁northwest	-11.1473
▁acceptance	-11.1473
▁est	-11.1474
▁Jim	-11.1479
Ch	-11.1486
▁Garden	-11.1487
mate	-11.1487
▁civilization	-11.149
▁titles	-11.1491
▁hunting	-11.1493
PD	-11.1498
▁inc	-11.1499
▁broccoli	-11.1501
▁curriculum	-11.1501
▁gut	-11.1501
▁Organization	-11.1501
▁Christ	-11.1501
▁thoughts	-11.1501
▁stiff	-11.1503
▁cultures	-11.1505
▁somewhere	-11.1505
▁21,	-11.1506
▁Without	-11.1507
zz	-11.1507
▁chickens	-11.1508
▁yo	-11.1512
▁spaces	-11.1514
▁dividend	-11.1516
▁mutual	-11.1522
▁prep	-11.1522
▁bulbs	-11.1524
4)	-11.1525
▁Distance	-11.1529
▁hereditary	-11.1529
▁gluten	-11.153
▁sedimentary	-11.153
▁breeds	-11.1533
▁tele	-11.1536
▁Chart	-11.1539
▁comedy	-11.154
vert	-11.1544
▁Six	-11.1545
cip	-11.1548
▁drum	-11.1548
cept	-11.1549
▁aggregate	-11.155
▁Hold	-11.1554
▁erosion	-11.1558
▁Routing	-11.1558
▁disaster	-11.1558
▁ethnicity	-11.1559
EL	-11.1559
▁skillet	-11.156
▁scratch	-11.1561
▁slab	-11.1565
▁IV	-11.1568
▁teen	-11.1571
▁informal	-11.1576
▁youth	-11.1579
neurotransmitter	-11.158
▁gr	-11.158
▁grocery	-11.1587
▁perception	-11.1587
▁intellectual	-11.1587
▁Protection	-11.1588
▁Gulf	-11.1588
▁Tra	-11.1588
cor	-11.159
▁envelope	-11.1591
▁Solar	-11.1593
▁threat	-11.1595
▁dial	-11.1596
▁proven	-11.1603
▁Article	-11.1604
▁maintaining	-11.1607
▁consideration	-11.1609
▁TN	-11.1609
▁tornado	-11.1611
▁$14	-11.1611
▁syn	-11.1611
▁pace	-11.1612
person	-11.1613
▁heads	-11.1615
▁guidance	-11.1616
▁beneath	-11.1616
▁valves	-11.1617
▁secretary	-11.1617
▁ja	-11.1617
▁groin	-11.1619
▁Talk	-11.1622
mid	-11.1622
▁slaves	-11.1625
mouth	-11.1625
▁Mobile	-11.1626
nu	-11.1628
rio	-11.1628
lt	-11.163
▁belief	-11.1632
▁Comp	-11.1637
▁dec	-11.1638
everal	-11.1639
An	-11.1643
▁strengthen	-11.1643
pers	-11.1643
▁Caribbean	-11.1645
▁deficit	-11.1645
▁tournament	-11.1645
▁tired	-11.1646
8,	-11.1646
▁harry	-11.1646
▁Money	-11.1647
▁coughing	-11.1648
▁Body	-11.1648
▁seeking	-11.1649
▁examine	-11.1649
▁Young	-11.1654
000	-11.1657
▁artists	-11.1659
zy	-11.1659
▁suddenly	-11.166
▁Synonyms	-11.1665
▁2016,	-11.1668
▁Update	-11.1668
▁upset	-11.1669
▁athletic	-11.1674
▁Diego	-11.1674
ire	-11.1679
▁49	-11.1681
▁spices	-11.1683
▁dining	-11.1684
▁Apr	-11.1687
▁ME	-11.1687
▁Fox	-11.1691
▁balanced	-11.1693
nal	-11.1697
▁geographic	-11.1697
▁Assistant	-11.1703
▁politics	-11.1703
▁gently	-11.1703
▁Consider	-11.1703
▁watching	-11.1704
▁reveal	-11.1706
▁queen	-11.1707
pod	-11.1707
▁10,	-11.1709
lm	-11.1709
▁Ken	-11.1712
▁mlb	-11.1714
▁90%	-11.1719
▁ants	-11.172
▁mate	-11.1723
round	-11.1726
▁Tips	-11.1729
▁bean	-11.1729
▁Brand	-11.1732
▁cervix	-11.1732
▁combustion	-11.1732
▁meningitis	-11.1732
▁Veterans	-11.1732
▁automobile	-11.1732
▁jazz	-11.1732
▁covalent	-11.1733
▁henry	-11.1733
▁Style	-11.1733
▁Trans	-11.1735
▁toxins	-11.1736
▁relations	-11.174
tia	-11.174
gh	-11.1741
▁Branch	-11.1743
een	-11.1744
berry	-11.1746
▁elephant	-11.1751
▁99	-11.1752
▁ci	-11.1756
▁fed	-11.1756
▁Comments	-11.1758
▁ACT	-11.1759
▁Commercial	-11.1761
▁Connecticut	-11.1761
▁supporting	-11.1762
▁suffering	-11.1763
▁160	-11.1764
▁8.	-11.1765
struct	-11.1765
var	-11.1769
▁Cities	-11.1773
▁santa	-11.1774
▁forced	-11.1778
▁pyramid	-11.1781
▁atp	-11.1785
▁ethics	-11.1785
▁spice	-11.1786
▁Revenue	-11.1791
▁Square	-11.1791
▁optimal	-11.1791
▁ghost	-11.1792
▁$5,000	-11.1793
▁retire	-11.1801
EC	-11.1804
kins	-11.1805
word	-11.1806
▁mushrooms	-11.1807
▁overhead	-11.1809
▁fell	-11.1814
TS	-11.182
▁coordinator	-11.182
▁encyclopedia	-11.182
▁maintained	-11.182
▁cows	-11.1821
▁adventure	-11.1821
▁dell	-11.1821
6,	-11.1823
nate	-11.1825
▁AP	-11.1826
eu	-11.1828
ora	-11.1829
▁gal	-11.1834
▁crops	-11.1834
space	-11.1835
▁restrictions	-11.1838
mont	-11.1839
▁claimed	-11.1842
▁concerns	-11.1846
mine	-11.1847
sta	-11.1847
▁Delta	-11.1851
boy	-11.1852
▁Less	-11.1856
▁drives	-11.1859
Éa	-11.186
▁Tar	-11.186
▁echo	-11.186
▁NJ	-11.1863
▁vagina	-11.1864
gno	-11.1865
▁celebrate	-11.1866
▁cla	-11.1867
CP	-11.1871
▁5%	-11.1873
▁joe	-11.1874
gas	-11.1876
▁slight	-11.1877
▁slip	-11.1878
▁shrink	-11.1879
▁lottery	-11.188
▁Foundation	-11.188
▁aorta	-11.188
▁makeup	-11.1882
▁passengers	-11.1883
▁heartburn	-11.1884
pu	-11.1885
▁itch	-11.1886
▁singular	-11.1886
▁wv	-11.1887
pon	-11.1894
▁Clinical	-11.1895
bound	-11.1896
▁careful	-11.1898
▁strips	-11.1899
▁Pat	-11.1899
▁tro	-11.1902
under	-11.1902
▁Chris	-11.1904
ENT	-11.1904
pound	-11.1905
▁agreed	-11.1906
▁agriculture	-11.1909
▁experiencing	-11.1909
▁mexican	-11.1909
▁phylum	-11.1909
▁violent	-11.1909
▁dialog	-11.191
▁gym	-11.191
▁sweating	-11.1911
▁dropped	-11.1911
See	-11.1914
▁Ci	-11.1919
▁$13	-11.193
▁lid	-11.193
▁$300	-11.1931
▁SE	-11.1933
▁veterans	-11.1934
base	-11.1939
▁hood	-11.1939
▁Physical	-11.1939
▁trimester	-11.1939
▁reimbursement	-11.194
▁adoption	-11.1941
▁smoked	-11.1941
▁1995	-11.1941
▁blanket	-11.1943
ii	-11.1947
▁consequences	-11.1947
▁Internal	-11.1948
▁decreases	-11.1951
▁longitude	-11.1952
▁timing	-11.1956
▁Model	-11.1957
▁facing	-11.1959
biotic	-11.1962
▁Mountains	-11.1966
TO	-11.1968
▁Bachelor	-11.1969
▁Detroit	-11.1969
▁threshold	-11.1969
▁buffalo	-11.1969
▁recessive	-11.1969
▁Clinton	-11.197
▁petition	-11.197
▁scott	-11.1971
▁richard	-11.1972
pper	-11.1974
body	-11.1975
▁Products	-11.1977
OP	-11.198
▁reaching	-11.1981
▁1%	-11.1983
▁Answers	-11.1987
ET	-11.1989
▁goat	-11.199
▁weighs	-11.1992
▁towel	-11.1993
▁cons	-11.1994
els	-11.1994
▁Egypt	-11.1996
▁lender	-11.1997
▁ABC	-11.1998
▁Greece	-11.1999
▁mississippi	-11.1999
▁confusion	-11.1999
▁dispute	-11.2
▁capsule	-11.2001
▁mars	-11.2002
▁coding	-11.2003
▁ipad	-11.2004
▁char	-11.2006
cle	-11.2008
▁tiger	-11.2011
▁focuses	-11.2016
▁gravel	-11.2022
eller	-11.2022
▁Info	-11.2029
▁acquisition	-11.2029
▁refresh	-11.203
▁captain	-11.203
▁engagement	-11.203
▁referring	-11.2031
▁ly	-11.2031
▁80%	-11.2032
▁specify	-11.2034
▁johnson	-11.2034
▁cave	-11.2035
▁pt	-11.2037
▁Fill	-11.2038
▁Pal	-11.2038
post	-11.204
cus	-11.2041
▁donation	-11.2041
▁suspect	-11.2044
▁redness	-11.2046
▁Fa	-11.2047
ME	-11.2048
▁reserved	-11.2048
5.	-11.2049
▁mice	-11.2052
▁connector	-11.2054
▁jurisdiction	-11.2055
▁outcome	-11.2055
▁Cast	-11.2057
▁diploma	-11.2058
▁41	-11.2058
▁renaissance	-11.2059
▁supervisor	-11.206
▁CEO	-11.206
▁cab	-11.206
▁pint	-11.2062
DS	-11.2063
▁sy	-11.2069
ground	-11.2071
service	-11.2072
sch	-11.2077
▁organelles	-11.2082
▁knowing	-11.2083
▁frank	-11.2083
▁Cash	-11.2085
▁achieved	-11.2088
place	-11.2089
▁tesla	-11.209
▁hockey	-11.209
▁attendance	-11.2091
▁accompanied	-11.2092
▁engaged	-11.2101
▁Electric	-11.2103
▁forum	-11.2105
▁booking	-11.2105
▁Bowl	-11.2107
▁Micro	-11.2114
There	-11.2116
IM	-11.2118
▁peas	-11.2118
bel	-11.2118
▁twenty	-11.212
▁voluntary	-11.212
▁unlimited	-11.2121
▁denver	-11.2121
▁fake	-11.2125
)	-11.2128
SI	-11.213
▁oscars	-11.2137
▁chin	-11.2138
▁opens	-11.2142
ust	-11.2143
▁ve	-11.2143
▁19,	-11.2144
▁Ask	-11.2149
▁crack	-11.2149
▁avocado	-11.2151
▁choosing	-11.2151
▁memorial	-11.2151
dL	-11.2151
▁Song	-11.2151
▁balloon	-11.2151
▁defendant	-11.2152
stein	-11.2154
▁Base	-11.2157
▁capitalized	-11.2159
▁bon	-11.2161
▁140	-11.2164
lor	-11.2164
▁loin	-11.2165
fr	-11.2165
▁10,000	-11.217
▁2010.	-11.217
▁disable	-11.2177
▁preventing	-11.2177
espite	-11.218
▁pap	-11.218
▁Double	-11.2181
▁Preheat	-11.2181
▁nationwide	-11.2182
▁stocks	-11.2185
▁crimes	-11.2187
▁Dog	-11.219
rp	-11.2191
▁Text	-11.2192
▁adapt	-11.2195
lla	-11.2196
▁Reserve	-11.2199
▁interactions	-11.2203
▁tradition	-11.2204
▁lets	-11.2204
▁regulates	-11.2205
hl	-11.221
ien	-11.221
▁Brazil	-11.221
▁sleeve	-11.2212
▁indication	-11.2212
▁studied	-11.2212
▁itunes	-11.2213
▁commitment	-11.2213
▁rat	-11.2217
▁wires	-11.2218
▁Cur	-11.2221
▁luck	-11.2221
▁deleted	-11.2225
▁thighs	-11.2226
▁mining	-11.2228
▁haven	-11.2228
▁Th	-11.2229
++	-11.2229
▁Win	-11.2235
▁considering	-11.2236
▁tonight	-11.2237
▁Dakota	-11.2243
▁ethanol	-11.2243
▁mor	-11.2246
rum	-11.2247
▁(9	-11.2248
▁clo	-11.2248
▁chances	-11.225
▁scrap	-11.2251
▁favor	-11.2256
▁vo	-11.2261
RS	-11.2262
▁MP	-11.2263
▁constitutes	-11.2263
▁possess	-11.2264
▁dirt	-11.2266
dic	-11.2269
▁snack	-11.2273
▁complicated	-11.2274
▁watermelon	-11.2274
▁abstract	-11.2274
▁entrance	-11.2274
▁quotation	-11.2274
▁polymerase	-11.2274
RP	-11.2275
▁wiki	-11.2276
▁jam	-11.2277
ancy	-11.2277
▁maker	-11.2278
lle	-11.2291
▁mention	-11.2294
▁Han	-11.23
▁dev	-11.23
▁misdemeanor	-11.2305
▁diversity	-11.2305
▁forensic	-11.2305
▁transit	-11.2305
▁monster	-11.2305
▁solvent	-11.2305
▁rot	-11.2307
PE	-11.2308
▁teaspoons	-11.231
▁Dead	-11.231
▁inspired	-11.2313
▁float	-11.2318
bird	-11.232
▁publication	-11.2322
▁candidates	-11.2323
▁locate	-11.2323
ode	-11.2326
tax	-11.2327
▁User	-11.2332
▁basin	-11.2334
mann	-11.2334
▁agricultural	-11.2336
▁sunshine	-11.2336
▁quilt	-11.2336
▁rotator	-11.2337
▁Making	-11.2338
▁UN	-11.234
ional	-11.2341
▁sensitivity	-11.2341
▁Block	-11.2342
weight	-11.2342
1,000	-11.2342
▁passive	-11.2343
ature	-11.2348
dom	-11.2348
▁sugars	-11.2349
▁wooden	-11.2349
▁Bell	-11.2352
▁rush	-11.2352
▁introduce	-11.2352
▁packages	-11.2357
▁Fund	-11.236
▁Arkansas	-11.2367
▁Certified	-11.2367
▁Orleans	-11.2367
▁completion	-11.2367
▁heritage	-11.2367
▁ovarian	-11.2367
▁cortisol	-11.2367
▁defining	-11.2367
▁departure	-11.2367
▁ratings	-11.2367
▁Madison	-11.2367
▁quartz	-11.2368
▁victim	-11.2368
▁accessible	-11.237
▁alien	-11.2371
▁HP	-11.2371
▁bail	-11.2372
▁containers	-11.2372
▁radical	-11.2373
▁connecting	-11.2374
▁volcanoes	-11.2374
▁taxi	-11.2376
site	-11.2377
ush	-11.2382
▁Rent	-11.2382
▁Shop	-11.2382
▁________	-11.2383
even	-11.2384
▁collar	-11.2385
▁Case	-11.2388
▁Fast	-11.2388
▁settle	-11.2389
▁Wild	-11.239
una	-11.2391
▁rope	-11.2393
▁conversation	-11.2398
▁insomnia	-11.2398
▁Samsung	-11.2398
▁conclusion	-11.2398
▁Turkey	-11.2398
▁universities	-11.2401
▁williams	-11.2402
▁Living	-11.2403
▁fries	-11.2407
4,000	-11.2409
▁travels	-11.2409
▁Arabic	-11.241
▁daycare	-11.2411
TC	-11.2417
col	-11.2417
eur	-11.2417
▁enables	-11.2419
rb	-11.2421
▁Party	-11.2424
▁Fish	-11.2426
▁capillaries	-11.2429
▁ordinary	-11.2429
▁phenomenon	-11.2429
▁Single	-11.243
▁prune	-11.243
▁households	-11.243
▁Hotels	-11.2431
▁turtle	-11.2432
▁probate	-11.2434
▁tsp	-11.2434
path	-11.2436
gger	-11.2438
▁Steel	-11.2438
ening	-11.2439
▁shadow	-11.2442
ison	-11.2442
▁grid	-11.2443
▁matches	-11.2445
▁dissolved	-11.2446
rm	-11.2446
▁pale	-11.2447
▁Va	-11.2447
EM	-11.2448
▁Within	-11.2452
▁adequate	-11.2453
making	-11.2453
▁egypt	-11.2457
fin	-11.2459
▁automotive	-11.2461
▁leukemia	-11.2461
▁phoenix	-11.2461
▁phosphorus	-11.2461
▁inflamed	-11.2461
▁hamburger	-11.2461
▁guess	-11.2461
▁1969	-11.2462
▁Notice	-11.2462
▁boom	-11.2463
▁sunny	-11.2464
▁outlet	-11.2464
▁elementary	-11.2465
▁Questions	-11.2467
▁insect	-11.2467
▁sl	-11.2469
▁shi	-11.2471
▁NE	-11.2471
▁pic	-11.2473
step	-11.2474
▁SI	-11.2476
▁3.5	-11.2477
▁dreams	-11.2483
ado	-11.2485
rite	-11.2488
▁Ru	-11.2491
▁Lower	-11.2492
▁epidermis	-11.2492
▁suspension	-11.2492
▁discussed	-11.2493
▁Sep	-11.2494
▁possession	-11.2496
ela	-11.2496
▁quiet	-11.2498
yr	-11.2499
▁instruction	-11.25
▁mint	-11.25
▁effectiveness	-11.2502
▁revealed	-11.2509
met	-11.251
nor	-11.2519
gan	-11.252
▁AT	-11.252
▁ultimate	-11.2521
▁Thanks	-11.2522
▁ethnic	-11.2523
▁Lock	-11.2524
▁arrival	-11.2524
▁tenderloin	-11.2524
▁purchasing	-11.2524
▁Jesus	-11.2524
▁Ridge	-11.2525
▁bri	-11.2526
▁authorization	-11.2527
yo	-11.2527
▁stopped	-11.2528
▁composer	-11.253
▁AD	-11.2531
▁transfers	-11.2533
▁guys	-11.2535
▁Effects	-11.2536
▁magma	-11.2538
rill	-11.2538
ound	-11.2539
▁Off	-11.2541
mus	-11.2542
▁cargo	-11.2545
▁weighted	-11.2546
▁hose	-11.2546
▁Due	-11.2549
▁mary	-11.2553
ain	-11.2553
▁Job	-11.2554
▁Games	-11.2555
▁columbia	-11.2556
▁Forecast	-11.2556
wo	-11.2557
▁Fiber	-11.2558
▁gradually	-11.2559
▁marry	-11.256
▁steve	-11.256
▁edges	-11.2561
▁Tour	-11.2561
iest	-11.2564
▁Tools	-11.2564
▁ads	-11.2564
▁peri	-11.2565
▁hd	-11.2566
rn	-11.2568
▁usps	-11.2569
▁Browse	-11.257
chy	-11.2572
▁welcome	-11.2574
Con	-11.2576
▁0.5	-11.2578
▁Leg	-11.258
▁Region	-11.2583
mond	-11.2585
▁discrimination	-11.2588
▁Things	-11.2588
▁flesh	-11.2588
▁appointed	-11.2594
▁cereal	-11.2595
▁thanks	-11.2595
▁laminate	-11.2597
ati	-11.2597
▁endo	-11.2603
▁differential	-11.2604
▁aim	-11.2604
▁behalf	-11.2609
▁$60	-11.2616
▁sulfur	-11.2616
▁ankles	-11.2617
EE	-11.2618
▁Survey	-11.262
▁donald	-11.262
▁ste	-11.2623
ila	-11.2628
▁2017,	-11.263
▁stems	-11.263
▁slot	-11.2632
▁phil	-11.2633
▁coldest	-11.2634
▁hack	-11.2637
▁Forest	-11.2637
▁translations	-11.2638
▁prescribe	-11.2639
▁ionic	-11.264
▁lifting	-11.2642
▁proud	-11.2647
▁meets	-11.2649
▁charts	-11.2649
▁forests	-11.2649
▁infrastructure	-11.2652
isation	-11.2652
▁Scottish	-11.2653
▁gastric	-11.2655
▁Gen	-11.2655
▁hits	-11.2657
▁Bob	-11.2657
home	-11.2665
▁Schools	-11.2665
▁sending	-11.2666
▁rays	-11.2667
att	-11.267
/1	-11.267
▁Golden	-11.2671
▁Gra	-11.2673
▁pp	-11.2678
▁doctrine	-11.2684
▁graduation	-11.2684
▁theories	-11.2686
▁interpretation	-11.2686
▁stability	-11.2686
▁cancers	-11.2687
ometer	-11.2691
▁treats	-11.2691
▁jim	-11.2692
▁handling	-11.2695
▁constructed	-11.2696
▁resolve	-11.2703
ath	-11.2704
▁failed	-11.2707
▁Resources	-11.2708
Do	-11.2708
CE	-11.2715
▁puberty	-11.2716
▁circular	-11.2716
▁plum	-11.2717
▁Victoria	-11.2717
▁Options	-11.2719
▁offset	-11.272
paid	-11.2721
aj	-11.2721
▁laid	-11.2724
▁pathway	-11.2726
▁accomplish	-11.2726
▁12,	-11.2727
sey	-11.2728
▁servers	-11.2729
vic	-11.273
English	-11.2733
▁cooler	-11.2736
oa	-11.2741
▁cycles	-11.2742
▁Cape	-11.2743
▁apples	-11.2747
▁meats	-11.2747
▁Vietnam	-11.2748
▁vertigo	-11.2748
▁remedy	-11.2748
▁delicious	-11.2748
▁bureau	-11.2749
▁rinse	-11.2749
▁vertebrae	-11.2751
▁underground	-11.2752
▁organelle	-11.2758
▁acc	-11.2761
FC	-11.2762
▁Visa	-11.2765
lac	-11.2765
▁phones	-11.2766
▁papers	-11.2768
▁parish	-11.2774
▁Asian	-11.2776
CI	-11.2776
1)	-11.2778
▁cooker	-11.2778
▁lesions	-11.2779
▁Chicken	-11.2781
▁Difference	-11.2781
▁calculating	-11.2781
▁colonoscopy	-11.2781
▁lipids	-11.2781
▁imaging	-11.2781
▁verification	-11.2781
▁spinach	-11.2781
▁Wilson	-11.2782
▁1994	-11.2782
▁Avoid	-11.2784
▁Pack	-11.2787
▁electro	-11.2788
▁patches	-11.2789
▁Assessor	-11.2791
rine	-11.2794
source	-11.2794
specific	-11.2795
▁Eat	-11.2795
lav	-11.2799
▁corresponding	-11.2799
je	-11.2802
▁grace	-11.2805
▁immigrants	-11.2808
▁condo	-11.2808
▁implement	-11.2809
▁mitochondria	-11.2811
▁endangered	-11.2813
▁Salaries	-11.2814
▁Daniel	-11.2814
▁spoon	-11.2815
▁despite	-11.2816
▁fe	-11.2817
▁acceptable	-11.2818
▁SQL	-11.2824
nn	-11.2824
eno	-11.2826
▁bolt	-11.2827
▁pose	-11.2833
▁Mad	-11.2834
▁surprise	-11.2835
ben	-11.2837
▁labels	-11.2837
zer	-11.2839
▁baggage	-11.2846
▁Cambridge	-11.2846
verse	-11.2851
▁lenses	-11.2853
▁module	-11.2857
▁firms	-11.2863
▁climb	-11.2863
▁opera	-11.2864
master	-11.2865
▁taxed	-11.2868
▁silk	-11.2868
▁nu	-11.2874
▁Final	-11.2876
▁authors	-11.2877
gastrointestinal	-11.2879
▁technologies	-11.2879
▁welfare	-11.2879
▁Capital	-11.2879
▁toyota	-11.2879
▁conjunction	-11.2879
▁typing	-11.2879
▁radioactive	-11.2879
▁stamps	-11.288
▁durable	-11.288
▁attractive	-11.288
dr	-11.2882
▁layout	-11.2883
▁clip	-11.2885
▁explained	-11.2886
▁distinction	-11.2886
▁diego	-11.2886
rg	-11.2886
▁arranged	-11.2886
ender	-11.2887
▁18,	-11.2889
▁owe	-11.2891
▁(0	-11.2894
▁Representatives	-11.2895
▁liters	-11.2895
vy	-11.2896
▁Jay	-11.2896
script	-11.2899
▁indirect	-11.2903
▁colored	-11.2906
front	-11.2911
▁Jefferson	-11.2912
▁Exchange	-11.2912
▁ebay	-11.2913
▁awareness	-11.2914
ult	-11.2914
▁alarm	-11.2914
|	-11.2917
rus	-11.2922
▁USD	-11.2923
▁Wash	-11.2923
▁Studio	-11.2924
eri	-11.2924
▁Works	-11.2924
▁coral	-11.2925
▁applicants	-11.2925
hol	-11.2927
▁Award	-11.2927
ille	-11.2929
▁Bre	-11.2934
▁desk	-11.2936
▁rolling	-11.2941
▁Inn	-11.2942
▁turtles	-11.2942
▁Costs	-11.2943
▁atmospheric	-11.2945
▁abilities	-11.2945
▁Football	-11.2945
▁montana	-11.2945
▁Calculator	-11.2946
▁rap	-11.2946
▁1989	-11.295
▁Ban	-11.2951
chin	-11.2952
▁damp	-11.2955
▁cramping	-11.2955
▁declared	-11.2957
http	-11.2962
craft	-11.2963
▁Signs	-11.2968
utter	-11.2975
▁Senior	-11.2978
▁Simply	-11.2978
▁anaerobic	-11.2978
▁convenience	-11.2978
▁immunity	-11.2978
▁requiring	-11.2978
▁Honda	-11.2978
▁Battle	-11.2979
▁mantle	-11.2979
▁liquids	-11.2982
▁Advanced	-11.2985
▁inserted	-11.2986
▁Roll	-11.2988
▁newly	-11.299
▁settled	-11.2992
▁assign	-11.2992
▁dealing	-11.2997
ising	-11.2997
▁NO	-11.3003
▁flies	-11.3007
▁01	-11.3007
flu	-11.3007
▁Practice	-11.3011
▁temperate	-11.3011
▁cider	-11.3012
wn	-11.3013
▁retina	-11.3014
▁victory	-11.3015
▁Such	-11.3018
its	-11.302
augh	-11.302
▁topics	-11.3022
▁mere	-11.3026
profit	-11.3027
▁Gl	-11.3028
▁bottles	-11.3031
▁korea	-11.3037
▁Safe	-11.3042
▁stops	-11.3042
▁knew	-11.3046
▁Daylight	-11.3046
▁ep	-11.3048
▁occupation	-11.3051
esis	-11.3053
▁harder	-11.3054
▁$40	-11.3055
▁sprinkler	-11.3056
ATION	-11.3058
▁cluster	-11.3059
size	-11.306
▁encounter	-11.3063
▁bringing	-11.3064
EST	-11.3065
RO	-11.307
,000.	-11.3072
▁defines	-11.3072
▁Boy	-11.3075
▁quantities	-11.3078
PT	-11.3078
▁ongoing	-11.3078
▁ter	-11.3083
▁1993	-11.3083
▁dock	-11.3086
▁preserve	-11.309
▁icd	-11.309
▁kitten	-11.3094
▁gall	-11.31
▁boiler	-11.3101
▁permanently	-11.3102
7,	-11.3103
▁Korea	-11.3103
hor	-11.3106
▁strands	-11.3107
▁Tea	-11.3107
tch	-11.3109
▁integration	-11.3111
▁participle	-11.3111
▁Chronic	-11.3112
▁impairment	-11.3112
▁lawsuit	-11.3112
▁impression	-11.3113
▁Ancient	-11.3113
▁starter	-11.3114
ways	-11.3115
ui	-11.3116
NS	-11.312
▁cancelled	-11.3125
etropolitan	-11.3126
▁trucks	-11.3128
bell	-11.3129
▁assisted	-11.3131
(0.00	-11.3132
▁tra	-11.3133
▁dryer	-11.3134
▁apartments	-11.3136
▁2-3	-11.3136
▁displays	-11.3138
,800	-11.3142
▁reflex	-11.3142
6,000	-11.3143
▁Committee	-11.3145
▁progesterone	-11.3145
▁persistent	-11.3146
▁78	-11.3147
▁featured	-11.3147
▁Winter	-11.3149
▁8.1	-11.315
▁trainer	-11.3151
▁blockage	-11.3151
▁pumps	-11.3154
▁habit	-11.3157
▁lord	-11.3158
▁mailing	-11.3161
illo	-11.3163
illi	-11.3164
▁joy	-11.3164
▁Pop	-11.3166
▁uni	-11.3167
hin	-11.317
▁Snow	-11.3172
vision	-11.3175
genic	-11.3177
▁Corps	-11.3179
▁Software	-11.3179
▁hollow	-11.318
▁gulf	-11.3181
▁fetal	-11.3182
▁indian	-11.3183
▁aside	-11.3183
▁Oak	-11.3184
▁oc	-11.3184
▁AS	-11.3184
▁Used	-11.3186
▁matters	-11.3186
▁ben	-11.3188
nar	-11.3188
▁sar	-11.319
▁alphabet	-11.3191
▁gained	-11.3194
▁facilitate	-11.3199
▁bal	-11.3202
▁alert	-11.3202
▁democratic	-11.3202
▁missed	-11.3205
ova	-11.3209
▁trick	-11.3209
▁platelets	-11.3211
▁je	-11.3212
▁casual	-11.3212
▁december	-11.3213
▁flexibility	-11.3213
▁crawl	-11.3213
▁probation	-11.3213
▁franklin	-11.3213
▁hazardous	-11.3214
▁Having	-11.3214
▁shortcut	-11.3215
qu	-11.3217
▁angeles	-11.3219
▁alcoholic	-11.3219
9,	-11.3221
▁compete	-11.3221
▁ICD	-11.3225
▁laying	-11.3226
▁56	-11.3227
cul	-11.3228
▁faith	-11.3228
tag	-11.323
▁announce	-11.3231
▁arrangement	-11.3231
Getty	-11.3233
▁Unit	-11.3235
izer	-11.3235
she	-11.3236
▁guaranteed	-11.3236
TION	-11.3241
▁adds	-11.3245
▁advocate	-11.3245
▁Journal	-11.3247
▁kennedy	-11.3247
▁adobe	-11.3247
▁genome	-11.3247
▁Certain	-11.3248
▁Multi	-11.325
▁unlike	-11.325
▁29,	-11.325
▁graphic	-11.3251
fire	-11.3253
▁Think	-11.3254
▁fargo	-11.326
dl	-11.3262
▁shortness	-11.3262
▁thank	-11.3263
▁rainforest	-11.3265
2,000	-11.3267
▁expired	-11.3267
3,000	-11.327
BC	-11.3271
▁grip	-11.3276
▁evolved	-11.3277
▁08	-11.3278
▁bump	-11.3279
lk	-11.3279
▁Trust	-11.328
▁asparagus	-11.3281
▁legislature	-11.3281
▁uterine	-11.3281
▁Volume	-11.3281
▁chemotherapy	-11.3281
▁cedar	-11.3281
▁ribbon	-11.3281
▁raising	-11.3281
▁jeep	-11.3281
▁aortic	-11.3282
▁wildlife	-11.3282
▁1991	-11.3282
▁lymphoma	-11.3282
▁curry	-11.3282
rest	-11.3283
▁cod	-11.3283
▁overdose	-11.3284
▁perfectly	-11.3285
rock	-11.3285
▁Seven	-11.3286
▁22,	-11.3287
DE	-11.3288
cum	-11.3291
▁dar	-11.3291
▁23,	-11.3296
▁Format	-11.3298
▁4:	-11.3299
▁Awards	-11.3304
▁carbonate	-11.3306
▁approximate	-11.3308
▁100,000	-11.3308
very	-11.3311
▁hunter	-11.3315
▁dwarf	-11.3315
▁intolerance	-11.3315
▁nevada	-11.3315
▁variance	-11.3315
▁volcanic	-11.3315
▁chevy	-11.3315
▁implementation	-11.3317
▁gem	-11.3317
▁prolonged	-11.3318
▁Sc	-11.3325
▁wondering	-11.3326
▁Pick	-11.3331
oke	-11.3333
▁recreational	-11.3334
▁Being	-11.3337
▁seizure	-11.3338
▁designation	-11.3339
gus	-11.3342
▁Hours	-11.3342
▁transmit	-11.3342
▁mp	-11.3345
acy	-11.3345
▁mud	-11.3346
CT	-11.3347
▁stimulates	-11.3347
▁accidents	-11.3348
▁chris	-11.3349
▁Birth	-11.3349
▁Staff	-11.3349
▁Memorial	-11.335
▁Statistical	-11.335
▁february	-11.335
▁fought	-11.335
▁tetanus	-11.335
▁plague	-11.335
hydr	-11.335
▁existence	-11.3351
▁skype	-11.3351
▁canned	-11.3351
▁globe	-11.3351
▁infect	-11.3352
▁tur	-11.3352
▁chef	-11.3354
▁Pr	-11.3354
▁singing	-11.3356
anna	-11.3357
▁tourist	-11.3357
▁Limited	-11.3357
this	-11.3359
nda	-11.3363
▁tr	-11.3363
uria	-11.3365
▁websites	-11.337
▁Nutrition	-11.337
▁derivative	-11.337
▁Doctor	-11.3371
MI	-11.3371
▁Steve	-11.3375
▁Normal	-11.3377
▁lying	-11.338
▁variations	-11.3382
▁navigation	-11.3384
▁Galaxy	-11.3384
▁Unfortunately	-11.3384
▁awarded	-11.3387
▁Story	-11.3387
▁Angel	-11.3388
▁crude	-11.3388
▁placement	-11.3389
▁myself	-11.3389
▁analyze	-11.3389
aa	-11.3395
▁101	-11.3397
▁Nor	-11.3399
lp	-11.3399
aid	-11.34
▁fuels	-11.34
green	-11.3406
▁Dollar	-11.3406
▁advisor	-11.341
force	-11.3416
rail	-11.3418
▁ignition	-11.3419
▁turmeric	-11.3419
9,000	-11.3419
▁binary	-11.3419
▁titanic	-11.342
▁Essential	-11.342
▁Study	-11.342
▁Latest	-11.3421
shire	-11.3423
▁observation	-11.3424
▁pulling	-11.3425
▁vin	-11.3426
DA	-11.3426
▁strongest	-11.3426
▁Results	-11.3427
▁gar	-11.3428
▁invest	-11.343
▁liter	-11.3432
▁celebrated	-11.3434
▁Updated	-11.3434
▁sponsor	-11.3438
pit	-11.344
▁coli	-11.3445
▁watts	-11.3448
▁wins	-11.3451
oy	-11.3452
▁Wa	-11.3452
▁acrylic	-11.3453
▁council	-11.3453
▁Requirements	-11.3453
▁Montana	-11.3454
▁2-	-11.3454
▁clinton	-11.3454
▁sickness	-11.3457
▁allele	-11.3458
▁vegetarian	-11.3458
▁outstanding	-11.346
▁Flag	-11.346
▁primer	-11.346
▁arise	-11.3462
▁restricted	-11.3464
▁DE	-11.3465
▁indoor	-11.3467
▁invent	-11.3467
▁63	-11.3468
▁Clear	-11.347
▁110	-11.347
▁Tell	-11.347
▁resist	-11.3475
▁Ste	-11.3482
▁transcript	-11.3484
▁dot	-11.3487
▁Vehicle	-11.3488
▁nashville	-11.3488
▁rhyme	-11.3488
▁substrate	-11.3488
▁licence	-11.3488
▁breastfeeding	-11.3491
▁Leave	-11.3495
,300	-11.3495
▁improved	-11.3496
▁cry	-11.3497
▁smoker	-11.3497
Mo	-11.3502
▁fitting	-11.3503
▁phases	-11.3504
UN	-11.3504
week	-11.3507
▁twins	-11.3509
▁Mag	-11.3512
▁farmers	-11.3512
▁commander	-11.3515
▁mala	-11.3516
▁witness	-11.3519
▁sw	-11.3521
int	-11.3521
▁Popular	-11.3522
▁funding	-11.3523
▁Historical	-11.3523
▁(20	-11.3523
▁Certificate	-11.3523
▁pancreatic	-11.3523
▁oatmeal	-11.3523
▁microscope	-11.3523
▁bluetooth	-11.3523
▁Golf	-11.3524
▁Airlines	-11.3524
▁donor	-11.353
itt	-11.3531
▁aging	-11.3534
▁polymer	-11.3536
▁Currently	-11.3538
lands	-11.3542
ched	-11.3543
inflammatory	-11.3545
▁header	-11.3548
▁forth	-11.3551
fil	-11.3551
▁Officer	-11.3559
▁stiffness	-11.356
▁distinctive	-11.3561
worth	-11.3561
bal	-11.3561
▁assignment	-11.3562
▁epithelial	-11.3562
tur	-11.3563
▁equilibrium	-11.3563
ces	-11.3565
derm	-11.3566
▁minus	-11.3566
aya	-11.3568
▁Nu	-11.3573
▁manually	-11.3573
▁Bring	-11.3573
▁loud	-11.3574
▁coastal	-11.3576
▁roads	-11.3577
▁physically	-11.3579
aging	-11.3582
▁interfere	-11.3582
▁organize	-11.3584
ei	-11.3585
oon	-11.3585
▁minimal	-11.3586
get	-11.3587
▁melting	-11.3591
▁Learning	-11.3591
▁Patients	-11.3592
▁maturity	-11.3593
▁grapefruit	-11.3593
▁fleet	-11.3593
▁jefferson	-11.3593
▁Para	-11.3596
▁lap	-11.3598
▁clearance	-11.3598
tta	-11.3598
▁Jose	-11.3599
▁andrew	-11.36
▁ultimately	-11.3602
600	-11.3604
▁Engine	-11.3606
new	-11.3609
,600	-11.361
mis	-11.3611
▁trends	-11.3612
▁holidays	-11.3612
▁SAT	-11.3613
bc	-11.3614
▁provision	-11.3615
wind	-11.3621
▁salts	-11.3621
▁Five	-11.3621
▁53	-11.3622
▁visits	-11.3623
▁Camp	-11.3625
▁christmas	-11.3629
▁Confidence	-11.3629
▁flip	-11.363
They	-11.3631
stown	-11.3634
▁silicon	-11.3635
▁goats	-11.3636
▁shops	-11.3637
▁payable	-11.3637
▁slices	-11.3639
yer	-11.3641
▁Pin	-11.3641
▁transformation	-11.3641
▁invasive	-11.3641
itter	-11.3645
▁costco	-11.365
▁noble	-11.365
▁chemo	-11.3652
▁athletes	-11.3652
▁barn	-11.3654
ello	-11.3655
▁busy	-11.3657
ivity	-11.3658
▁Reviews	-11.3664
▁Surgery	-11.3664
▁roosevelt	-11.3664
▁troops	-11.3664
▁protest	-11.3666
▁therapeutic	-11.3668
▁deadly	-11.3671
ulin	-11.3672
▁penny	-11.3672
▁scam	-11.3673
▁cy	-11.3673
▁hum	-11.3674
LY	-11.3677
▁appliances	-11.3679
▁cheat	-11.368
▁Has	-11.3683
▁Define	-11.3688
▁psycho	-11.3689
▁breasts	-11.3689
▁occasion	-11.3694
▁Large	-11.3694
▁initially	-11.3695
▁secretion	-11.3696
▁challenges	-11.3699
▁seasoning	-11.3699
▁narcotic	-11.37
▁subtract	-11.37
▁autism	-11.37
▁Release	-11.37
▁Kindle	-11.37
▁obstruction	-11.37
rÃ	-11.37
▁preschool	-11.3701
▁1992	-11.3701
▁stuck	-11.3701
▁contractors	-11.3702
elect	-11.3706
▁Ac	-11.3714
TR	-11.3719
▁Son	-11.3719
900	-11.372
bie	-11.3723
▁fra	-11.3724
New	-11.3726
▁purchases	-11.3729
▁fold	-11.373
▁comma	-11.373
UL	-11.3731
sha	-11.3732
▁viewed	-11.3733
Ro	-11.3733
▁conservation	-11.3736
▁residency	-11.3736
▁monument	-11.3736
▁liberal	-11.3736
▁evil	-11.3739
▁spill	-11.3739
▁Looking	-11.374
gin	-11.374
ull	-11.3741
▁richest	-11.3741
▁Wales	-11.3741
▁burger	-11.3743
▁detox	-11.3745
ark	-11.3746
▁brass	-11.3747
▁lamp	-11.3749
▁rely	-11.375
▁Mike	-11.3755
▁stays	-11.3756
▁12-	-11.3761
gon	-11.3762
▁districts	-11.3764
▁cosmetic	-11.3765
▁Question	-11.3769
▁strings	-11.3771
▁Soviet	-11.3771
▁carcinoma	-11.3771
▁preparing	-11.3771
▁pelvis	-11.3771
▁plumbing	-11.3771
▁mucous	-11.3772
▁morphine	-11.3772
▁lewis	-11.3772
*.	-11.3774
▁hypothyroidism	-11.3774
rance	-11.3775
kee	-11.3775
▁Cy	-11.3776
▁guardian	-11.3778
▁readers	-11.3778
▁manufacture	-11.3781
text	-11.3782
▁systemic	-11.3784
▁$19	-11.3788
▁za	-11.3788
▁emotions	-11.3792
▁ss	-11.3798
rib	-11.38
▁scholarship	-11.3801
▁cigarettes	-11.3802
▁Still	-11.3805
▁producers	-11.3806
▁Mid	-11.3806
▁Elizabeth	-11.3807
▁ibuprofen	-11.3807
▁mandatory	-11.3807
▁Israel	-11.3807
▁abscess	-11.3807
▁lobster	-11.3808
vid	-11.3811
mel	-11.3811
▁LED	-11.3811
fit	-11.3812
▁priority	-11.3815
▁Rob	-11.382
nis	-11.3821
▁secreted	-11.3822
▁repeated	-11.3822
▁CH	-11.3823
▁retired	-11.3824
▁fox	-11.3828
▁nucleotides	-11.3829
vil	-11.3831
▁worm	-11.3835
▁han	-11.3835
▁infusion	-11.3838
▁subjects	-11.3838
▁instructor	-11.3838
MB	-11.3839
▁Rates	-11.3843
As	-11.3843
▁Taylor	-11.3843
▁faucet	-11.3843
▁gentle	-11.3844
▁Modern	-11.3844
▁pronoun	-11.3845
▁stainless	-11.3845
▁productivity	-11.3845
▁colonial	-11.3845
▁Active	-11.3851
▁rip	-11.3851
hop	-11.3853
▁hammer	-11.3854
▁ku	-11.3855
▁quit	-11.3858
▁grapes	-11.3864
▁protons	-11.3869
position	-11.387
une	-11.3871
▁Wal	-11.3872
▁cri	-11.3873
▁vol	-11.3873
▁4-	-11.3875
▁contest	-11.3875
▁rim	-11.3875
50,000	-11.3877
▁knock	-11.3879
▁plank	-11.3879
▁Universal	-11.388
▁qualities	-11.388
▁Agency	-11.388
▁screw	-11.388
▁crucial	-11.388
▁spawn	-11.388
▁lien	-11.388
▁Democratic	-11.388
▁Directions	-11.388
▁indeed	-11.3882
▁rv	-11.3882
▁Jail	-11.3882
tar	-11.3883
▁suspended	-11.3884
▁chains	-11.3887
▁MRI	-11.3891
▁bet	-11.3892
grade	-11.3896
▁signing	-11.3897
▁Ed	-11.3897
quin	-11.3897
▁2.0	-11.3899
▁quarters	-11.39
▁farming	-11.39
▁torn	-11.3903
▁whales	-11.3904
worms	-11.3909
▁emissions	-11.391
▁cube	-11.391
▁demo	-11.3912
NE	-11.3915
horn	-11.3916
▁forever	-11.3916
▁columbus	-11.3916
▁jordan	-11.3916
▁pioneer	-11.3916
▁oracle	-11.3916
▁widespread	-11.3916
▁knot	-11.3916
▁fermentation	-11.3917
▁metres	-11.3917
▁pu	-11.3917
▁Far	-11.3919
▁Military	-11.3921
▁Million	-11.3923
▁30%	-11.3923
▁Ana	-11.3927
▁poker	-11.3927
▁ty	-11.393
OD	-11.3933
▁Par	-11.3934
▁rob	-11.3935
▁promise	-11.3936
▁borough	-11.3942
▁topical	-11.3943
stock	-11.3945
bone	-11.3946
▁particle	-11.395
▁Ontario	-11.3953
▁lettuce	-11.3953
▁Jewish	-11.3953
▁osteoarthritis	-11.3953
▁Pressure	-11.3954
▁1981	-11.3954
▁flex	-11.3956
put	-11.3961
▁sits	-11.3961
▁solo	-11.3963
▁28,	-11.3963
▁Space	-11.3965
▁enrolled	-11.3965
▁soak	-11.3968
▁correspond	-11.3968
▁strongly	-11.3969
▁alerts	-11.397
pass	-11.397
▁meds	-11.3974
▁mel	-11.3978
ounce	-11.3981
▁senators	-11.3982
▁subsequent	-11.3982
▁Discover	-11.3984
▁Additional	-11.3984
▁Link	-11.3984
▁ventricle	-11.3986
▁intent	-11.3988
▁Method	-11.3988
▁alt	-11.3988
▁Netflix	-11.3989
▁consecutive	-11.3989
▁november	-11.3989
▁ovaries	-11.3989
▁equator	-11.3989
▁debris	-11.3989
▁southeast	-11.399
▁sprint	-11.3991
▁Agent	-11.3991
bro	-11.3992
▁isolated	-11.3995
▁chili	-11.3998
ras	-11.4
▁flea	-11.4
▁130	-11.4001
pet	-11.4001
gel	-11.4001
▁phrases	-11.4003
▁counseling	-11.4004
▁nano	-11.4005
▁footage	-11.4007
▁bonding	-11.4009
BO	-11.4012
▁Trade	-11.4012
▁acquire	-11.4013
ATE	-11.4014
▁optical	-11.4014
▁participants	-11.4014
▁Mass	-11.402
▁bin	-11.4023
last	-11.4026
▁HTML	-11.4026
▁contemporary	-11.4026
▁impossible	-11.4026
▁congestion	-11.4026
▁ultra	-11.4026
eta	-11.4027
▁limestone	-11.4027
▁Cell	-11.4027
▁3-	-11.4027
▁pride	-11.4028
▁implantation	-11.4028
▁Engineer	-11.4029
▁wow	-11.4031
▁activation	-11.4033
▁regard	-11.4034
hold	-11.4036
On	-11.4037
▁Sound	-11.4038
-15	-11.4039
▁fits	-11.404
lines	-11.4043
rel	-11.4043
vel	-11.4044
km	-11.4045
note	-11.4045
▁trusted	-11.4049
▁declare	-11.405
sign	-11.4051
▁civilian	-11.4051
icular	-11.4055
corn	-11.4057
digit	-11.4057
▁Ku	-11.4059
▁Median	-11.4061
▁adapter	-11.4062
▁acceleration	-11.4063
▁cataract	-11.4063
▁petroleum	-11.4063
▁struggle	-11.4063
▁nitrate	-11.4063
▁creator	-11.4063
▁Experience	-11.4063
▁hindi	-11.4066
▁mutations	-11.4066
ogenic	-11.4068
▁(12	-11.4069
▁$150	-11.4071
▁ze	-11.4075
▁airports	-11.4075
▁26,	-11.4078
▁iris	-11.4079
oh	-11.408
▁fuse	-11.4081
▁powered	-11.4081
▁Clean	-11.4081
▁accountant	-11.4083
▁mower	-11.4084
▁ivy	-11.4085
product	-11.4087
rium	-11.4089
▁officials	-11.4091
▁interests	-11.4092
▁apparent	-11.4092
brook	-11.4093
dle	-11.4094
sol	-11.4094
▁boss	-11.4096
▁inventor	-11.4099
▁improving	-11.41
▁shakespeare	-11.41
▁Chemical	-11.41
▁Speed	-11.41
▁smear	-11.41
▁neither	-11.41
▁attraction	-11.4101
▁discipline	-11.4104
▁similarities	-11.4104
▁reign	-11.4105
▁Hope	-11.4106
tors	-11.411
▁hawk	-11.4111
▁recommends	-11.4116
pack	-11.4116
pri	-11.4118
ggy	-11.4119
:1	-11.412
▁tiles	-11.4121
▁engage	-11.4122
▁pac	-11.4123
▁Sheet	-11.4123
▁regulated	-11.4123
▁electrician	-11.4126
▁51	-11.4126
▁Close	-11.4126
▁1800	-11.4127
▁tied	-11.4127
▁lane	-11.4128
Ex	-11.4131
CD	-11.4131
▁Recent	-11.4133
▁Jane	-11.4134
▁Definitions	-11.4134
▁Jordan	-11.4137
▁Official	-11.4137
▁marathon	-11.4137
▁warehouse	-11.4137
▁tribe	-11.4137
▁Secretary	-11.4138
▁lumber	-11.4138
▁marble	-11.4138
▁septic	-11.4144
▁herbal	-11.4147
▁starred	-11.4149
▁fare	-11.415
cial	-11.415
▁Lin	-11.415
▁$16	-11.415
nation	-11.4152
▁Metal	-11.4153
▁repairs	-11.4155
mas	-11.4157
▁125	-11.4159
ural	-11.4159
▁bind	-11.416
flower	-11.4161
oth	-11.4162
▁surrounds	-11.4168
▁sediment	-11.4172
tics	-11.4173
turn	-11.4173
ulated	-11.4173
▁messenger	-11.4174
▁Convention	-11.4174
▁FREE	-11.4175
HC	-11.4175
▁needles	-11.4179
▁perennial	-11.4179
ime	-11.418
▁detection	-11.418
▁partition	-11.4183
▁Fi	-11.4184
kh	-11.4186
RT	-11.4187
▁charger	-11.419
▁sells	-11.4198
▁amendments	-11.4199
third	-11.4201
arch	-11.4202
piece	-11.4202
▁kindle	-11.4204
▁Made	-11.4204
stick	-11.4204
▁tray	-11.4205
PI	-11.4205
fall	-11.4205
▁deeper	-11.4209
▁afford	-11.421
aking	-11.4211
▁shampoo	-11.4212
▁goddess	-11.4212
▁innovation	-11.4212
▁imbalance	-11.4212
▁staple	-11.4212
▁drunk	-11.4213
inger	-11.4215
▁roller	-11.4216
▁litter	-11.4216
▁adjustment	-11.4216
▁Egyptian	-11.4216
▁Tim	-11.4218
▁sec	-11.422
▁Come	-11.4223
ril	-11.4225
oxy	-11.4231
▁slime	-11.4233
cci	-11.4234
▁5-	-11.4235
▁Rh	-11.4239
▁Join	-11.424
▁mixing	-11.4241
UM	-11.4241
▁strict	-11.4242
▁pig	-11.4243
counter	-11.4244
▁(3)	-11.4244
2017	-11.4245
▁Years	-11.4247
▁financing	-11.4249
▁steady	-11.4249
▁Request	-11.425
▁crossword	-11.425
VA	-11.4251
▁Never	-11.4254
▁1965	-11.4255
MR	-11.4256
▁wise	-11.4257
▁esp	-11.4259
Le	-11.426
▁cre	-11.4261
▁sto	-11.4263
▁Blog	-11.4263
eration	-11.4266
itz	-11.4267
▁habits	-11.4269
▁ii	-11.427
▁scales	-11.4271
▁Epi	-11.4272
▁sprain	-11.4272
OT	-11.4273
ific	-11.4273
▁quiz	-11.4274
cel	-11.4275
▁stimulate	-11.4276
▁rocky	-11.4277
oil	-11.4278
lim	-11.4279
▁ww	-11.4279
zu	-11.4283
Ad	-11.4287
▁Attorney	-11.4287
▁Delaware	-11.4287
▁adhesive	-11.4287
▁Increase	-11.4287
▁monetary	-11.4287
150	-11.429
▁Bon	-11.4291
▁Nick	-11.4293
▁brew	-11.4293
win	-11.4293
▁socket	-11.4294
▁peter	-11.4296
▁iceland	-11.4297
▁ranking	-11.4298
▁differently	-11.4301
▁jay	-11.4302
▁Blu	-11.4303
DC	-11.4303
▁virtually	-11.4303
awa	-11.4303
▁cardio	-11.4304
▁Costa	-11.4304
count	-11.431
▁tam	-11.431
▁expanded	-11.4316
▁jr	-11.4318
▁fin	-11.4318
▁cookie	-11.4319
▁limb	-11.4321
than	-11.4321
▁calm	-11.4322
▁chew	-11.4325
▁Message	-11.4325
▁disabilities	-11.4325
▁liquor	-11.4325
▁poultry	-11.4325
▁serotonin	-11.4325
▁taylor	-11.4325
▁celebration	-11.4325
▁Championship	-11.4325
▁circulatory	-11.4325
▁Self	-11.4325
▁antibody	-11.4326
▁receiver	-11.4327
▁separately	-11.4327
▁neurological	-11.4327
▁hazard	-11.4328
▁organizational	-11.4328
▁USDA	-11.433
CL	-11.433
▁Trail	-11.4331
▁viewing	-11.4336
▁Matt	-11.4339
▁basal	-11.4339
bank	-11.434
opathy	-11.434
von	-11.434
ody	-11.4343
color	-11.4344
▁Give	-11.4344
▁destroyed	-11.4346
SD	-11.4349
-14	-11.4352
▁coined	-11.4353
trans	-11.4353
▁Associate	-11.4354
other	-11.4358
▁arrested	-11.4359
▁eczema	-11.4363
▁conviction	-11.4364
▁grove	-11.4364
▁Stephen	-11.4365
▁Smart	-11.4366
▁Adam	-11.4366
▁tuck	-11.4368
▁skeleton	-11.4369
▁Je	-11.4369
▁references	-11.437
▁physiological	-11.4372
▁stair	-11.4372
▁Bull	-11.4372
▁Bible	-11.4374
▁Calculate	-11.4374
▁MB	-11.4378
▁steroid	-11.438
▁bias	-11.4381
▁rebuild	-11.4382
▁wipe	-11.4387
anti	-11.4387
▁365	-11.4387
cate	-11.439
▁Gre	-11.4391
active	-11.4391
▁EX	-11.4391
▁recommendations	-11.4395
▁fr	-11.4396
▁knees	-11.4396
▁charcoal	-11.4401
▁penalties	-11.4401
▁urination	-11.4401
▁mattress	-11.4401
▁thunder	-11.4402
▁Tip	-11.4402
▁edible	-11.4402
▁pleural	-11.4402
▁attractions	-11.4402
▁tb	-11.4404
▁stimulant	-11.4404
▁kilogram	-11.4406
▁bits	-11.4407
▁SA	-11.4408
▁volunteer	-11.4408
▁null	-11.4412
bri	-11.4412
▁gardens	-11.4412
▁russian	-11.4413
▁portable	-11.4414
▁converting	-11.4415
night	-11.4417
▁Ge	-11.4418
▁rem	-11.442
▁aches	-11.4421
▁ec	-11.4423
CR	-11.4426
page	-11.4426
▁10-	-11.443
▁cop	-11.443
lton	-11.4432
ord	-11.4432
▁02	-11.4437
▁Palm	-11.4439
▁arrived	-11.4439
▁beneficiary	-11.444
▁prednisone	-11.444
▁pencil	-11.444
▁Conference	-11.444
▁northeast	-11.444
▁grammar	-11.4441
▁latter	-11.4444
▁establishment	-11.4444
▁gran	-11.4444
▁ink	-11.4445
▁Consumer	-11.4445
▁taxpayer	-11.4445
▁Following	-11.4448
▁alloy	-11.4452
▁1920	-11.4452
▁40%	-11.4454
▁cigarette	-11.4456
▁Carl	-11.4457
nne	-11.4459
▁HR	-11.4459
Di	-11.446
▁tim	-11.4461
▁burst	-11.4462
▁_	-11.4464
▁hu	-11.4466
world	-11.4468
cess	-11.447
kel	-11.4474
▁Shakespeare	-11.4478
▁python	-11.4478
▁Syndrome	-11.4478
▁renovation	-11.4478
▁strawberries	-11.4478
▁Digital	-11.4478
▁congenital	-11.4478
800	-11.4479
ened	-11.448
▁Say	-11.448
▁foreclosure	-11.4481
▁bronze	-11.4482
band	-11.4485
▁toes	-11.4485
uda	-11.4485
▁objectives	-11.4492
▁gay	-11.4493
▁remained	-11.4493
▁modify	-11.4493
ifying	-11.4494
oph	-11.4495
All	-11.4497
▁predators	-11.4497
lene	-11.4501
▁premiums	-11.4501
▁scored	-11.4509
▁Tech	-11.4511
eck	-11.4511
ony	-11.4513
ude	-11.4513
▁enabled	-11.4515
	-11.4515
rig	-11.4515
iden	-11.4516
▁Pokemon	-11.4517
▁knife	-11.4517
▁understood	-11.4517
▁dynasty	-11.4517
▁terminology	-11.4517
▁monoxide	-11.4517
▁england	-11.4517
▁adopt	-11.4518
▁thinner	-11.452
▁planned	-11.452
ites	-11.4521
por	-11.4521
▁veteran	-11.4524
▁veterinarian	-11.4524
▁concentrated	-11.4526
pop	-11.4528
▁delivers	-11.4529
▁fog	-11.4531
▁absolutely	-11.4532
▁greens	-11.4535
▁wikipedia	-11.4535
▁compost	-11.4537
▁breeding	-11.4538
▁contributed	-11.4538
▁seasonal	-11.4541
▁twitch	-11.4541
▁blocking	-11.4542
▁oceans	-11.4545
Time	-11.4549
▁$35	-11.4549
▁searching	-11.455
▁RV	-11.4552
▁undergo	-11.4552
▁Instructions	-11.4553
▁earthquakes	-11.4553
▁elastic	-11.4555
▁narrative	-11.4555
▁computing	-11.4556
▁recycling	-11.4556
▁Profile	-11.4556
▁admitted	-11.4556
▁developer	-11.4557
▁1968	-11.4557
▁gaming	-11.4558
▁Device	-11.4561
▁identifying	-11.4561
hole	-11.4561
▁Buck	-11.4562
ern	-11.4562
▁Bad	-11.4562
▁senator	-11.4564
▁performs	-11.4564
▁buds	-11.4565
▁broke	-11.4565
EX	-11.4568
▁formats	-11.457
▁armed	-11.4575
▁exp	-11.4579
cia	-11.4582
pat	-11.4583
▁Bel	-11.4586
own	-11.4587
▁hired	-11.4589
▁qui	-11.459
▁peninsula	-11.4594
▁singapore	-11.4594
▁specimen	-11.4594
▁cousin	-11.4594
▁Kidney	-11.4594
▁crossing	-11.4594
▁NBC	-11.4596
▁samples	-11.4596
▁observe	-11.4596
▁interactive	-11.4597
▁Sur	-11.4597
idi	-11.4598
▁couples	-11.4602
▁hosting	-11.4603
▁percentile	-11.4603
▁recipient	-11.4603
▁sur	-11.4609
▁developmental	-11.4609
▁Pour	-11.4611
▁Jun	-11.4611
▁Members	-11.4613
▁ON	-11.4613
▁belonging	-11.4617
▁nd	-11.4618
So	-11.462
IV	-11.462
▁inmate	-11.4623
cker	-11.4625
ech	-11.4626
▁Details	-11.4631
________________	-11.4633
▁challenging	-11.4633
▁osteoporosis	-11.4633
▁scotland	-11.4633
▁companion	-11.4633
▁Easy	-11.4633
▁Yahoo	-11.4633
▁Sugar	-11.4634
▁Davis	-11.4634
▁uninstall	-11.4634
where	-11.4635
bridge	-11.4635
uro	-11.4637
▁smile	-11.4638
▁27,	-11.4638
▁inhibit	-11.4638
▁ethical	-11.4639
▁Getting	-11.4639
▁pipes	-11.464
▁licenses	-11.464
▁conception	-11.4641
lant	-11.4645
▁lasting	-11.4649
▁fri	-11.4652
▁manifest	-11.4667
▁dont	-11.4667
▁mb	-11.467
▁cf	-11.4671
▁cape	-11.4672
▁Phoenix	-11.4673
▁oxidation	-11.4673
▁possibility	-11.4673
▁Alzheimer	-11.4673
▁grants	-11.4673
▁Eating	-11.4673
nk	-11.4673
▁sealed	-11.4673
▁Website	-11.4673
▁offspring	-11.4674
▁Room	-11.4674
▁suppress	-11.4674
▁Tower	-11.4676
▁GB	-11.4676
▁ticks	-11.4678
▁Adams	-11.4679
▁57	-11.4682
bur	-11.4683
▁blister	-11.4684
▁depot	-11.4685
agon	-11.4687
▁Hyper	-11.4691
▁controlling	-11.4691
▁adj	-11.4691
▁adapted	-11.4692
take	-11.4693
▁newspapers	-11.4694
2016	-11.4695
gio	-11.4695
rain	-11.4698
▁logic	-11.4699
▁dodge	-11.4699
▁equally	-11.47
▁sen	-11.4706
▁defend	-11.4707
▁2009.	-11.4707
▁construct	-11.4708
▁Revolution	-11.4712
▁miscarriage	-11.4712
▁URL	-11.4712
▁supplied	-11.4712
▁packaging	-11.4712
▁heading	-11.4713
▁Rapid	-11.4715
▁20,	-11.4721
▁tags	-11.4722
▁recall	-11.4723
▁abs	-11.4725
hey	-11.4726
▁ET	-11.4727
▁grape	-11.4729
▁Symptom	-11.473
▁berries	-11.4731
▁mil	-11.4737
▁compromise	-11.4738
Noun	-11.4744
hood	-11.4745
▁collective	-11.4748
▁realize	-11.4749
▁GI	-11.475
▁Portugal	-11.4751
▁dubai	-11.4752
lio	-11.4752
▁Defense	-11.4752
▁clark	-11.4752
map	-11.4752
▁morgan	-11.4753
▁prepaid	-11.4754
▁drywall	-11.4754
▁proton	-11.4756
▁conservative	-11.4756
▁Rule	-11.4757
direct	-11.4758
▁mess	-11.4758
ees	-11.4761
▁Specialist	-11.4761
cil	-11.4761
▁Student	-11.4764
▁vine	-11.4766
▁panic	-11.4766
▁publish	-11.4772
▁cp	-11.4774
▁reflects	-11.4775
▁interpret	-11.4776
▁associates	-11.4778
▁67	-11.4779
▁daytime	-11.4781
screen	-11.4781
▁ia	-11.4783
▁25,	-11.4787
▁_______	-11.4788
▁cited	-11.4788
▁sue	-11.479
▁Instagram	-11.4791
▁Kennedy	-11.4791
▁mathematics	-11.4791
▁nebraska	-11.4791
▁combining	-11.4791
▁imagine	-11.4791
▁drift	-11.4791
▁austin	-11.4791
▁Im	-11.4792
▁fmla	-11.4792
▁Among	-11.4792
▁readily	-11.4792
▁Career	-11.4792
▁Simple	-11.4792
ending	-11.4794
dal	-11.4794
AGE	-11.4796
▁Roast	-11.4798
▁genetics	-11.48
▁Hen	-11.48
▁Hair	-11.4802
▁Regional	-11.4802
▁Bro	-11.4803
▁exceptions	-11.4804
cur	-11.4807
thro	-11.4808
▁Loss	-11.481
iva	-11.4812
▁oats	-11.4813
▁ken	-11.4816
▁varying	-11.4816
▁lib	-11.4817
rma	-11.4818
▁bush	-11.4824
rey	-11.4826
▁Provide	-11.483
▁jelly	-11.4831
▁Catholic	-11.4831
▁Nebraska	-11.4831
▁institute	-11.4831
▁twelve	-11.4831
▁Kelly	-11.4831
▁Mission	-11.4833
▁trout	-11.4833
▁sk	-11.4835
▁ozone	-11.4835
HS	-11.4836
▁fibrosis	-11.4837
▁Foot	-11.4837
▁Stir	-11.484
▁planted	-11.4841
▁dirty	-11.4842
▁hence	-11.4843
▁Checker	-11.4845
▁robin	-11.4845
version	-11.4847
▁attachment	-11.4847
▁ruler	-11.4848
sie	-11.4851
▁stall	-11.4857
▁jamaica	-11.4862
group	-11.4863
▁batch	-11.4865
▁Bone	-11.4865
▁kilograms	-11.4866
▁mosquito	-11.4866
▁counts	-11.4868
▁caps	-11.4869
walk	-11.487
logy	-11.4871
▁innovative	-11.4871
▁rescue	-11.4871
▁trachea	-11.4873
▁thermostat	-11.4873
hard	-11.4874
▁knows	-11.4881
▁noticed	-11.4883
▁Adult	-11.4886
GA	-11.4886
ON	-11.4888
▁Poly	-11.4889
ogen	-11.4891
▁admin	-11.4891
▁approaches	-11.4891
▁weapons	-11.4891
▁simplest	-11.4892
▁cabin	-11.4895
aster	-11.4899
izz	-11.49
▁0.1	-11.4904
▁victoria	-11.4904
hill	-11.4905
▁odd	-11.4907
▁Action	-11.4908
tec	-11.4909
▁notification	-11.4909
▁Governor	-11.4911
▁clutch	-11.4911
▁elizabeth	-11.4911
▁premature	-11.4911
▁securities	-11.4911
▁invasion	-11.4911
▁Quality	-11.4911
▁rectum	-11.4911
▁studying	-11.4912
ami	-11.4912
▁expertise	-11.4912
▁wilson	-11.4912
▁Collection	-11.4913
▁triglycerides	-11.4913
▁panama	-11.4913
,000,000	-11.4915
minute	-11.4919
logic	-11.492
▁Sand	-11.4921
▁Bush	-11.4923
▁locked	-11.4928
▁legend	-11.493
▁Ri	-11.4931
▁std	-11.4938
▁lit	-11.4946
equ	-11.4946
▁cloudy	-11.4947
▁bacterium	-11.4951
▁bitcoin	-11.4951
▁pursue	-11.4952
▁strawberry	-11.4952
▁madison	-11.4952
▁lithium	-11.4952
▁Desert	-11.4952
▁rabies	-11.4952
▁scroll	-11.4952
str	-11.4952
▁organisation	-11.4952
▁wedge	-11.4952
▁Interest	-11.4953
▁nickel	-11.4954
▁Risk	-11.4954
▁Dragon	-11.4954
▁carpal	-11.4955
▁Guard	-11.4957
▁cables	-11.4958
▁Hills	-11.4959
▁mag	-11.4961
▁Flu	-11.4963
▁dull	-11.4964
shot	-11.4968
nit	-11.497
ridge	-11.4971
▁700	-11.4971
tron	-11.4972
▁ent	-11.4972
▁collapse	-11.4979
▁(15	-11.4982
▁nucleotide	-11.4982
▁ports	-11.4982
▁featur	-11.4983
Ma	-11.4983
▁Austria	-11.4983
▁Hy	-11.4983
▁nap	-11.4984
▁substantial	-11.4985
▁Sept	-11.4986
stra	-11.4987
rah	-11.4987
▁Perhaps	-11.4992
▁brisket	-11.4992
▁faculty	-11.4992
▁inferior	-11.4992
▁merchant	-11.4992
▁cartoon	-11.4992
▁Clark	-11.4992
▁varied	-11.4993
▁Carbs	-11.4993
▁corp	-11.4993
▁fireplace	-11.4994
lick	-11.4994
▁Ground	-11.4995
▁combines	-11.4997
▁regulatory	-11.4998
▁Choice	-11.5
▁distinguish	-11.5
▁fractures	-11.5
▁1940	-11.5002
▁divorced	-11.5007
nex	-11.5009
▁credited	-11.501
▁15%	-11.5016
▁rick	-11.502
▁sharks	-11.5022
▁numb	-11.5027
ttle	-11.5028
▁collecting	-11.5029
▁packed	-11.5032
▁cinnamon	-11.5033
▁completing	-11.5033
▁cuisine	-11.5033
▁igneous	-11.5033
▁yesterday	-11.5033
▁Sleep	-11.5033
▁girlfriend	-11.5033
▁Insert	-11.5033
▁visited	-11.5034
!!	-11.5035
▁administer	-11.5038
▁vaccines	-11.504
omb	-11.504
▁fda	-11.5041
▁rica	-11.5041
quality	-11.5043
nell	-11.5046
▁spreading	-11.5048
▁1040	-11.5052
▁comm	-11.5055
▁boats	-11.5056
aria	-11.5057
▁environments	-11.5057
▁Screen	-11.5058
ota	-11.506
▁ki	-11.5061
▁pupil	-11.5063
idae	-11.5064
▁kar	-11.5067
▁registry	-11.5073
▁mythology	-11.5074
▁ramp	-11.5075
▁riding	-11.5075
▁concerning	-11.5076
ides	-11.5077
▁Eric	-11.5077
5,	-11.5078
▁waiver	-11.5078
▁Ram	-11.5078
▁overweight	-11.5082
▁provisions	-11.5084
▁receipt	-11.5092
oids	-11.5093
▁oscar	-11.5093
▁Burn	-11.5094
0000	-11.5094
plant	-11.5101
liter	-11.5104
▁VI	-11.5109
▁investors	-11.5111
▁tonsils	-11.5113
PR	-11.5113
▁cannabis	-11.5114
▁cleveland	-11.5114
▁fertilization	-11.5114
▁enemy	-11.5114
▁pleasant	-11.5114
▁antenna	-11.5114
▁rehabilitation	-11.5115
▁Denver	-11.5115
▁incidence	-11.5116
▁ferry	-11.5117
▁simmer	-11.5118
▁sixth	-11.5119
▁compressor	-11.5119
▁determination	-11.5121
▁drip	-11.5121
▁biologist	-11.5122
ement	-11.5124
▁christian	-11.5127
▁sized	-11.5129
▁Letter	-11.513
pos	-11.5131
▁swallowing	-11.5131
▁neighbor	-11.5134
▁APA	-11.5134
▁cracked	-11.5135
▁Ave	-11.5136
▁whenever	-11.5137
▁Penn	-11.5137
▁Core	-11.5142
olo	-11.5143
▁Image	-11.5145
▁corps	-11.5147
▁farms	-11.5147
OM	-11.5148
▁Arts	-11.5148
▁urethra	-11.5153
▁Buffalo	-11.5156
▁Diabetes	-11.5156
▁Harvard	-11.5156
▁celery	-11.5156
▁Teacher	-11.5156
▁rainbow	-11.5156
▁Primary	-11.5156
▁francisco	-11.5156
▁roses	-11.5156
▁rehab	-11.5157
▁musician	-11.5158
▁1964	-11.5158
▁CON	-11.5159
▁Oldest	-11.516
▁counted	-11.516
▁traditionally	-11.5163
▁runny	-11.5164
▁Kevin	-11.5169
▁bang	-11.5171
▁hosted	-11.5172
▁bro	-11.5172
jet	-11.5176
▁weapon	-11.5176
▁Maine	-11.5176
▁mole	-11.5178
▁Ch	-11.5178
help	-11.5184
!!!	-11.5185
▁Metro	-11.5186
▁Cam	-11.5187
▁pane	-11.5187
▁reflected	-11.5188
bert	-11.5189
▁blast	-11.519
▁metallic	-11.5191
guard	-11.5193
▁$75	-11.5195
▁aggressive	-11.5197
▁pancreatitis	-11.5197
▁recognition	-11.5197
▁placing	-11.5197
▁symmetry	-11.5197
▁radius	-11.5197
▁bbq	-11.5197
▁hvac	-11.5197
▁Driving	-11.5198
▁colitis	-11.5198
iki	-11.52
▁radon	-11.52
▁$100,000	-11.5201
▁$250	-11.5201
▁auditor	-11.5206
dan	-11.5208
▁thesaurus	-11.5214
▁fisher	-11.5214
▁clan	-11.5217
▁$2,000	-11.5217
▁vaccination	-11.5218
▁1982	-11.5219
▁teens	-11.5219
▁telling	-11.5219
▁que	-11.522
▁assistants	-11.5221
ronic	-11.5223
eon	-11.5226
▁sad	-11.5227
▁consulting	-11.5228
▁bees	-11.5228
▁therapists	-11.523
▁nouns	-11.5232
▁Send	-11.5233
ines	-11.5233
html	-11.5235
▁asia	-11.5236
▁robot	-11.5237
▁behaviour	-11.5238
▁Festival	-11.5238
▁entities	-11.5239
▁Month	-11.524
▁Morgan	-11.524
case	-11.5241
▁reef	-11.5242
door	-11.5243
▁450	-11.5243
▁gra	-11.5244
▁3/4	-11.525
▁buffer	-11.5252
▁24,	-11.5253
/10	-11.5255
▁beliefs	-11.5256
wise	-11.5256
▁quotes	-11.526
▁Member	-11.526
▁cricket	-11.526
-11	-11.5263
▁Brain	-11.5263
▁wounds	-11.5266
▁2008.	-11.5272
▁Mayo	-11.5272
rup	-11.5275
▁Rules	-11.5279
▁anniversary	-11.528
▁schizophrenia	-11.528
▁iPod	-11.528
▁Budget	-11.528
▁newest	-11.528
▁Regular	-11.528
▁dealership	-11.5281
▁germinate	-11.5281
▁grease	-11.5281
▁Wayne	-11.5282
▁$18	-11.5283
mbo	-11.5283
▁sunset	-11.5284
▁0.0	-11.5287
▁pickup	-11.5287
▁Reg	-11.5287
▁rats	-11.5288
▁compress	-11.5289
aba	-11.5294
▁flavors	-11.5295
AA	-11.5295
▁meetings	-11.5296
▁triggers	-11.5297
itu	-11.5298
scale	-11.5298
▁(#	-11.5299
▁Bri	-11.5299
west	-11.5299
▁Kids	-11.5301
▁ducts	-11.5301
SO	-11.5302
DR	-11.5302
▁indians	-11.5303
tv	-11.5305
▁mike	-11.5306
▁orbital	-11.5307
mination	-11.5307
▁investigate	-11.5308
▁senses	-11.5309
▁lions	-11.5309
often	-11.5309
▁accurately	-11.531
▁rewards	-11.5315
▁losses	-11.5316
food	-11.5318
IE	-11.5321
▁destruction	-11.5322
▁luggage	-11.5322
▁sampling	-11.5322
▁stimulation	-11.5322
▁dopamine	-11.5322
▁Minecraft	-11.5322
▁geometry	-11.5322
▁considerably	-11.5323
▁Log	-11.5323
▁refuse	-11.5323
▁1967	-11.5323
▁1971	-11.5323
▁Fo	-11.5324
▁1986	-11.5324
▁blindness	-11.5324
▁dramatic	-11.5324
▁everywhere	-11.5324
▁$3,000	-11.5325
▁Max	-11.5327
▁malignant	-11.5328
lyn	-11.5329
arm	-11.5329
▁comprised	-11.533
▁sewer	-11.5331
▁HPV	-11.5332
▁canine	-11.5333
▁selective	-11.5334
imp	-11.5338
▁solely	-11.5339
▁#2	-11.5339
▁collector	-11.5342
▁anytime	-11.5346
▁networking	-11.5347
▁bundle	-11.5348
▁soldier	-11.5348
▁charm	-11.5351
▁Photos	-11.5351
risk	-11.5352
▁elector	-11.5355
▁Milk	-11.5356
▁potter	-11.5362
▁Independence	-11.5364
▁sheriff	-11.5364
▁embedded	-11.5364
▁Austin	-11.5364
▁Collins	-11.5364
▁shuttle	-11.5364
▁Construction	-11.5364
▁populous	-11.5364
▁punishment	-11.5365
▁nick	-11.5365
omer	-11.5367
ically	-11.5367
▁paypal	-11.5368
▁outbreak	-11.5368
dicating	-11.5371
▁experimental	-11.5372
▁impulses	-11.5378
▁strange	-11.538
▁fork	-11.5382
TP	-11.5383
▁Write	-11.5384
▁gm	-11.5385
.....	-11.5386
▁chewing	-11.5387
▁void	-11.5387
ique	-11.539
▁Rad	-11.5391
▁poet	-11.5393
bl	-11.5395
▁rig	-11.5401
▁segments	-11.5401
order	-11.5402
▁returning	-11.5402
▁Allen	-11.5402
7,000	-11.5402
▁Chrome	-11.5406
▁Emergency	-11.5406
▁celsius	-11.5406
▁nominal	-11.5406
▁arabic	-11.5406
▁forearm	-11.5406
▁Hindi	-11.5406
▁Dental	-11.5407
EP	-11.5408
▁intern	-11.5409
▁johnny	-11.5409
frame	-11.5409
▁stopping	-11.5411
▁flowering	-11.5412
▁premiere	-11.5417
▁scout	-11.5418
▁cro	-11.542
▁flashes	-11.5421
iya	-11.5422
RN	-11.5424
▁Period	-11.5425
ski	-11.5428
oral	-11.5429
▁Very	-11.543
▁Content	-11.5432
▁Should	-11.5433
▁sticks	-11.5435
▁applicant	-11.5436
maker	-11.5436
▁cl	-11.5436
IF	-11.5441
ges	-11.5443
white	-11.5443
▁stew	-11.5444
▁Northwest	-11.5446
▁hosts	-11.5448
▁pseudo	-11.5448
▁Mediterranean	-11.5448
▁Puerto	-11.5448
▁cushion	-11.5448
▁stimulus	-11.5448
▁hypothalamus	-11.5448
▁alliance	-11.5449
▁cranial	-11.5449
▁geographical	-11.5449
▁whey	-11.545
▁breach	-11.5451
▁traded	-11.5454
Th	-11.5455
▁True	-11.5455
itude	-11.5456
▁noodles	-11.5458
▁toxicity	-11.5462
root	-11.5462
▁Jobs	-11.5464
/4	-11.5465
▁clearing	-11.5467
stop	-11.547
kk	-11.547
lv	-11.5471
▁tectonic	-11.5475
▁Temperature	-11.5475
▁fortune	-11.5475
VI	-11.5475
▁answered	-11.5476
▁reside	-11.5476
▁almond	-11.5476
▁Convert	-11.548
▁spi	-11.548
▁responses	-11.5483
▁stairs	-11.5485
▁continents	-11.5487
▁ancestry	-11.5491
▁juvenile	-11.5491
▁reputation	-11.5491
▁Storage	-11.5491
▁parkinson	-11.5491
▁palsy	-11.5491
▁Rhode	-11.5491
▁cheapest	-11.5493
▁Lady	-11.5494
▁Gate	-11.5495
▁chill	-11.5496
▁worsen	-11.5496
▁yu	-11.5498
▁penis	-11.55
▁Late	-11.5502
▁Euro	-11.5507
▁Bake	-11.5512
ulus	-11.5512
▁kan	-11.5513
▁porch	-11.5513
▁highlight	-11.5513
▁apnea	-11.5518
GR	-11.5519
▁bruise	-11.5521
▁2008,	-11.5521
tle	-11.5522
▁latex	-11.5522
▁spelled	-11.5523
▁antigen	-11.5524
▁toast	-11.5525
cost	-11.5526
6)	-11.5526
▁Submit	-11.5528
▁picked	-11.5528
▁concentrations	-11.5533
▁intermediate	-11.5534
▁licensing	-11.5534
▁taught	-11.5534
▁Iraq	-11.5534
▁urdu	-11.5534
▁arterial	-11.5534
▁banned	-11.5534
▁Skype	-11.5535
▁consistency	-11.5535
▁okay	-11.5535
▁labeled	-11.5539
pur	-11.5539
▁renewed	-11.5541
▁pants	-11.5541
▁ruled	-11.5542
▁bald	-11.5545
cas	-11.5545
▁stretching	-11.5546
game	-11.5548
hoe	-11.5551
▁diffuse	-11.5551
▁Den	-11.5551
▁hen	-11.5556
▁Paper	-11.5562
▁(/	-11.5562
bul	-11.5566
▁slave	-11.5569
▁parasites	-11.557
ince	-11.557
▁AB	-11.5573
▁verbal	-11.5573
▁Ross	-11.5573
▁Depression	-11.5577
▁portfolio	-11.5577
▁ovary	-11.5577
▁Nashville	-11.5577
▁Repair	-11.5577
▁minister	-11.5579
▁timber	-11.5579
▁Muslim	-11.5582
▁wellness	-11.5582
sboro	-11.5583
▁racing	-11.5583
▁wh	-11.5584
▁technicians	-11.5584
▁Upper	-11.5585
▁Cloud	-11.5586
gard	-11.5587
▁Move	-11.5588
ried	-11.559
▁cooper	-11.5594
▁peptide	-11.5594
cos	-11.5595
▁Directory	-11.5595
VE	-11.5595
▁Anne	-11.5598
▁Joint	-11.5599
▁NEW	-11.5599
UD	-11.56
mission	-11.5603
▁Ya	-11.5605
▁adaptation	-11.5608
▁vendor	-11.5608
▁vibration	-11.5608
▁brook	-11.561
▁Ty	-11.5611
yne	-11.5613
especially	-11.5617
mia	-11.5618
▁charlotte	-11.562
▁capacitor	-11.562
▁Voice	-11.562
▁steep	-11.562
▁Vista	-11.5621
▁labour	-11.5622
▁venus	-11.5622
▁confirmation	-11.5623
▁disclosure	-11.5623
spec	-11.5624
▁neo	-11.5633
wick	-11.5634
▁dimension	-11.5635
▁commands	-11.5637
boro	-11.5637
▁attending	-11.5638
only	-11.5643
▁hemp	-11.5644
MO	-11.5645
▁Aid	-11.5645
▁rupture	-11.565
▁walt	-11.565
▁tune	-11.5656
value	-11.566
▁dash	-11.5661
▁scrub	-11.5663
▁Gaelic	-11.5663
▁Portuguese	-11.5663
▁contaminated	-11.5663
▁oxycodone	-11.5663
▁heavily	-11.5663
▁dancing	-11.5663
▁Acute	-11.5663
▁untreated	-11.5664
▁stalk	-11.5665
▁Bear	-11.5665
▁compiled	-11.5668
OW	-11.5668
▁60%	-11.567
▁systematic	-11.567
▁armor	-11.5672
▁mulch	-11.5672
prov	-11.5673
▁Statement	-11.5673
▁Op	-11.5674
▁timeline	-11.5677
▁fired	-11.5682
rice	-11.5684
▁findings	-11.5684
▁specialists	-11.5686
▁shore	-11.569
▁crush	-11.5692
▁Vol	-11.5696
▁owl	-11.5697
tÃ	-11.5698
▁beverages	-11.57
▁plantar	-11.57
▁lawyers	-11.5702
▁biblical	-11.5707
▁mathematical	-11.5707
▁theoretical	-11.5707
▁effusion	-11.5707
▁Female	-11.5707
▁Count	-11.5707
▁Lewis	-11.5707
▁Always	-11.5707
▁temporal	-11.5708
▁knight	-11.5708
▁attended	-11.5709
▁thoroughly	-11.571
tate	-11.5712
fib	-11.5714
▁69	-11.5718
▁owls	-11.5719
▁ros	-11.5719
▁61	-11.5721
nom	-11.5724
▁partially	-11.5725
borne	-11.5725
▁conductor	-11.5731
▁82	-11.5734
▁CBS	-11.5736
▁Grove	-11.5738
▁Pok	-11.5739
▁informed	-11.5741
▁CR	-11.5741
▁Girl	-11.5744
▁Def	-11.5746
▁Hurricane	-11.575
▁hamilton	-11.575
▁inspiration	-11.575
▁sirloin	-11.575
▁benchmark	-11.5751
▁Flash	-11.5751
▁Ti	-11.5751
▁DUI	-11.5753
▁nonprofit	-11.5753
▁Panel	-11.5754
▁enforce	-11.5754
▁bunch	-11.5757
▁outcomes	-11.5757
▁startup	-11.5757
ured	-11.5758
▁Additionally	-11.5759
ink	-11.576
▁newton	-11.5761
▁Rio	-11.5763
▁bold	-11.5764
▁sinuses	-11.5764
▁dancer	-11.5764
▁Acid	-11.5766
▁Phil	-11.5769
▁Miller	-11.577
▁incision	-11.5771
▁login	-11.5771
▁PRO	-11.5772
▁pressing	-11.5772
▁Mel	-11.5772
SH	-11.5773
▁71	-11.5778
/8	-11.5781
▁championship	-11.5784
lig	-11.5785
▁sear	-11.5785
duc	-11.5786
2.5	-11.5787
▁chose	-11.579
tree	-11.5791
▁brazil	-11.5794
▁emperor	-11.5794
▁monroe	-11.5794
▁psoriasis	-11.5794
▁vegetation	-11.5794
▁vodka	-11.5794
▁animation	-11.5794
▁aquarium	-11.5794
▁drafted	-11.5794
▁reconstruction	-11.5795
▁borders	-11.5796
▁1975	-11.5797
▁Electronic	-11.5799
▁Copy	-11.5802
▁hate	-11.5802
▁kills	-11.5802
▁Original	-11.5807
wed	-11.5809
Star	-11.581
▁bananas	-11.5815
▁dividends	-11.5816
▁dun	-11.5816
▁lan	-11.5819
▁Male	-11.582
▁grab	-11.5821
▁uric	-11.5821
▁rh	-11.5822
▁matt	-11.5823
▁photographer	-11.5825
heim	-11.5825
▁approve	-11.5825
▁Cards	-11.5826
▁strains	-11.5829
▁Register	-11.583
▁counselor	-11.5833
GE	-11.5833
sometimes	-11.5834
mol	-11.5834
market	-11.5836
▁logistics	-11.5837
▁complement	-11.5838
▁convey	-11.5838
▁aneurysm	-11.5838
▁bodily	-11.5838
▁duplicate	-11.5838
▁homeostasis	-11.5838
▁hygienist	-11.5838
▁mammogram	-11.5838
▁Bacteria	-11.5838
▁thrones	-11.5838
▁Sodium	-11.5839
▁1988	-11.584
▁Poland	-11.5841
▁tread	-11.5842
zen	-11.5844
shi	-11.5844
olin	-11.5845
▁Days	-11.5845
▁axon	-11.5845
▁sab	-11.5846
filled	-11.5847
▁Ger	-11.5848
ingham	-11.5849
FL	-11.585
▁maxim	-11.5853
▁steal	-11.5855
▁Player	-11.5855
▁58	-11.5855
eat	-11.5856
▁Howard	-11.5856
▁shortest	-11.5857
▁microorganisms	-11.5858
▁mustard	-11.5858
▁sir	-11.5861
actic	-11.5864
mc	-11.5864
▁quest	-11.5866
▁enroll	-11.5866
▁skip	-11.5868
igan	-11.5871
lement	-11.5871
▁Row	-11.5872
▁countertop	-11.5874
tern	-11.5875
▁mayor	-11.5875
▁ot	-11.5875
elli	-11.5877
▁Picture	-11.5879
system	-11.5879
▁january	-11.5882
▁junior	-11.5882
▁sliding	-11.5882
▁Film	-11.5883
▁implies	-11.5883
▁Tuition	-11.5883
▁spoil	-11.5883
som	-11.5883
▁fellow	-11.5883
sum	-11.5884
▁query	-11.5884
▁revolutionary	-11.5884
▁invite	-11.5885
▁permitted	-11.5889
▁mounted	-11.5891
teen	-11.5893
▁streets	-11.5901
-30	-11.5902
▁84	-11.5909
▁taco	-11.591
▁Gi	-11.5911
▁$1,500	-11.5912
▁Wars	-11.5913
▁Intel	-11.5913
▁presidents	-11.5914
▁rag	-11.5914
▁ox	-11.5914
▁$45	-11.5915
▁conform	-11.5917
-17	-11.5919
▁heights	-11.592
▁30-	-11.5921
▁crisp	-11.5921
▁frames	-11.5924
cam	-11.5925
▁Retirement	-11.5927
▁diaphragm	-11.5927
▁eardrum	-11.5927
▁exciting	-11.5927
▁ointment	-11.5927
▁veterinary	-11.5927
▁instagram	-11.5927
▁Certification	-11.5927
▁Dream	-11.5927
▁tolerance	-11.5927
▁comcast	-11.5927
▁bud	-11.5927
▁filters	-11.5928
▁epic	-11.593
▁fossils	-11.593
each	-11.5933
being	-11.5934
IR	-11.5935
▁fictional	-11.5936
▁Fever	-11.5936
▁secrete	-11.5937
▁masses	-11.5937
ulate	-11.5941
▁employ	-11.5947
▁retrieve	-11.5951
▁Numbers	-11.5952
▁Author	-11.5954
city	-11.5959
▁mechanisms	-11.5962
▁sciences	-11.5963
▁philippines	-11.5965
▁veneers	-11.5969
▁spec	-11.597
▁Orlando	-11.5971
▁celebrity	-11.5971
▁distributor	-11.5971
▁territories	-11.5971
▁antonio	-11.5971
▁kinetic	-11.5972
▁(11	-11.5973
▁1987	-11.5973
▁sulfate	-11.5974
▁97	-11.5974
▁Alt	-11.5976
▁Deep	-11.5976
▁Rica	-11.5977
▁portal	-11.598
yard	-11.5981
▁Originally	-11.5981
verb	-11.5983
▁equations	-11.5985
atch	-11.5989
▁formerly	-11.5992
▁boarding	-11.5996
▁plat	-11.5998
aki	-11.5998
▁borrower	-11.6002
▁Cr	-11.6002
▁lotion	-11.6006
▁dew	-11.6007
▁champion	-11.601
▁Measure	-11.6011
350	-11.6013
lets	-11.6013
largest	-11.6014
▁Prior	-11.6015
▁skilled	-11.6016
disambiguation	-11.6016
▁Claim	-11.6016
▁Oracle	-11.6016
▁abraham	-11.6016
▁streak	-11.6016
▁exclusion	-11.6016
▁prokaryotic	-11.6016
▁Studies	-11.6017
▁spreadsheet	-11.6017
▁burial	-11.6017
▁instances	-11.6017
▁Manual	-11.6018
When	-11.6019
▁coordinates	-11.602
▁Val	-11.602
▁mast	-11.6021
fect	-11.6021
▁Edition	-11.6022
▁vertebral	-11.6024
▁70%	-11.6024
▁Normally	-11.6026
▁API	-11.6028
▁Track	-11.6028
▁rounded	-11.603
▁Lan	-11.6031
ession	-11.6034
▁Actor	-11.6034
▁spur	-11.6044
▁demonstrate	-11.6044
▁Ball	-11.6047
▁rocket	-11.6052
▁expectations	-11.6053
▁quart	-11.6054
▁unc	-11.6055
▁modification	-11.6056
▁curl	-11.6056
▁loaded	-11.606
▁Cooper	-11.6061
▁amplitude	-11.6061
▁correlation	-11.6061
▁fertility	-11.6061
▁participation	-11.6061
▁tylenol	-11.6061
▁Theatre	-11.6062
▁WebMD	-11.6062
▁transverse	-11.6062
▁governance	-11.6062
▁consciousness	-11.6062
▁hunger	-11.6064
▁Installation	-11.6065
▁fleas	-11.6065
▁handy	-11.6067
pal	-11.6067
▁matching	-11.607
▁waist	-11.6071
▁68	-11.6071
▁Fla	-11.6072
▁Lion	-11.6074
▁commerce	-11.6076
icia	-11.6077
cons	-11.6077
▁1500	-11.6077
▁distinguished	-11.6078
▁drying	-11.6083
▁Fee	-11.6084
▁Past	-11.6086
2014	-11.6086
▁3.0	-11.6086
therapy	-11.6087
posing	-11.6089
mart	-11.6094
▁inverse	-11.6096
nee	-11.6097
▁$80	-11.6099
far	-11.6099
ander	-11.61
▁MN	-11.6101
▁Neuro	-11.6103
dol	-11.6105
▁Holiday	-11.6107
▁Monroe	-11.6107
▁Pakistan	-11.6107
▁Privacy	-11.6107
▁Eagle	-11.6107
▁boyfriend	-11.6107
▁Spa	-11.6107
▁wholesale	-11.6108
▁willing	-11.6112
▁86	-11.6112
bol	-11.6113
▁hell	-11.6113
▁hike	-11.6119
▁influences	-11.612
▁medial	-11.6122
▁Shi	-11.6122
using	-11.6123
fly	-11.6124
▁77	-11.6127
▁funded	-11.6127
▁attempts	-11.6129
lift	-11.613
▁auction	-11.6131
▁dome	-11.6133
▁titled	-11.6136
▁utilize	-11.6139
tum	-11.6139
▁discs	-11.6143
flex	-11.6143
▁gro	-11.6144
▁Typical	-11.6145
ERS	-11.6148
▁doc	-11.6151
▁distress	-11.6152
▁thicker	-11.6152
▁gemstone	-11.6153
▁luther	-11.6153
▁screenshot	-11.6153
▁congressional	-11.6154
▁molar	-11.6154
▁bel	-11.6156
▁grout	-11.6157
connect	-11.6158
▁genetically	-11.6158
▁somatic	-11.6162
gua	-11.6162
1.5	-11.6164
These	-11.6165
▁flags	-11.6165
aire	-11.6167
vol	-11.6167
▁Rd	-11.617
▁healthier	-11.617
▁Mis	-11.6173
▁shoulders	-11.6173
phase	-11.6176
▁twitching	-11.6176
UC	-11.6177
radi	-11.6178
▁contractions	-11.6178
▁coordinate	-11.6181
FT	-11.6183
FI	-11.6189
HA	-11.6191
▁buck	-11.6193
▁Animal	-11.6196
▁diverticulitis	-11.6198
▁Abraham	-11.6198
▁Netherlands	-11.6198
▁Roosevelt	-11.6198
▁Tweet	-11.6198
▁tsunami	-11.6198
▁vocabulary	-11.6198
▁Copyright	-11.6198
▁kelly	-11.6198
▁alignment	-11.6199
▁NA	-11.6199
▁radar	-11.6199
▁cisco	-11.62
▁rapper	-11.62
rog	-11.6201
▁convicted	-11.6202
▁Specific	-11.6207
▁govern	-11.6208
▁pools	-11.6208
ale	-11.621
vir	-11.6213
member	-11.6214
▁lightly	-11.6216
▁carriers	-11.6217
▁tel	-11.6226
▁Ray	-11.6227
▁TR	-11.6229
▁delayed	-11.623
▁tractor	-11.623
/20	-11.623
▁73	-11.6234
▁anyway	-11.6234
IO	-11.6237
cca	-11.6238
▁inmates	-11.6239
▁handles	-11.6239
vation	-11.6239
tha	-11.624
ogram	-11.624
tical	-11.6241
▁Olympic	-11.6241
▁obligation	-11.6241
▁monkey	-11.6242
▁capabilities	-11.6244
▁zodiac	-11.6244
▁Visual	-11.6244
▁Cedar	-11.6244
▁hydraulic	-11.6244
▁Alexander	-11.6244
▁Explain	-11.6244
▁toronto	-11.6244
▁1984	-11.6245
▁mechanic	-11.6249
▁Flight	-11.6251
▁Treaty	-11.6251
▁fel	-11.6252
▁Rec	-11.6252
▁Finally	-11.6255
▁06	-11.6256
▁TB	-11.6257
etic	-11.6261
▁indoors	-11.6264
▁landing	-11.6264
▁myth	-11.6265
▁pest	-11.6268
▁BR	-11.6272
▁retained	-11.6273
▁Owner	-11.6275
action	-11.628
nan	-11.6283
▁lag	-11.6284
ott	-11.6284
▁Hol	-11.6285
▁fulfill	-11.6289
▁Toronto	-11.629
▁epithelium	-11.629
▁integrity	-11.629
▁rectangle	-11.629
▁Sweet	-11.629
wan	-11.629
▁entries	-11.629
▁skyrim	-11.629
No	-11.6291
▁potent	-11.6293
▁axle	-11.6293
HO	-11.6294
cover	-11.6294
▁eco	-11.6295
▁consuming	-11.6297
▁mammal	-11.6298
▁graduated	-11.6298
▁photography	-11.6298
▁candle	-11.63
orn	-11.63
▁Contract	-11.63
▁migraines	-11.6301
▁Isle	-11.6306
▁reactive	-11.6307
▁rad	-11.6307
good	-11.6307
▁wells	-11.6309
hm	-11.631
▁2%	-11.6311
▁directors	-11.6312
▁haul	-11.6312
▁Menu	-11.6313
▁dim	-11.6313
▁Yet	-11.6318
Br	-11.6318
▁dm	-11.6319
mber	-11.6322
▁transported	-11.6322
▁cli	-11.6325
plex	-11.6326
mount	-11.6327
▁Anna	-11.6327
▁defeat	-11.6331
yan	-11.6333
▁weighing	-11.6334
▁suburb	-11.6334
▁Cuba	-11.6336
▁elevator	-11.6336
▁presidency	-11.6336
▁zealand	-11.6336
▁Economic	-11.6336
▁caregiver	-11.6336
▁heavier	-11.6336
▁Parkinson	-11.6336
▁heaven	-11.6336
▁eruption	-11.6336
▁orleans	-11.6336
▁omega	-11.6336
alia	-11.6336
▁torque	-11.6336
▁graft	-11.6337
▁abnormalities	-11.6337
▁emphasize	-11.6338
plo	-11.6338
▁ssi	-11.6339
▁Harry	-11.6339
TT	-11.634
▁syll	-11.6341
omo	-11.6341
▁pedal	-11.6342
▁Whole	-11.6343
▁Vice	-11.6343
▁nhl	-11.6343
▁MC	-11.6344
▁lego	-11.6344
▁sclerosis	-11.6345
wide	-11.6346
▁Rico	-11.6346
▁Dar	-11.6351
▁sticker	-11.6356
▁Pur	-11.6358
eh	-11.636
5)	-11.6361
xa	-11.6362
▁11:	-11.6366
▁pea	-11.6367
▁beets	-11.6368
▁Lev	-11.6368
▁Skip	-11.6372
▁warmer	-11.6372
▁activated	-11.6372
▁shine	-11.6373
eter	-11.6374
▁Train	-11.6379
	-11.6381
▁Minimum	-11.6382
▁feminine	-11.6382
▁glaucoma	-11.6382
▁pharmaceutical	-11.6382
▁satisfaction	-11.6382
▁equipped	-11.6383
▁overseas	-11.6383
▁Candida	-11.6383
▁tundra	-11.6383
▁attitude	-11.6383
▁supplier	-11.6383
▁yarn	-11.6383
▁Disability	-11.6383
▁emit	-11.6384
▁prop	-11.6385
0.5	-11.6385
▁paycheck	-11.6387
▁pertaining	-11.6389
▁nephron	-11.639
▁electronics	-11.6393
▁whip	-11.6393
▁glow	-11.64
bic	-11.6407
rose	-11.6408
▁increasingly	-11.6408
▁prohibit	-11.6409
▁divisions	-11.6409
watch	-11.6411
▁behaviors	-11.6412
▁cpt	-11.6412
sub	-11.6413
lus	-11.6417
▁priced	-11.6418
▁Pine	-11.6421
RNA	-11.6423
▁Provider	-11.6425
ddy	-11.6427
▁pilots	-11.6427
wheel	-11.6427
threatening	-11.6428
health	-11.6428
▁Med	-11.6429
▁chimney	-11.6429
▁dividing	-11.6429
▁penicillin	-11.6429
▁spaghetti	-11.6429
▁Severe	-11.6429
▁lentils	-11.6429
▁abroad	-11.6429
▁bronchitis	-11.6429
▁Third	-11.6429
▁(16	-11.643
ema	-11.643
▁Southwest	-11.643
mos	-11.6433
▁photograph	-11.6433
▁Crime	-11.6435
▁RA	-11.6435
▁portions	-11.6436
▁tense	-11.6437
pad	-11.6437
▁selecting	-11.6439
▁Fame	-11.644
▁bent	-11.6441
▁Fax	-11.6442
ava	-11.6442
▁spiders	-11.6442
▁Allow	-11.6443
▁searches	-11.6445
▁Fees	-11.6449
▁medal	-11.6453
▁evenly	-11.6454
▁posting	-11.6457
▁motivation	-11.6459
▁comprises	-11.6463
▁wasn	-11.6466
▁Mat	-11.6468
▁Host	-11.6471
▁Chest	-11.6472
▁reception	-11.6473
vascular	-11.6475
▁Gene	-11.6476
▁corrosion	-11.6476
▁epilepsy	-11.6476
▁navigate	-11.6476
▁umbilical	-11.6476
▁thirst	-11.6476
▁orientation	-11.6476
▁gradient	-11.6476
▁Surface	-11.6476
▁Wireless	-11.6477
▁describing	-11.6477
▁elvis	-11.6478
▁cucumber	-11.6478
▁Patient	-11.6478
▁wiring	-11.6479
▁pending	-11.6479
▁Taking	-11.648
▁canvas	-11.6481
store	-11.6481
▁parade	-11.6484
▁ir	-11.6486
Read	-11.6488
▁bp	-11.6491
▁gang	-11.6494
mun	-11.6494
▁buyers	-11.6496
▁tightly	-11.6496
▁pra	-11.6499
▁sul	-11.65
atic	-11.6501
▁Wiki	-11.6502
▁earns	-11.6509
▁96	-11.6509
▁voted	-11.6512
BI	-11.6513
▁germ	-11.6514
just	-11.6516
section	-11.6516
flow	-11.6517
▁mistake	-11.6519
▁5.5	-11.6519
▁Verizon	-11.6523
▁deceased	-11.6523
▁influential	-11.6523
▁swift	-11.6523
▁paralegal	-11.6523
▁Ronald	-11.6523
▁escrow	-11.6523
▁spiral	-11.6524
▁Gift	-11.6524
▁legendary	-11.6524
▁fibrous	-11.6525
▁Passport	-11.6525
▁clotting	-11.6525
▁blades	-11.6527
▁lesion	-11.6528
▁mothers	-11.6528
▁Mau	-11.6529
pac	-11.6531
▁cystic	-11.6533
serv	-11.6533
▁homo	-11.6534
▁bullet	-11.6534
▁Band	-11.6536
▁advise	-11.6538
▁BA	-11.6541
▁totally	-11.6544
grass	-11.6544
▁exc	-11.6549
▁fern	-11.6553
▁passion	-11.6553
▁logical	-11.6554
lly	-11.6557
▁differentiate	-11.6557
▁Walt	-11.656
▁emails	-11.6561
▁translate	-11.6562
▁schooling	-11.6563
▁precise	-11.6563
▁Term	-11.6564
ree	-11.6564
PER	-11.6565
▁optional	-11.6565
file	-11.6566
▁cauliflower	-11.6571
▁explosion	-11.6571
▁identifies	-11.6571
▁volleyball	-11.6571
▁Adobe	-11.6571
▁sponge	-11.6571
▁Therapy	-11.6571
▁humid	-11.6571
▁inheritance	-11.6571
▁Topics	-11.6571
check	-11.6571
▁tummy	-11.6572
▁stolen	-11.6574
▁$50,000	-11.6574
▁tenderness	-11.6575
▁differs	-11.6575
▁pollen	-11.6575
ulo	-11.6577
ctor	-11.6578
▁nights	-11.6578
▁Rich	-11.6578
asia	-11.6579
ndi	-11.658
open	-11.658
▁investor	-11.6582
▁pipeline	-11.6582
▁br	-11.6584
▁Industrial	-11.6585
▁prone	-11.6586
▁couldn	-11.6586
▁inform	-11.6587
▁crane	-11.6587
▁Registered	-11.6587
▁renewable	-11.6593
▁representing	-11.6597
▁Door	-11.6599
lf	-11.66
▁assumed	-11.66
▁tent	-11.6601
▁EST	-11.6603
▁Ear	-11.6604
lice	-11.6607
0.00	-11.6608
▁voter	-11.6612
▁Ring	-11.6612
ference	-11.6613
lid	-11.6615
▁dermatitis	-11.6618
▁accessories	-11.6618
▁modifier	-11.6618
▁elect	-11.6619
▁puzzle	-11.6619
▁daniel	-11.6619
▁rigid	-11.6619
▁radial	-11.6619
▁Did	-11.6619
▁horsepower	-11.662
▁pillow	-11.662
▁1974	-11.662
▁railway	-11.6621
fully	-11.6628
▁elite	-11.6628
▁corners	-11.6629
▁ducks	-11.663
▁Parts	-11.6632
▁Changes	-11.6635
raw	-11.6636
▁dentures	-11.664
ction	-11.6642
▁Bal	-11.6643
▁Stop	-11.6643
▁kiss	-11.6646
▁exceptional	-11.6649
▁DT	-11.6649
stead	-11.665
▁cuba	-11.6652
ital	-11.6654
▁__________	-11.6655
▁240	-11.666
resident	-11.6663
▁Again	-11.6664
▁Baltimore	-11.6666
▁autumn	-11.6666
▁Analysis	-11.6666
▁civic	-11.6666
▁(30	-11.6667
▁dutch	-11.6667
▁Reagan	-11.6667
▁thrush	-11.6667
▁Database	-11.6667
▁populated	-11.6667
▁basket	-11.6667
▁honest	-11.6667
▁endorsement	-11.6667
▁clubs	-11.6667
▁publicly	-11.6667
▁gateway	-11.6668
writer	-11.6669
▁abbreviated	-11.6669
▁Jeff	-11.6669
▁Floor	-11.667
▁inhibitor	-11.6671
▁bracket	-11.6672
char	-11.6672
▁toddler	-11.6672
▁Wo	-11.6678
▁complexity	-11.6678
▁BLS	-11.668
media	-11.6681
▁Articles	-11.6687
▁slower	-11.6689
▁learners	-11.669
▁1.0	-11.6691
▁wider	-11.6691
▁Disc	-11.6692
▁5:	-11.6693
▁_____.	-11.6703
nus	-11.6703
▁eagles	-11.6704
▁marsh	-11.6709
▁Brian	-11.6709
▁zo	-11.671
▁numerical	-11.6711
mph	-11.6712
▁moles	-11.6712
▁Hampshire	-11.6714
▁Numerology	-11.6714
▁accumulation	-11.6714
▁happiness	-11.6714
▁harvard	-11.6714
▁involuntary	-11.6714
▁bicycle	-11.6715
▁linux	-11.6715
▁degenerative	-11.6715
▁dialect	-11.6715
▁hedge	-11.6715
▁XML	-11.6715
▁listening	-11.6716
▁Healthcare	-11.6717
▁slim	-11.6719
▁cle	-11.6721
▁Understanding	-11.6722
▁symbolic	-11.6723
▁capsules	-11.6723
▁gl	-11.6724
▁electrolyte	-11.6724
▁1930	-11.6726
▁divides	-11.6726
▁barley	-11.6727
lect	-11.6727
▁continuously	-11.6734
▁00	-11.6736
▁amp	-11.6736
phi	-11.6736
▁kings	-11.6737
▁tide	-11.6738
GI	-11.6739
▁faces	-11.6739
▁broil	-11.6739
tim	-11.674
▁Egg	-11.674
▁hep	-11.6741
▁Engineering	-11.6741
▁Words	-11.6741
▁3)	-11.6742
▁Jul	-11.6744
▁Maps	-11.6745
▁coated	-11.6747
▁ker	-11.6747
inate	-11.675
▁Dam	-11.6753
▁1/3	-11.6753
▁Mode	-11.6756
▁arena	-11.676
tab	-11.6762
▁Antonio	-11.6763
▁Graduate	-11.6763
▁Private	-11.6763
▁endurance	-11.6763
▁melatonin	-11.6763
▁phenotype	-11.6763
▁superficial	-11.6763
▁trillion	-11.6763
▁Century	-11.6763
▁blueberries	-11.6763
▁tampa	-11.6763
▁Authority	-11.6764
▁chuck	-11.6765
▁requests	-11.6767
bid	-11.6768
▁lpn	-11.6769
▁pom	-11.6773
nder	-11.6773
▁Face	-11.6774
▁scent	-11.6775
zing	-11.6778
▁Forum	-11.678
▁mol	-11.678
▁beverage	-11.6784
▁$400	-11.6785
▁deli	-11.6787
▁publishing	-11.6788
▁pal	-11.6788
▁pile	-11.6789
▁darker	-11.6791
▁costa	-11.6791
Be	-11.6794
▁rev	-11.6797
▁wy	-11.6799
▁staying	-11.68
▁Person	-11.6802
▁ol	-11.6807
▁reward	-11.6807
▁Corp	-11.6808
▁elk	-11.6809
▁Premium	-11.6811
▁scenario	-11.6811
▁quinoa	-11.6811
▁fertile	-11.6811
▁Continental	-11.6812
▁trash	-11.6813
▁Retail	-11.6814
▁Lot	-11.6816
▁coolant	-11.6819
▁Touch	-11.6819
▁judgement	-11.6819
▁parameters	-11.6819
▁fibre	-11.682
nge	-11.682
▁hal	-11.682
▁breaker	-11.6821
▁stent	-11.6821
ML	-11.6821
Bo	-11.6822
▁withholding	-11.6822
▁fol	-11.6823
▁minimize	-11.6824
▁recommendation	-11.6825
▁watt	-11.6829
▁spare	-11.6832
cie	-11.6833
▁customs	-11.6833
▁tale	-11.6833
▁Fun	-11.6833
standing	-11.6841
▁Cro	-11.6846
Li	-11.6847
Un	-11.6852
bes	-11.6852
▁suite	-11.6856
▁invade	-11.6856
▁12:	-11.6858
▁convection	-11.686
▁procurement	-11.686
▁refinance	-11.686
▁simpson	-11.686
▁unwanted	-11.686
▁niacin	-11.686
▁McDonald	-11.686
▁infrared	-11.686
▁Housing	-11.686
▁curtain	-11.686
▁burden	-11.6861
▁Planning	-11.6862
▁intersection	-11.6862
▁lever	-11.6863
▁landmark	-11.6863
▁Status	-11.6863
▁stephen	-11.6864
▁ER	-11.6865
▁careers	-11.6866
aged	-11.687
▁cliff	-11.6875
▁BE	-11.688
▁nv	-11.6881
OH	-11.6883
▁assessed	-11.6887
But	-11.6891
▁coll	-11.6894
▁practitioners	-11.6898
dec	-11.69
▁affairs	-11.69
▁sticky	-11.69
▁respective	-11.6905
ograph	-11.6906
▁implied	-11.6909
▁politician	-11.6909
▁annuity	-11.6909
▁Canyon	-11.6909
▁Properties	-11.6909
▁ladder	-11.6909
▁popcorn	-11.691
eng	-11.691
▁tendency	-11.691
▁comparable	-11.6911
▁Ter	-11.6912
▁archive	-11.6912
▁psi	-11.6913
effective	-11.6914
▁CC	-11.6914
▁Peru	-11.6916
▁bait	-11.6918
ESS	-11.6919
▁Individual	-11.6919
▁follicle	-11.6919
▁centimeters	-11.6919
▁Kim	-11.692
▁occurrence	-11.692
▁improvements	-11.6922
▁Saving	-11.6923
▁Later	-11.6923
▁editing	-11.6925
gro	-11.6926
▁sho	-11.6927
▁Ever	-11.6928
▁Steven	-11.6928
▁Ki	-11.6932
▁oversee	-11.6937
▁ancestors	-11.6938
▁elections	-11.6939
mini	-11.6939
▁ic	-11.6939
▁admit	-11.6939
▁limitation	-11.6939
zone	-11.694
▁enhanced	-11.694
One	-11.6942
▁walker	-11.6943
▁harsh	-11.695
▁classify	-11.6952
▁Secret	-11.6958
▁Calcium	-11.6958
▁Columbus	-11.6958
▁Enjoy	-11.6958
▁dishwasher	-11.6958
▁switzerland	-11.6958
▁utilities	-11.6958
▁citrus	-11.6958
first	-11.6959
▁wayne	-11.696
▁Environmental	-11.6961
▁freshwater	-11.6961
▁joining	-11.6961
▁Portland	-11.6962
▁GPA	-11.6964
▁cigar	-11.6965
▁Kai	-11.6966
zar	-11.6966
▁resin	-11.6967
▁alongside	-11.6967
▁bible	-11.6968
▁seating	-11.6972
▁RAM	-11.6973
▁Spin	-11.6974
▁routes	-11.6976
▁1972	-11.6976
▁ribosomes	-11.6977
▁motors	-11.6978
▁maintains	-11.6979
▁ren	-11.6981
emic	-11.6982
-25	-11.6983
▁suspected	-11.6983
gna	-11.6984
regarded	-11.6984
▁Stage	-11.6987
▁Inside	-11.6987
▁profits	-11.6987
▁Math	-11.6991
▁watches	-11.6993
▁panda	-11.6994
▁specification	-11.6998
▁stuffed	-11.7002
iber	-11.7003
ops	-11.7004
▁cactus	-11.7008
▁hydrocodone	-11.7008
▁subsidiary	-11.7008
▁Urban	-11.7008
▁defrost	-11.7008
▁Rewards	-11.7008
▁dermis	-11.7008
▁racial	-11.7008
▁cute	-11.7009
▁cooperative	-11.7009
▁settlers	-11.701
▁mimic	-11.701
▁funny	-11.701
▁Employment	-11.7011
▁flare	-11.7011
oscopy	-11.7013
▁Dogs	-11.7013
▁rd	-11.7015
▁powerpoint	-11.7016
▁countertops	-11.7018
▁Kay	-11.7019
▁Oscar	-11.702
▁theft	-11.702
RC	-11.7029
▁reflection	-11.703
div	-11.7033
▁Command	-11.7034
▁ped	-11.7038
▁travelers	-11.7039
▁Boat	-11.7042
▁gifts	-11.7043
▁Cause	-11.7045
dex	-11.7046
ood	-11.7047
▁cured	-11.7049
vie	-11.7049
Cl	-11.7049
▁PL	-11.7049
keeper	-11.705
250	-11.7053
2000	-11.7055
lex	-11.7056
▁Import	-11.7057
▁Stadium	-11.7057
▁bahamas	-11.7057
▁Writing	-11.7057
▁drought	-11.7057
▁piercing	-11.7057
▁pleasure	-11.7057
▁Harbor	-11.7058
▁peach	-11.7059
season	-11.7059
century	-11.7059
▁1973	-11.706
▁1985	-11.706
▁Grill	-11.706
▁crow	-11.7061
▁401(	-11.7061
▁Exercise	-11.7062
▁CE	-11.7062
▁exams	-11.7062
leg	-11.7063
oni	-11.7065
IB	-11.7066
▁gloves	-11.7069
▁Infection	-11.7071
▁resemble	-11.7071
▁insertion	-11.7072
wer	-11.7074
aq	-11.7075
bil	-11.7079
▁Loan	-11.7079
▁kin	-11.7081
▁Conditions	-11.7082
▁eyelids	-11.7085
▁hor	-11.7086
half	-11.7088
▁corpus	-11.709
▁initiate	-11.7094
▁ISO	-11.7095
▁24-	-11.7098
▁glen	-11.7101
▁doll	-11.7102
▁Gran	-11.7105
▁Friends	-11.7105
▁requested	-11.7106
ids	-11.7107
▁Meta	-11.7107
▁Category	-11.7107
▁Expect	-11.7107
▁Purchase	-11.7107
▁Switch	-11.7107
▁carpenter	-11.7107
▁integral	-11.7107
▁chlorophyll	-11.7107
▁cocoa	-11.7107
▁reliability	-11.7108
▁appendix	-11.7108
▁baker	-11.7108
▁Patrick	-11.7108
▁shaking	-11.7108
▁Miss	-11.7109
▁Horse	-11.7113
carbon	-11.7113
▁penn	-11.7115
▁88	-11.7117
trac	-11.7118
▁portland	-11.712
▁swallow	-11.7122
▁assumption	-11.7122
▁pumpkin	-11.7122
▁Editor	-11.7123
120	-11.7123
try	-11.7125
num	-11.7129
-13	-11.7129
ule	-11.713
▁workbook	-11.7132
lov	-11.7132
▁cad	-11.7133
ester	-11.7133
▁bot	-11.7134
▁mechanics	-11.7137
▁generations	-11.7137
jan	-11.7138
.00.	-11.7139
tonic	-11.7141
ios	-11.7142
▁deposited	-11.7143
abil	-11.7144
▁Rocky	-11.7144
▁productive	-11.7146
▁hs	-11.7149
▁raid	-11.7149
▁rankings	-11.7155
▁whites	-11.7155
TY	-11.7157
elia	-11.7157
▁Assistance	-11.7158
▁Firefox	-11.7158
▁cirrhosis	-11.7158
▁collision	-11.7158
▁hygiene	-11.7158
▁irrigation	-11.7158
▁jaundice	-11.7158
▁residue	-11.7158
▁thirty	-11.7158
▁dessert	-11.7158
▁prevalence	-11.7158
▁diabetics	-11.7158
▁patriot	-11.7158
▁wolves	-11.7158
▁berlin	-11.7158
▁twist	-11.7158
▁Baseball	-11.7158
▁femur	-11.7158
▁tanks	-11.7159
▁degeneration	-11.7159
▁Warren	-11.716
▁induce	-11.7162
▁kwh	-11.7162
▁malaria	-11.7162
▁besides	-11.7163
▁Rental	-11.7167
▁Magic	-11.717
▁runner	-11.717
tho	-11.7171
thing	-11.7175
▁ache	-11.7176
▁packet	-11.7176
uli	-11.7177
spire	-11.7178
▁buttons	-11.718
Al	-11.7181
▁Too	-11.7182
▁reserves	-11.7184
▁4.5	-11.7185
▁gb	-11.7188
▁Turner	-11.7188
1000	-11.7191
ido	-11.7193
owned	-11.7195
▁governments	-11.7198
▁verse	-11.7199
▁dated	-11.72
▁municipal	-11.7206
▁Hay	-11.7206
▁Available	-11.7208
▁Charlotte	-11.7208
▁Pregnancy	-11.7208
▁chlamydia	-11.7208
▁diploid	-11.7208
▁glycolysis	-11.7208
▁jupiter	-11.7208
▁participating	-11.7208
▁syphilis	-11.7208
▁underneath	-11.7208
▁Filter	-11.7208
▁Celtic	-11.7208
▁atlantic	-11.7208
▁buzz	-11.7208
▁Assessment	-11.7209
▁refill	-11.721
▁ryan	-11.721
▁Cells	-11.721
▁downloaded	-11.7213
glass	-11.7214
▁hpv	-11.7215
▁cyber	-11.7218
dio	-11.7218
▁Working	-11.7219
▁cole	-11.7219
▁jacket	-11.7222
got	-11.7222
▁destinations	-11.7222
▁lucky	-11.7223
▁tremor	-11.7225
▁constitute	-11.7225
logist	-11.7225
▁mcg	-11.7226
bing	-11.7229
▁Noun	-11.723
stan	-11.7235
▁tails	-11.7237
▁Postal	-11.7238
igo	-11.7238
▁restrict	-11.7241
Go	-11.7242
▁$17	-11.7243
▁accumulate	-11.7246
then	-11.7246
▁900	-11.7253
pc	-11.7256
▁extinct	-11.7257
real	-11.7258
▁alzheimer	-11.7259
▁excited	-11.7259
▁rectangular	-11.7259
▁temporarily	-11.7259
▁uncomfortable	-11.7259
▁Immigration	-11.7259
▁Published	-11.7259
▁glycogen	-11.7259
▁bruising	-11.7259
▁occasional	-11.7259
▁solute	-11.7259
▁plumber	-11.726
▁stirring	-11.726
▁claiming	-11.726
▁Temple	-11.7261
▁rolls	-11.7262
slamic	-11.7262
▁panther	-11.7262
▁Plants	-11.7266
wash	-11.7267
▁html	-11.7267
lap	-11.7268
▁deepest	-11.7272
▁considerable	-11.7273
▁giraffe	-11.7276
▁clue	-11.7277
▁Bed	-11.7277
▁medically	-11.7278
▁seemed	-11.728
▁counsel	-11.7284
▁athlete	-11.7285
▁Around	-11.7287
▁Imp	-11.7289
▁Jen	-11.729
▁fascia	-11.7291
▁pins	-11.7292
▁2007.	-11.7292
▁Met	-11.7292
▁pigments	-11.7295
▁incorporate	-11.7297
/5	-11.7298
ryl	-11.7298
▁patron	-11.7299
▁intervals	-11.7301
▁inorganic	-11.7301
▁Char	-11.7302
▁tilt	-11.7305
▁pus	-11.7305
▁Sport	-11.7305
▁Marie	-11.7307
▁tee	-11.7308
	-11.7309
▁Corporate	-11.731
▁philadelphia	-11.731
▁cottage	-11.731
▁animated	-11.731
PL	-11.7311
aca	-11.7312
▁thaw	-11.7313
▁Round	-11.7314
▁guilty	-11.7314
▁upward	-11.7314
▁tribes	-11.7314
uous	-11.7314
▁fool	-11.7315
▁fructose	-11.7316
▁egyptian	-11.7316
inter	-11.7317
▁Ham	-11.7323
▁impaired	-11.7324
▁Drugs	-11.7325
▁trials	-11.7327
ied	-11.733
▁Kar	-11.7333
▁implemented	-11.7334
▁maximize	-11.7336
▁boo	-11.7337
CU	-11.7339
▁ul	-11.734
▁Wil	-11.7349
▁methyl	-11.735
▁Lip	-11.7355
▁hips	-11.7359
▁sessions	-11.7359
▁authentic	-11.736
shell	-11.736
▁blossom	-11.7361
▁delaware	-11.7361
▁exercising	-11.7361
▁nautical	-11.7361
▁psychiatric	-11.7361
▁sneezing	-11.7361
▁adderall	-11.7361
▁awesome	-11.7361
▁LDL	-11.7363
▁extracted	-11.7363
▁banner	-11.7364
▁disadvantages	-11.7364
worm	-11.7364
▁Important	-11.7365
▁batman	-11.7365
▁batter	-11.7366
▁chop	-11.7366
LP	-11.7368
▁adam	-11.7372
▁ventricular	-11.7377
▁gh	-11.7378
▁shingle	-11.7381
▁gather	-11.7381
▁SP	-11.7387
lead	-11.739
▁uv	-11.7391
▁puts	-11.7394
▁cilia	-11.7394
ater	-11.7395
▁smells	-11.7395
▁parental	-11.7398
▁Reports	-11.74
ily	-11.7401
zine	-11.7402
▁Technical	-11.7405
cott	-11.7408
▁Programs	-11.7409
▁modem	-11.741
▁equi	-11.741
▁cleanse	-11.741
▁strengths	-11.7412
▁Magazine	-11.7413
▁Virtual	-11.7413
▁fantasy	-11.7413
▁reservoir	-11.7413
▁tuberculosis	-11.7413
▁vulnerable	-11.7413
▁cocktail	-11.7413
▁asbestos	-11.7413
▁flammable	-11.7413
▁disturbance	-11.7413
▁carotid	-11.7413
▁contour	-11.7413
▁scapula	-11.7413
▁sta	-11.7413
▁swamp	-11.7413
▁wrapped	-11.7414
▁Ranch	-11.7414
▁pulp	-11.7414
fold	-11.7416
▁restart	-11.7417
▁enclosed	-11.7418
rv	-11.7419
▁volts	-11.7419
▁cobra	-11.7419
payment	-11.7419
friendly	-11.7421
▁waterproof	-11.7421
▁hawaiian	-11.7421
▁migration	-11.7424
▁subway	-11.7425
▁04	-11.7425
▁plugs	-11.7425
▁pathogen	-11.7429
▁tracks	-11.7433
▁ancestor	-11.7434
▁Custom	-11.7436
▁upright	-11.7436
▁Score	-11.7438
▁grilled	-11.7438
Some	-11.7438
rad	-11.744
▁gates	-11.744
▁Document	-11.7441
▁syllables	-11.7442
▁termed	-11.7443
▁switches	-11.7444
ante	-11.7445
▁Stay	-11.7445
▁projected	-11.7446
ibility	-11.7446
▁juices	-11.7451
▁cont	-11.7453
▁fre	-11.7456
▁seniors	-11.7458
▁od	-11.746
urgical	-11.7462
▁Assembly	-11.7465
▁Companies	-11.7465
▁Liberty	-11.7465
▁Nissan	-11.7465
▁Technician	-11.7465
▁stenosis	-11.7465
▁flank	-11.7465
▁Persian	-11.7465
▁skirt	-11.7465
Ha	-11.7466
▁authorities	-11.7467
▁Treat	-11.7467
▁arthro	-11.7468
▁Castle	-11.7468
RR	-11.7469
▁bing	-11.7469
▁Border	-11.747
▁backbone	-11.7471
speed	-11.7471
▁1945	-11.7473
▁ALL	-11.7475
▁ger	-11.7477
▁dorsal	-11.7479
add	-11.7479
▁Hor	-11.7479
▁affiliated	-11.7482
▁emotion	-11.7482
▁buildup	-11.7485
▁outdoors	-11.7485
▁capita	-11.7486
▁spasm	-11.7487
vant	-11.7487
▁Dell	-11.7488
▁restriction	-11.7488
▁marker	-11.7488
▁IBS	-11.7491
▁bla	-11.7492
▁stats	-11.7492
▁Function	-11.7494
oda	-11.7495
pay	-11.7496
ologists	-11.7498
▁325	-11.75
▁Justin	-11.7503
▁mba	-11.7504
Qu	-11.7506
▁sprouts	-11.7506
750	-11.751
▁secured	-11.7512
▁chile	-11.7512
▁Pen	-11.7513
▁spores	-11.7515
soft	-11.7516
▁SO	-11.7516
▁Professor	-11.7517
▁Registration	-11.7517
▁incredible	-11.7517
▁susceptible	-11.7517
▁lodge	-11.7517
▁saddle	-11.7517
▁clamp	-11.7518
▁Delete	-11.7523
▁retinal	-11.7524
▁feathers	-11.7525
lian	-11.7529
!)	-11.7529
▁surge	-11.7529
▁lone	-11.753
▁eg	-11.753
▁stud	-11.7531
▁badge	-11.7532
child	-11.7533
999	-11.7536
▁obtaining	-11.7536
▁Permit	-11.7537
▁efficiently	-11.7538
▁watchers	-11.754
▁gametes	-11.7541
▁Pad	-11.7545
▁3,000	-11.7545
▁lil	-11.7551
▁compar	-11.7553
▁cone	-11.7556
▁jane	-11.7557
▁comb	-11.7563
heat	-11.7563
▁quad	-11.7563
▁atrial	-11.7564
▁Hindu	-11.7568
▁Elementary	-11.7569
▁Switzerland	-11.7569
▁bilirubin	-11.7569
▁investigator	-11.7569
▁microscopic	-11.7569
▁nissan	-11.7569
▁peppermint	-11.7569
▁portrait	-11.7569
▁rifle	-11.7569
▁accompany	-11.7569
▁occult	-11.7569
▁laxative	-11.7569
▁firefighter	-11.7569
▁converts	-11.7571
▁Stra	-11.7572
▁announcement	-11.7574
▁tubule	-11.7576
bor	-11.7577
▁Steam	-11.7577
▁Kong	-11.7577
▁cameras	-11.7584
▁tetra	-11.7584
▁Extra	-11.7584
▁kits	-11.7585
▁Meeting	-11.7587
VO	-11.7587
▁Oh	-11.7587
▁compressed	-11.7588
▁standardized	-11.7588
▁incomplete	-11.7588
▁Alex	-11.759
cot	-11.759
▁lac	-11.759
iah	-11.7591
atomic	-11.7592
WA	-11.7593
▁bubble	-11.7593
▁amps	-11.7594
ener	-11.7594
▁1-2	-11.7595
wave	-11.7595
pel	-11.7596
▁siblings	-11.7596
▁cpa	-11.7597
▁seventh	-11.7603
▁tort	-11.7603
arian	-11.7604
▁avi	-11.7605
▁beast	-11.7607
▁UTC	-11.761
▁170	-11.7612
erry	-11.7612
▁hog	-11.7613
▁Crown	-11.7613
▁bore	-11.7614
▁tang	-11.7614
▁cn	-11.7615
▁emerge	-11.7617
▁publisher	-11.7617
FO	-11.762
▁anime	-11.762
▁compass	-11.7621
▁IQ	-11.7621
▁Diamond	-11.7622
▁larynx	-11.7622
▁psychiatrist	-11.7622
▁xanax	-11.7622
▁Pharmacy	-11.7622
▁Finance	-11.7622
▁scoring	-11.7622
▁accordance	-11.7622
▁mobility	-11.7622
▁summit	-11.7622
chu	-11.7623
▁referral	-11.7623
▁seafood	-11.7623
▁Beef	-11.7623
self	-11.7624
▁tours	-11.7624
▁foul	-11.7625
▁wavelengths	-11.7626
▁EDT	-11.7626
▁eva	-11.7626
bee	-11.7626
▁Tur	-11.7626
▁nat	-11.763
▁dozen	-11.7631
▁calculations	-11.7633
▁goose	-11.7635
▁hail	-11.7637
▁Hispanic	-11.7638
▁democrat	-11.7638
▁fighter	-11.7639
posed	-11.764
▁alleles	-11.7641
bot	-11.7642
▁airways	-11.7647
▁reservation	-11.7647
▁Describe	-11.765
▁centered	-11.7651
▁gains	-11.7651
▁dolphins	-11.7656
edu	-11.7658
imate	-11.7659
works	-11.7659
▁wouldn	-11.7659
▁trademarks	-11.7661
▁concentrate	-11.7661
▁argue	-11.7662
host	-11.7665
print	-11.7668
▁chambers	-11.767
▁Plate	-11.767
when	-11.7671
▁cancerous	-11.7671
▁exploration	-11.7675
▁hormonal	-11.7675
▁vancouver	-11.7675
▁Oxygen	-11.7675
▁paralysis	-11.7675
▁multicellular	-11.7675
▁Dodge	-11.7677
length	-11.7679
▁Symbol	-11.768
9.99	-11.7682
▁chlor	-11.7687
vu	-11.7688
▁Cent	-11.7696
▁reply	-11.7696
▁blues	-11.7697
iation	-11.7698
colored	-11.7701
▁diets	-11.7702
▁Lab	-11.7704
oderm	-11.7704
east	-11.7706
▁vir	-11.7708
▁writers	-11.7708
plan	-11.7709
▁Fit	-11.7709
▁shrubs	-11.7711
▁Fri	-11.7712
rl	-11.7712
▁glo	-11.7714
▁1099	-11.7715
▁Pot	-11.7716
tosis	-11.7716
▁SS	-11.7719
▁broth	-11.7723
Ar	-11.7724
▁separates	-11.7725
▁soften	-11.7725
▁pul	-11.7725
▁antagonist	-11.7728
▁appraiser	-11.7728
▁laundry	-11.7728
▁platinum	-11.7728
▁widow	-11.7728
▁Identify	-11.7728
▁Richmond	-11.7728
▁coordination	-11.7728
▁Disorder	-11.7728
▁chopped	-11.7728
▁zoning	-11.7728
▁coarse	-11.7729
▁Luther	-11.7729
▁prevalent	-11.7729
▁gamma	-11.7729
▁prenatal	-11.7729
▁Effective	-11.773
▁Sarah	-11.773
▁lg	-11.773
rent	-11.7731
iza	-11.7733
▁premier	-11.7735
HR	-11.7737
▁folders	-11.774
degree	-11.7744
▁surf	-11.7745
▁Exam	-11.7745
▁$26	-11.7748
▁protecting	-11.7748
▁fertilize	-11.7749
ucci	-11.775
▁straw	-11.7753
▁sorted	-11.7754
▁Nations	-11.7759
▁rashes	-11.776
▁Payment	-11.776
▁ortho	-11.7761
▁bonded	-11.7761
▁Half	-11.7763
UP	-11.7764
▁lessons	-11.7764
▁CPA	-11.7764
▁Rep	-11.7765
▁raises	-11.7766
▁Oral	-11.7767
▁grave	-11.7768
lent	-11.7769
▁browse	-11.7769
▁Bond	-11.7772
▁watery	-11.7775
▁ripe	-11.7775
iti	-11.7778
▁RO	-11.7779
duction	-11.778
▁newer	-11.778
▁binds	-11.7781
▁Agreement	-11.7781
▁cavities	-11.7781
▁creatine	-11.7781
▁BMW	-11.7781
▁Nixon	-11.7781
▁Premier	-11.7781
▁Bluetooth	-11.7781
▁cherries	-11.7781
▁anger	-11.7782
▁saturn	-11.7782
▁injected	-11.7782
[...]
