{
  "version": "1.0",
  "truncation": null,
  "padding": null,
  "added_tokens": [
    {
      "id": 0,
      "content": "[UNK]",
      "single_word": false,
      "lstrip": false,
      "rstrip": false,
      "normalized": false,
      "special": true
    },
    {
      "id": 1,
      "content": "[CLS]",
      "single_word": false,
      "lstrip": false,
      "rstrip": false,
      "normalized": false,
      "special": true
    },
    {
      "id": 2,
      "content": "[SEP]",
      "single_word": false,
      "lstrip": false,
      "rstrip": false,
      "normalized": false,
      "special": true
    },
    {
      "id": 3,
      "content": "[PAD]",
      "single_word": false,
      "lstrip": false,
      "rstrip": false,
      "normalized": false,
      "special": true
    }
  ],
  "normalizer": {
    "type": "Sequence",
    "normalizers": [
      {
        "type": "NFC"
      },
      {
        "type": "Lowercase"
      },
      {
        "type": "StripAccents"
      }
    ]
  },
  "pre_tokenizer": {
    "type": "Whitespace"
  },
  "post_processor": {
    "type": "TemplateProcessing",
    "single": [
      {
        "SpecialToken": {
          "id": "[CLS]",
          "type_id": 0
        }
      },
      {
        "Sequence": {
          "id": "A",
          "type_id": 0
        }
      },
      {
        "SpecialToken": {
          "id": "[SEP]",
          "type_id": 0
        }
      }
    ],
    "pair": [
      {
        "SpecialToken": {
          "id": "[CLS]",
          "type_id": 0
        }
      },
      {
        "Sequence": {
          "id": "A",
          "type_id": 0
        }
      },
      {
        "SpecialToken": {
          "id": "[SEP]",
          "type_id": 0
        }
      },
      {
        "Sequence": {
          "id": "B",
          "type_id": 1
        }
      },
      {
        "SpecialToken": {
          "id": "[SEP]",
          "type_id": 1
        }
      }
    ],
    "special_tokens": {
      "[CLS]": {
        "id": "[CLS]",
        "ids": [
          1
        ],
        "tokens": [
          "[CLS]"
        ]
      },
      "[SEP]": {
        "id": "[SEP]",
        "ids": [
          2
        ],
        "tokens": [
          "[SEP]"
        ]
      }
    }
  },
  "decoder": {
    "type": "WordPiece",
    "prefix": "##",
    "cleanup": true
  },
  "model": {
    "type": "WordPiece",
    "unk_token": "[UNK]",
    "continuing_subword_prefix": "##",
    "max_input_chars_per_word": 100,
    "vocab": {
      "[UNK]": 0,
      "[CLS]": 1,
      "[SEP]": 2,
      "[PAD]": 3,
      "!": 4,
      "#": 5,
      "$": 6,
      "%": 7,
      "&": 8,
      "'": 9,
      "(": 10,
      ")": 11,
      "*": 12,
      "+": 13,
      ",": 14,
      "-": 15,
      ".": 16,
      "/": 17,
      "0": 18,
      "1": 19,
      "2": 20,
      "3": 21,
      "4": 22,
      "5": 23,
      "6": 24,
      "7": 25,
      "8": 26,
      "9": 27,
      ":": 28,
      ";": 29,
      "<": 30,
      "=": 31,
      ">": 32,
      "?": 33,
      "@": 34,
      "[": 35,
      "\\": 36,
      "]": 37,
      "^": 38,
      "_": 39,
      "`": 40,
      "a": 41,
      "b": 42,
      "c": 43,
      "d": 44,
      "e": 45,
      "f": 46,
      "g": 47,
      "h": 48,
      "i": 49,
      "j": 50,
      "k": 51,
      "l": 52,
      "m": 53,
      "n": 54,
      "o": 55,
      "p": 56,
      "q": 57,
      "r": 58,
      "s": 59,
      "t": 60,
      "u": 61,
      "v": 62,
      "w": 63,
      "x": 64,
      "y": 65,
      "z": 66,
      "{": 67,
      "|": 68,
      "}": 69,
      "~": 70,
      "": 71,
      "": 72,
      "": 73,
      "": 74,
      "": 75,
      "": 76,
      "": 77,
      "": 78,
      "": 79,
      "": 80,
      "": 81,
      "": 82,
      "": 83,
      "": 84,
      "": 85,
      "": 86,
      "": 87,
      "": 88,
      "": 89,
      "": 90,
      "": 91,
      "": 92,
      "": 93,
      "": 94,
      "": 95,
      "": 96,
      "": 97,
      "": 98,
      "": 99,
      "": 100,
      "": 101,
      "¡": 102,
      "¢": 103,
      "£": 104,
      "¤": 105,
      "¥": 106,
      "¦": 107,
      "§": 108,
      "¨": 109,
      "©": 110,
      "ª": 111,
      "«": 112,
      "¬": 113,
      "­": 114,
      "®": 115,
      "¯": 116,
      "°": 117,
      "±": 118,
      "²": 119,
      "³": 120,
      "´": 121,
      "µ": 122,
      "¶": 123,
      "·": 124,
      "¸": 125,
      "¹": 126,
      "º": 127,
      "»": 128,
      "¼": 129,
      "½": 130,
      "¾": 131,
      "¿": 132,
      "×": 133,
      "ß": 134,
      "à": 135,
      "á": 136,
      "â": 137,
      "ã": 138,
      "ä": 139,
      "å": 140,
      "æ": 141,
      "ç": 142,
      "è": 143,
      "é": 144,
      "ê": 145,
      "ë": 146,
      "ì": 147,
      "í": 148,
      "î": 149,
      "ï": 150,
      "ð": 151,
      "ñ": 152,
      "ó": 153,
      "ô": 154,
      "õ": 155,
      "ö": 156,
      "ø": 157,
      "ù": 158,
      "ú": 159,
      "û": 160,
      "ü": 161,
      "þ": 162,
      "ā": 163,
      "ă": 164,
      "ō": 165,
      "ş": 166,
      "š": 167,
      "ż": 168,
      "ơ": 169,
      "ư": 170,
      "ʹ": 171,
      "ʻ": 172,
      "ί": 173,
      "α": 174,
      "β": 175,
      "δ": 176,
      "ε": 177,
      "η": 178,
      "θ": 179,
      "ο": 180,
      "π": 181,
      "ρ": 182,
      "σ": 183,
      "φ": 184,
      "χ": 185,
      "ω": 186,
      "ό": 187,
      "в": 188,
      "е": 189,
      "о": 190,
      "х": 191,
      "ч": 192,
      "ت": 193,
      "ع": 194,
      "م": 195,
      "ن": 196,
      "अ": 197,
      "क": 198,
      "च": 199,
      "ज": 200,
      "ध": 201,
      "न": 202,
      "र": 203,
      "स": 204,
      "ก": 205,
      "ค": 206,
      "ง": 207,
      "ต": 208,
      "ธ": 209,
      "น": 210,
      "ย": 211,
      "ว": 212,
      "อ": 213,
      "า": 214,
      "ไ": 215,
      "​": 216,
      "–": 217,
      "—": 218,
      "‘": 219,
      "’": 220,
      "“": 221,
      "”": 222,
      "•": 223,
      "…": 224,
      "⁄": 225,
      "€": 226,
      "™": 227,
      "→": 228,
      "−": 229,
      "∫": 230,
      "≅": 231,
      "≈": 232,
      "⊕": 233,
      "◦": 234,
      "シ": 235,
      "ド": 236,
      "ニ": 237,
      "ー": 238,
      "겠": 239,
      "도": 240,
      "시": 241,
      "어": 242,
      "와": 243,
      "요": 244,
      "주": 245,
      "": 246,
      "﻿": 247,
      "￼": 248,
      "##a": 249,
      "##n": 250,
      "##c": 251,
      "##o": 252,
      "##r": 253,
      "##p": 254,
      "##t": 255,
      "##i": 256,
      "##.": 257,
      "##b": 258,
      "##k": 259,
      "##v": 260,
      "##u": 261,
      "##m": 262,
      "##h": 263,
      "##e": 264,
      "##s": 265,
      "##3": 266,
      "##2": 267,
      "##1": 268,
      "##8": 269,
      "##y": 270,
      "##g": 271,
      "##z": 272,
      "##d": 273,
      "##l": 274,
      "##6": 275,
      "##9": 276,
      "##0": 277,
      "##5": 278,
      "##w": 279,
      "##f": 280,
      "##â": 281,
      "##4": 282,
      "##7": 283,
      "##x": 284,
      "##q": 285,
      "##j": 286,
      "##_": 287,
      "##=": 288,
      "##”": 289,
      "##?": 290,
      "##ã": 291,
      "##é": 292,
      "##ª": 293,
      "##¸": 294,
      "##`": 295,
      "##": 296,
      "##;": 297,
      "##ø": 298,
      "##µ": 299,
      "##ù": 300,
      "##$": 301,
      "##~": 302,
      "##×": 303,
      "##": 304,
      "##": 305,
      "##": 306,
      "##-": 307,
      "##ä": 308,
      "##º": 309,
      "##,": 310,
      "##'": 311,
      "##)": 312,
      "##[": 313,
      "##!": 314,
      "##%": 315,
      "##:": 316,
      "##*": 317,
      "##]": 318,
      "##/": 319,
      "##¥": 320,
      "##": 321,
      "##|": 322,
      "##": 323,
      "##{": 324,
      "##}": 325,
      "##": 326,
      "##å": 327,
      "##": 328,
      "##": 329,
      "##¯": 330,
      "##ê": 331,
      "##²": 332,
      "##": 333,
      "##¾": 334,
      "##+": 335,
      "##&": 336,
      "##á": 337,
      "##±": 338,
      "##": 339,
      "##ï": 340,
      "##": 341,
      "##ë": 342,
      "##ă": 343,
      "##°": 344,
      "##æ": 345,
      "##": 346,
      "##(": 347,
      "##\\": 348,
      "##": 349,
      "##¦": 350,
      "##": 351,
      "##": 352,
      "##": 353,
      "##ç": 354,
      "##î": 355,
      "##": 356,
      "##ñ": 357,
      "##": 358,
      "##": 359,
      "##©": 360,
      "##¡": 361,
      "##¢": 362,
      "##ì": 363,
      "##": 364,
      "##": 365,
      "##³": 366,
      "##>": 367,
      "##": 368,
      "##¼": 369,
      "##¤": 370,
      "##¨": 371,
      "##¬": 372,
      "##": 373,
      "###": 374,
      "##ō": 375,
      "##^": 376,
      "##": 377,
      "##<": 378,
      "##": 379,
      "##¿": 380,
      "##§": 381,
      "##ó": 382,
      "##¶": 383,
      "##": 384,
      "##¹": 385,
      "##è": 386,
      "##@": 387,
      "##": 388,
      "##ð": 389,
      "##": 390,
      "##": 391,
      "##­": 392,
      "##«": 393,
      "##£": 394,
      "##»": 395,
      "##ö": 396,
      "##´": 397,
      "##": 398,
      "##→": 399,
      "##½": 400,
      "##ü": 401,
      "##": 402,
      "##û": 403,
      "##í": 404,
      "##à": 405,
      "##®": 406,
      "##ε": 407,
      "##ί": 408,
      "##ρ": 409,
      "##·": 410,
      "##ʻ": 411,
      "##ş": 412,
      "##š": 413,
      "##อ": 414,
      "##ú": 415,
      "##า": 416,
      "##ง": 417,
      "##ก": 418,
      "##น": 419,
      "##ย": 420,
      "##ไ": 421,
      "##π": 422,
      "##õ": 423,
      "##च": 424,
      "##न": 425,
      "##​": 426,
      "##와": 427,
      "##주": 428,
      "##시": 429,
      "##겠": 430,
      "##어": 431,
      "##요": 432,
      "##…": 433,
      "##ô": 434,
      "##ध": 435,
      "##क": 436,
      "##र": 437,
      "##ド": 438,
      "##ニ": 439,
      "##ー": 440,
      "##ư": 441,
      "##ơ": 442,
      "##е": 443,
      "##х": 444,
      "##о": 445,
      "##в": 446,
      "##ʹ": 447,
      "##ā": 448,
      "##ธ": 449,
      "##ع": 450,
      "##م": 451,
      "##ت": 452,
      "##η": 453,
      "##ό": 454,
      "##ο": 455,
      "##σ": 456,
      "##α": 457,
      "##−": 458,
      "##he": 459,
      "##at": 460,
      "##er": 461,
      "##in": 462,
      "the": 463,
      "##on": 464,
      "##es": 465,
      "##or": 466,
      "##an": 467,
      "##en": 468,
      "##al": 469,
      "in": 470,
      "##ar": 471,
      "##ou": 472,
      "##ed": 473,
      "of": 474,
      "is": 475,
      "##re": 476,
      "##it": 477,
      "an": 478,
      "wh": 479,
      "##ic": 480,
      "to": 481,
      "##ing": 482,
      "##st": 483,
      "##ion": 484,
      "##om": 485,
      "what": 486,
      "##ow": 487,
      "and": 488,
      "##le": 489,
      "##as": 490,
      "##is": 491,
      "##ent": 492,
      "##il": 493,
      "##ct": 494,
      "##et": 495,
      "##el": 496,
      "for": 497,
      "th": 498,
      "##ro": 499,
      "you": 500,
      "##id": 501,
      "##ol": 502,
      "st": 503,
      "##am": 504,
      "do": 505,
      "##ur": 506,
      "how": 507,
      "re": 508,
      "on": 509,
      "##ve": 510,
      "##ot": 511,
      "##ch": 512,
      "##ation": 513,
      "##ay": 514,
      "##ig": 515,
      "##ce": 516,
      "##se": 517,
      "##ut": 518,
      "de": 519,
      "be": 520,
      "##ver": 521,
      "##ge": 522,
      "or": 523,
      "are": 524,
      "##ly": 525,
      "##od": 526,
      "##ir": 527,
      "##ad": 528,
      "##im": 529,
      "##um": 530,
      "##ul": 531,
      "it": 532,
      "con": 533,
      "pro": 534,
      "##us": 535,
      "as": 536,
      "##est": 537,
      "can": 538,
      "##oun": 539,
      "##ra": 540,
      "##ess": 541,
      "whe": 542,
      "al": 543,
      "##ith": 544,
      "##ate": 545,
      "com": 546,
      "##ers": 547,
      "fr": 548,
      "with": 549,
      "##th": 550,
      "that": 551,
      "##ak": 552,
      "ch": 553,
      "##ost": 554,
      "##ter": 555,
      "does": 556,
      "##em": 557,
      "##if": 558,
      "se": 559,
      "##ab": 560,
      "##ist": 561,
      "##her": 562,
      "##ac": 563,
      "##op": 564,
      "your": 565,
      "ex": 566,
      "ne": 567,
      "##age": 568,
      "##ill": 569,
      "##un": 570,
      "##os": 571,
      "##oc": 572,
      "##ment": 573,
      "me": 574,
      "##ri": 575,
      "##and": 576,
      "at": 577,
      "sh": 578,
      "##ine": 579,
      "ha": 580,
      "##pe": 581,
      "##igh": 582,
      "from": 583,
      "##ain": 584,
      "##all": 585,
      "##ity": 586,
      "##ant": 587,
      "us": 588,
      "he": 589,
      "##ition": 590,
      "##art": 591,
      "##pp": 592,
      "##ies": 593,
      "by": 594,
      "pr": 595,
      "su": 596,
      "en": 597,
      "un": 598,
      "##ld": 599,
      "ca": 600,
      "##ong": 601,
      "##ive": 602,
      "pl": 603,
      "we": 604,
      "le": 605,
      "##ort": 606,
      "def": 607,
      "##ect": 608,
      "was": 609,
      "##ood": 610,
      "##ast": 611,
      "##pt": 612,
      "wor": 613,
      "##ell": 614,
      "man": 615,
      "##ure": 616,
      "when": 617,
      "##ome": 618,
      "##ore": 619,
      "##ount": 620,
      "##iv": 621,
      "##ight": 622,
      "##ia": 623,
      "##qu": 624,
      "##per": 625,
      "##ich": 626,
      "have": 627,
      "##ber": 628,
      "##ake": 629,
      "per": 630,
      "##ard": 631,
      "##ical": 632,
      "##ary": 633,
      "##ial": 634,
      "cl": 635,
      "##one": 636,
      "##ame": 637,
      "ad": 638,
      "who": 639,
      "this": 640,
      "##ice": 641,
      "mean": 642,
      "##00": 643,
      "##our": 644,
      "##ud": 645,
      "##ated": 646,
      "sy": 647,
      "##ag": 648,
      "##end": 649,
      "ab": 650,
      "ac": 651,
      "##ip": 652,
      "comp": 653,
      "not": 654,
      "##ust": 655,
      "sp": 656,
      "bl": 657,
      "which": 658,
      "tr": 659,
      "long": 660,
      "cost": 661,
      "defin": 662,
      "##ction": 663,
      "##og": 664,
      "##iz": 665,
      "ar": 666,
      "##out": 667,
      "##ear": 668,
      "gr": 669,
      "dis": 670,
      "##ound": 671,
      "##ff": 672,
      "cont": 673,
      "inc": 674,
      "where": 675,
      "##ind": 676,
      "car": 677,
      "##ie": 678,
      "##ide": 679,
      "am": 680,
      "definition": 681,
      "##ok": 682,
      "if": 683,
      "##fer": 684,
      "##pl": 685,
      "fl": 686,
      "##ans": 687,
      "res": 688,
      "co": 689,
      "##ase": 690,
      "all": 691,
      "many": 692,
      "col": 693,
      "will": 694,
      "mu": 695,
      "sc": 696,
      "##act": 697,
      "##orm": 698,
      "##ual": 699,
      "##ould": 700,
      "##ance": 701,
      "ph": 702,
      "te": 703,
      "##ass": 704,
      "##der": 705,
      "##ick": 706,
      "tim": 707,
      "##du": 708,
      "ty": 709,
      "##ence": 710,
      "much": 711,
      "##ack": 712,
      "##ens": 713,
      "##ater": 714,
      "one": 715,
      "year": 716,
      "##ue": 717,
      "##ire": 718,
      "num": 719,
      "##verage": 720,
      "count": 721,
      "": 722,
      "##ib": 723,
      "##gh": 724,
      "20": 725,
      "##ther": 726,
      "##own": 727,
      "fe": 728,
      "im": 729,
      "##able": 730,
      "up": 731,
      "average": 732,
      "##ail": 733,
      "##ree": 734,
      "##ous": 735,
      "int": 736,
      "##ach": 737,
      "has": 738,
      "##ry": 739,
      "##use": 740,
      "ser": 741,
      "but": 742,
      "##ph": 743,
      "med": 744,
      "most": 745,
      "inf": 746,
      "##ace": 747,
      "get": 748,
      "##ates": 749,
      "out": 750,
      "##ough": 751,
      "comm": 752,
      "##ile": 753,
      "more": 754,
      "app": 755,
      "##ke": 756,
      "name": 757,
      "##ult": 758,
      "li": 759,
      "##vel": 760,
      "##ap": 761,
      "new": 762,
      "##ax": 763,
      "used": 764,
      "so": 765,
      "time": 766,
      "day": 767,
      "##so": 768,
      "br": 769,
      "##we": 770,
      "##erm": 771,
      "number": 772,
      "use": 773,
      "pre": 774,
      "mar": 775,
      "##ose": 776,
      "go": 777,
      "##ite": 778,
      "##ck": 779,
      "other": 780,
      "##port": 781,
      "sal": 782,
      "cr": 783,
      "mo": 784,
      "pe": 785,
      "##ord": 786,
      "may": 787,
      "##ub": 788,
      "bet": 789,
      "##av": 790,
      "##ish": 791,
      "acc": 792,
      "##are": 793,
      "did": 794,
      "part": 795,
      "##reat": 796,
      "dif": 797,
      "spe": 798,
      "they": 799,
      "cal": 800,
      "work": 801,
      "ind": 802,
      "che": 803,
      "##ents": 804,
      "caus": 805,
      "##te": 806,
      "201": 807,
      "##ang": 808,
      "##ep": 809,
      "form": 810,
      "##ign": 811,
      "em": 812,
      "county": 813,
      "there": 814,
      "af": 815,
      "fir": 816,
      "##ru": 817,
      "rec": 818,
      "##ian": 819,
      "##ations": 820,
      "also": 821,
      "ro": 822,
      "bo": 823,
      "about": 824,
      "##ors": 825,
      "my": 826,
      "##ions": 827,
      "##ild": 828,
      "##gr": 829,
      ").": 830,
      "inter": 831,
      "need": 832,
      "kn": 833,
      "##ere": 834,
      "some": 835,
      "differ": 836,
      "loc": 837,
      "##les": 838,
      "##ings": 839,
      "lo": 840,
      "qu": 841,
      "off": 842,
      "##int": 843,
      "make": 844,
      "tw": 845,
      "first": 846,
      "##ory": 847,
      "mon": 848,
      "19": 849,
      "than": 850,
      "call": 851,
      "##ffect": 852,
      "tra": 853,
      "gen": 854,
      "##ween": 855,
      "over": 856,
      "between": 857,
      "act": 858,
      "meaning": 859,
      "should": 860,
      "##ric": 861,
      "##lect": 862,
      "##ock": 863,
      "##orn": 864,
      "ear": 865,
      "##ange": 866,
      "water": 867,
      "min": 868,
      "##ade": 869,
      "take": 870,
      "##..": 871,
      "##oll": 872,
      "##ely": 873,
      "##anc": 874,
      "after": 875,
      "##lud": 876,
      "their": 877,
      "sm": 878,
      "##urn": 879,
      "##ond": 880,
      "##cess": 881,
      "##ons": 882,
      "##stem": 883,
      "##__": 884,
      "produ": 885,
      "ag": 886,
      "add": 887,
      "bu": 888,
      "di": 889,
      "serv": 890,
      "##amp": 891,
      "sym": 892,
      "cons": 893,
      "why": 894,
      "includ": 895,
      "blood": 896,
      "##aw": 897,
      "system": 898,
      "causes": 899,
      "##its": 900,
      "any": 901,
      "tem": 902,
      "##ft": 903,
      "##ular": 904,
      "bec": 905,
      "##ys": 906,
      "##ress": 907,
      "##enc": 908,
      "des": 909,
      "state": 910,
      "##eral": 911,
      "cell": 912,
      "par": 913,
      "no": 914,
      "its": 915,
      "hel": 916,
      "ev": 917,
      "##iss": 918,
      "##land": 919,
      "dep": 920,
      "cause": 921,
      "ins": 922,
      "reg": 923,
      "##ert": 924,
      "two": 925,
      "food": 926,
      "into": 927,
      "jo": 928,
      "ass": 929,
      "##ific": 930,
      "##ody": 931,
      "trans": 932,
      "##ower": 933,
      "typ": 934,
      "pay": 935,
      "peop": 936,
      "heal": 937,
      "##olog": 938,
      "10": 939,
      "people": 940,
      "##ather": 941,
      "##oms": 942,
      "##ps": 943,
      "##ink": 944,
      "##ature": 945,
      "##lic": 946,
      "##hes": 947,
      "met": 948,
      "tax": 949,
      "inst": 950,
      "sur": 951,
      "##ath": 952,
      "po": 953,
      "sk": 954,
      "pop": 955,
      "bas": 956,
      "spec": 957,
      "##ows": 958,
      "fun": 959,
      "sa": 960,
      "sec": 961,
      "##bs": 962,
      "pers": 963,
      "char": 964,
      "mus": 965,
      "##old": 966,
      "like": 967,
      "##ene": 968,
      "test": 969,
      "type": 970,
      "##oth": 971,
      "##ery": 972,
      "air": 973,
      "rel": 974,
      "##ments": 975,
      "##ating": 976,
      "##ium": 977,
      "pres": 978,
      "hour": 979,
      "body": 980,
      "##ited": 981,
      "rem": 982,
      "called": 983,
      "##eric": 984,
      "##wn": 985,
      "thr": 986,
      "pain": 987,
      "##iver": 988,
      "##ll": 989,
      "##inal": 990,
      "##ne": 991,
      "eng": 992,
      "under": 993,
      "play": 994,
      "sympt": 995,
      "##ix": 996,
      "health": 997,
      "lar": 998,
      "##ank": 999,
      "##ten": 1000,
      "prov": 1001,
      "ke": 1002,
      "##ins": 1003,
      "##gs": 1004,
      "##io": 1005,
      "years": 1006,
      "term": 1007,
      "ap": 1008,
      "common": 1009,
      "requ": 1010,
      "##ms": 1011,
      "##ton": 1012,
      "start": 1013,
      "##cc": 1014,
      "##cle": 1015,
      "these": 1016,
      "cent": 1017,
      "##ics": 1018,
      "temper": 1019,
      "##gan": 1020,
      "##ually": 1021,
      "good": 1022,
      "##ts": 1023,
      "person": 1024,
      "##rib": 1025,
      "sub": 1026,
      "symptoms": 1027,
      "world": 1028,
      "##uring": 1029,
      "his": 1030,
      "home": 1031,
      "only": 1032,
      "effect": 1033,
      "##ject": 1034,
      "val": 1035,
      "americ": 1036,
      "##ices": 1037,
      "##ork": 1038,
      "see": 1039,
      "old": 1040,
      "##als": 1041,
      "age": 1042,
      "cur": 1043,
      "##oy": 1044,
      "##ty": 1045,
      "set": 1046,
      "gl": 1047,
      "pa": 1048,
      "pol": 1049,
      "inv": 1050,
      "##oss": 1051,
      "##ulation": 1052,
      "##way": 1053,
      "##ise": 1054,
      "ve": 1055,
      "back": 1056,
      "high": 1057,
      "),": 1058,
      "##ational": 1059,
      "our": 1060,
      "find": 1061,
      "exp": 1062,
      "bel": 1063,
      "##erg": 1064,
      "ever": 1065,
      "##fore": 1066,
      "##ient": 1067,
      "mil": 1068,
      "##ures": 1069,
      "##ract": 1070,
      "##ize": 1071,
      "##co": 1072,
      "found": 1073,
      "det": 1074,
      "##ode": 1075,
      "states": 1076,
      "through": 1077,
      "her": 1078,
      "rep": 1079,
      "##ible": 1080,
      "were": 1081,
      "000": 1082,
      "##ines": 1083,
      "##ool": 1084,
      "such": 1085,
      "sl": 1086,
      "word": 1087,
      "ret": 1088,
      "att": 1089,
      "price": 1090,
      "supp": 1091,
      "op": 1092,
      "dise": 1093,
      "made": 1094,
      "##ting": 1095,
      "best": 1096,
      "##ility": 1097,
      "month": 1098,
      "dist": 1099,
      "stud": 1100,
      "war": 1101,
      "pat": 1102,
      "##hed": 1103,
      "##ily": 1104,
      "child": 1105,
      "city": 1106,
      "inform": 1107,
      "lif": 1108,
      "red": 1109,
      "##ied": 1110,
      "stand": 1111,
      "##ative": 1112,
      "way": 1113,
      "sch": 1114,
      "##ious": 1115,
      "help": 1116,
      "##ict": 1117,
      "200": 1118,
      "##owing": 1119,
      "just": 1120,
      "##ss": 1121,
      "##ities": 1122,
      "cre": 1123,
      "hy": 1124,
      "been": 1125,
      "treat": 1126,
      "id": 1127,
      "##iew": 1128,
      "##ble": 1129,
      "weather": 1130,
      "different": 1131,
      "sign": 1132,
      "she": 1133,
      "medic": 1134,
      "##ks": 1135,
      "##ale": 1136,
      "sim": 1137,
      "last": 1138,
      "dec": 1139,
      "each": 1140,
      "gu": 1141,
      "level": 1142,
      "dri": 1143,
      "before": 1144,
      "process": 1145,
      "salary": 1146,
      "down": 1147,
      "temperature": 1148,
      "est": 1149,
      "##ced": 1150,
      "##bo": 1151,
      "##rit": 1152,
      "types": 1153,
      "##ouse": 1154,
      "list": 1155,
      "foll": 1156,
      "would": 1157,
      "right": 1158,
      "##ider": 1159,
      "then": 1160,
      "##gest": 1161,
      "##omet": 1162,
      "##ron": 1163,
      "##ants": 1164,
      "aut": 1165,
      "var": 1166,
      "bre": 1167,
      "##ull": 1168,
      "##cent": 1169,
      "end": 1170,
      "during": 1171,
      "##let": 1172,
      "##hing": 1173,
      "information": 1174,
      "##ories": 1175,
      "fam": 1176,
      "av": 1177,
      "ref": 1178,
      "hum": 1179,
      "elect": 1180,
      "dr": 1181,
      "##akes": 1182,
      "occ": 1183,
      "##ally": 1184,
      "mem": 1185,
      "care": 1186,
      "##day": 1187,
      "bus": 1188,
      "sw": 1189,
      "##ause": 1190,
      "##na": 1191,
      "them": 1192,
      "##up": 1193,
      "ma": 1194,
      "##ym": 1195,
      "define": 1196,
      "wind": 1197,
      "##ution": 1198,
      "##iness": 1199,
      "cor": 1200,
      "located": 1201,
      "##any": 1202,
      "##ness": 1203,
      "organ": 1204,
      "##tle": 1205,
      "##ning": 1206,
      "fil": 1207,
      "str": 1208,
      "pur": 1209,
      "##ption": 1210,
      "law": 1211,
      "##cer": 1212,
      "ob": 1213,
      "well": 1214,
      "##ams": 1215,
      "dire": 1216,
      "##ces": 1217,
      "free": 1218,
      "##ving": 1219,
      "ext": 1220,
      "": 1221,
      "": 1222,
      "##ploy": 1223,
      "bene": 1224,
      "wee": 1225,
      "##acter": 1226,
      "##get": 1227,
      "12": 1228,
      "days": 1229,
      "own": 1230,
      "united": 1231,
      "net": 1232,
      "##ases": 1233,
      "##ful": 1234,
      "area": 1235,
      "cook": 1236,
      "pass": 1237,
      "cond": 1238,
      "progr": 1239,
      "leg": 1240,
      "small": 1241,
      "##ven": 1242,
      "18": 1243,
      "##ology": 1244,
      "sol": 1245,
      "service": 1246,
      "##ages": 1247,
      "##gn": 1248,
      "##ctions": 1249,
      "color": 1250,
      "fo": 1251,
      "bra": 1252,
      "##ism": 1253,
      "##ator": 1254,
      "##ah": 1255,
      "dat": 1256,
      "don": 1257,
      "card": 1258,
      "disease": 1259,
      "known": 1260,
      "##outh": 1261,
      "benef": 1262,
      "imp": 1263,
      "##ically": 1264,
      "cour": 1265,
      "hours": 1266,
      "##aking": 1267,
      "15": 1268,
      "main": 1269,
      "##air": 1270,
      "##xt": 1271,
      "##ved": 1272,
      "##ency": 1273,
      "vis": 1274,
      "##other": 1275,
      "phone": 1276,
      "often": 1277,
      "cle": 1278,
      "##hip": 1279,
      "mod": 1280,
      "##els": 1281,
      "school": 1282,
      "every": 1283,
      "##ample": 1284,
      "orig": 1285,
      "account": 1286,
      "##velop": 1287,
      "gre": 1288,
      "plan": 1289,
      "medical": 1290,
      "difference": 1291,
      "rate": 1292,
      "soc": 1293,
      "open": 1294,
      "": 1295,
      "##ash": 1296,
      "...": 1297,
      "equ": 1298,
      "check": 1299,
      "cells": 1300,
      "##rop": 1301,
      "curr": 1302,
      "##ove": 1303,
      "heart": 1304,
      "##cl": 1305,
      "##ral": 1306,
      "import": 1307,
      "while": 1308,
      "##oup": 1309,
      "##ural": 1310,
      "##ids": 1311,
      "life": 1312,
      "cred": 1313,
      "press": 1314,
      "same": 1315,
      "##ute": 1316,
      "##eng": 1317,
      "develop": 1318,
      "el": 1319,
      "##ident": 1320,
      "##ob": 1321,
      "population": 1322,
      "employ": 1323,
      "##ars": 1324,
      "proper": 1325,
      "ey": 1326,
      "change": 1327,
      "top": 1328,
      "class": 1329,
      "deg": 1330,
      "##ug": 1331,
      "##iod": 1332,
      "business": 1333,
      "kind": 1334,
      "look": 1335,
      "general": 1336,
      "resp": 1337,
      "side": 1338,
      "const": 1339,
      "##eld": 1340,
      "contain": 1341,
      "american": 1342,
      "skin": 1343,
      "head": 1344,
      "mark": 1345,
      "##ee": 1346,
      "##ason": 1347,
      "fact": 1348,
      "product": 1349,
      "##ense": 1350,
      "##iet": 1351,
      "norm": 1352,
      "##ized": 1353,
      "##ital": 1354,
      "ed": 1355,
      "using": 1356,
      "intern": 1357,
      "##form": 1358,
      "##ern": 1359,
      "condition": 1360,
      "three": 1361,
      "period": 1362,
      "nor": 1363,
      "##ets": 1364,
      "code": 1365,
      "usually": 1366,
      "hot": 1367,
      "##cul": 1368,
      "because": 1369,
      "##ats": 1370,
      "ele": 1371,
      "cert": 1372,
      "##ves": 1373,
      "ste": 1374,
      "run": 1375,
      "##ren": 1376,
      "##yl": 1377,
      "bab": 1378,
      "house": 1379,
      "place": 1380,
      "wom": 1381,
      "far": 1382,
      "lim": 1383,
      "calories": 1384,
      "pub": 1385,
      "result": 1386,
      "light": 1387,
      "lit": 1388,
      "bro": 1389,
      "syn": 1390,
      "##ames": 1391,
      "percent": 1392,
      "incre": 1393,
      "oil": 1394,
      "pot": 1395,
      "point": 1396,
      "very": 1397,
      "ant": 1398,
      "low": 1399,
      "art": 1400,
      "size": 1401,
      "contro": 1402,
      "##bers": 1403,
      "squ": 1404,
      "weight": 1405,
      "bar": 1406,
      "##ont": 1407,
      "##res": 1408,
      "infect": 1409,
      "example": 1410,
      "hand": 1411,
      "##line": 1412,
      "around": 1413,
      "direct": 1414,
      "consider": 1415,
      "amount": 1416,
      "##ience": 1417,
      "record": 1418,
      "power": 1419,
      "##____": 1420,
      "occur": 1421,
      "eg": 1422,
      "ur": 1423,
      "##ides": 1424,
      "##lish": 1425,
      "##pect": 1426,
      "tech": 1427,
      "data": 1428,
      "exper": 1429,
      "know": 1430,
      "had": 1431,
      "##ane": 1432,
      "must": 1433,
      "prof": 1434,
      "company": 1435,
      "##ier": 1436,
      "post": 1437,
      "affect": 1438,
      "##ones": 1439,
      "means": 1440,
      "report": 1441,
      "come": 1442,
      "##ergy": 1443,
      "both": 1444,
      "men": 1445,
      "##ivers": 1446,
      "##ward": 1447,
      "credit": 1448,
      "hig": 1449,
      "prot": 1450,
      "click": 1451,
      "read": 1452,
      "include": 1453,
      "del": 1454,
      "somet": 1455,
      "30": 1456,
      "lead": 1457,
      "##az": 1458,
      "##lo": 1459,
      "##ues": 1460,
      "ann": 1461,
      "now": 1462,
      "foot": 1463,
      "##br": 1464,
      "##ives": 1465,
      "want": 1466,
      "eat": 1467,
      "##oney": 1468,
      "##ired": 1469,
      "based": 1470,
      "##gin": 1471,
      "dra": 1472,
      "function": 1473,
      "fi": 1474,
      "even": 1475,
      "grow": 1476,
      "sing": 1477,
      "here": 1478,
      "sug": 1479,
      "important": 1480,
      "hist": 1481,
      "meas": 1482,
      "depend": 1483,
      "mat": 1484,
      "happ": 1485,
      "show": 1486,
      "##ever": 1487,
      "##vern": 1488,
      "build": 1489,
      "keep": 1490,
      "cust": 1491,
      "rece": 1492,
      "big": 1493,
      "": 1494,
      "##ina": 1495,
      "##uc": 1496,
      "conn": 1497,
      "##dr": 1498,
      "gra": 1499,
      "##ave": 1500,
      "range": 1501,
      "##gen": 1502,
      "##elf": 1503,
      "bi": 1504,
      "ge": 1505,
      "##ists": 1506,
      "vir": 1507,
      "##utes": 1508,
      "fin": 1509,
      "current": 1510,
      "mill": 1511,
      "insur": 1512,
      "##amm": 1513,
      "ir": 1514,
      "less": 1515,
      "##ger": 1516,
      "rest": 1517,
      "##ark": 1518,
      "##enn": 1519,
      "cy": 1520,
      "mic": 1521,
      "##ury": 1522,
      "family": 1523,
      "design": 1524,
      "govern": 1525,
      "##ruct": 1526,
      "##iation": 1527,
      "energy": 1528,
      "great": 1529,
      "install": 1530,
      "es": 1531,
      "live": 1532,
      "cap": 1533,
      "har": 1534,
      "following": 1535,
      "colle": 1536,
      "sever": 1537,
      "second": 1538,
      "including": 1539,
      "##hen": 1540,
      "techn": 1541,
      "vol": 1542,
      "##man": 1543,
      "##ior": 1544,
      "100": 1545,
      "connect": 1546,
      "prote": 1547,
      "11": 1548,
      "fat": 1549,
      "non": 1550,
      "bank": 1551,
      "##imum": 1552,
      "disc": 1553,
      "phys": 1554,
      "say": 1555,
      "lab": 1556,
      "another": 1557,
      "proble": 1558,
      "tot": 1559,
      "##erc": 1560,
      "ent": 1561,
      "##ental": 1562,
      "group": 1563,
      "benefits": 1564,
      "real": 1565,
      "##ivid": 1566,
      "being": 1567,
      "without": 1568,
      "land": 1569,
      "prim": 1570,
      "move": 1571,
      "oper": 1572,
      "white": 1573,
      "la": 1574,
      "become": 1575,
      "effects": 1576,
      "north": 1577,
      "##vent": 1578,
      "comput": 1579,
      "25": 1580,
      "lear": 1581,
      "foods": 1582,
      "let": 1583,
      "stat": 1584,
      "standard": 1585,
      "chem": 1586,
      "##sw": 1587,
      "##vers": 1588,
      "##ince": 1589,
      "##ner": 1590,
      "insurance": 1591,
      "file": 1592,
      "normal": 1593,
      "desc": 1594,
      "commun": 1595,
      "##ney": 1596,
      "sun": 1597,
      "##work": 1598,
      "gas": 1599,
      "fast": 1600,
      "##ified": 1601,
      "dev": 1602,
      "plant": 1603,
      "appro": 1604,
      "##ional": 1605,
      "bat": 1606,
      "##view": 1607,
      "bir": 1608,
      "##ted": 1609,
      "english": 1610,
      "hard": 1611,
      "baby": 1612,
      "##alk": 1613,
      "cat": 1614,
      "rad": 1615,
      "##ump": 1616,
      "##ross": 1617,
      "full": 1618,
      "##osp": 1619,
      "lang": 1620,
      "pri": 1621,
      "black": 1622,
      "nat": 1623,
      "custom": 1624,
      "south": 1625,
      "##lex": 1626,
      "eas": 1627,
      "##rap": 1628,
      "within": 1629,
      "50": 1630,
      "anim": 1631,
      "human": 1632,
      "flu": 1633,
      "port": 1634,
      "##osis": 1635,
      "order": 1636,
      "univers": 1637,
      "large": 1638,
      "pressure": 1639,
      "four": 1640,
      "qual": 1641,
      "##ased": 1642,
      "##ille": 1643,
      "repl": 1644,
      "##red": 1645,
      "support": 1646,
      "total": 1647,
      "below": 1648,
      "money": 1649,
      "step": 1650,
      "doct": 1651,
      "##cept": 1652,
      "sour": 1653,
      "social": 1654,
      "saf": 1655,
      "spr": 1656,
      "turn": 1657,
      "##amin": 1658,
      "rele": 1659,
      "fed": 1660,
      "require": 1661,
      "chr": 1662,
      "however": 1663,
      "windows": 1664,
      "langu": 1665,
      "##icle": 1666,
      "special": 1667,
      "dru": 1668,
      "stre": 1669,
      "control": 1670,
      "##ization": 1671,
      "maj": 1672,
      "##ley": 1673,
      "earth": 1674,
      "##ining": 1675,
      "exc": 1676,
      "adv": 1677,
      "refer": 1678,
      "assoc": 1679,
      "tri": 1680,
      "national": 1681,
      "##uck": 1682,
      "week": 1683,
      "ep": 1684,
      "mot": 1685,
      "largest": 1686,
      "##arch": 1687,
      "muscle": 1688,
      "16": 1689,
      "##con": 1690,
      "avail": 1691,
      "income": 1692,
      "##par": 1693,
      "date": 1694,
      "##itis": 1695,
      "bill": 1696,
      "put": 1697,
      "pos": 1698,
      "##iving": 1699,
      "sn": 1700,
      "##til": 1701,
      "miles": 1702,
      "##uro": 1703,
      "services": 1704,
      "born": 1705,
      "president": 1706,
      "treatment": 1707,
      "##less": 1708,
      "minutes": 1709,
      "expl": 1710,
      "infl": 1711,
      "##read": 1712,
      "contin": 1713,
      "lic": 1714,
      "##ox": 1715,
      "ps": 1716,
      "conf": 1717,
      "mag": 1718,
      "imm": 1719,
      "major": 1720,
      "mid": 1721,
      "engine": 1722,
      "fre": 1723,
      "##inc": 1724,
      "##au": 1725,
      "answ": 1726,
      "rock": 1727,
      "line": 1728,
      "could": 1729,
      "##osed": 1730,
      "ox": 1731,
      "##ec": 1732,
      "office": 1733,
      "##ana": 1734,
      "14": 1735,
      "##ential": 1736,
      "##ength": 1737,
      "##ville": 1738,
      "dig": 1739,
      "##ify": 1740,
      "chang": 1741,
      "cancer": 1742,
      "##ability": 1743,
      "secur": 1744,
      "ner": 1745,
      "##cum": 1746,
      "women": 1747,
      "appe": 1748,
      "ll": 1749,
      "17": 1750,
      "cop": 1751,
      "##iety": 1752,
      "##omes": 1753,
      "##oid": 1754,
      "those": 1755,
      "sum": 1756,
      "mater": 1757,
      "center": 1758,
      "purp": 1759,
      "public": 1760,
      "pregn": 1761,
      "vit": 1762,
      "program": 1763,
      "##ik": 1764,
      "##ients": 1765,
      "##hy": 1766,
      "##ately": 1767,
      "government": 1768,
      "computer": 1769,
      "park": 1770,
      "writ": 1771,
      "square": 1772,
      "considered": 1773,
      "view": 1774,
      "available": 1775,
      "##ision": 1776,
      "determ": 1777,
      "##ott": 1778,
      "##rees": 1779,
      "market": 1780,
      "near": 1781,
      "meth": 1782,
      "short": 1783,
      "##ida": 1784,
      "ver": 1785,
      "##une": 1786,
      "lower": 1787,
      "##por": 1788,
      "applic": 1789,
      "cho": 1790,
      "##ball": 1791,
      "west": 1792,
      "phot": 1793,
      "accord": 1794,
      "children": 1795,
      "book": 1796,
      "makes": 1797,
      "cover": 1798,
      "##ots": 1799,
      "##ison": 1800,
      "##atic": 1801,
      "##ration": 1802,
      "nur": 1803,
      "feet": 1804,
      "##tain": 1805,
      "##led": 1806,
      "tex": 1807,
      "lat": 1808,
      "again": 1809,
      "costs": 1810,
      "win": 1811,
      "character": 1812,
      "poss": 1813,
      "##ries": 1814,
      "micro": 1815,
      "simp": 1816,
      "perform": 1817,
      "times": 1818,
      "brain": 1819,
      "ris": 1820,
      "cut": 1821,
      "enter": 1822,
      "##uss": 1823,
      "##ds": 1824,
      "dem": 1825,
      "mass": 1826,
      "protein": 1827,
      "##duc": 1828,
      "activ": 1829,
      "partic": 1830,
      "buy": 1831,
      "adm": 1832,
      "material": 1833,
      "protect": 1834,
      "sugar": 1835,
      "calif": 1836,
      "wa": 1837,
      "##hest": 1838,
      "contact": 1839,
      "##ware": 1840,
      "flor": 1841,
      "13": 1842,
      "value": 1843,
      "##ined": 1844,
      "season": 1845,
      "federal": 1846,
      "page": 1847,
      "##ino": 1848,
      "return": 1849,
      "##raph": 1850,
      "security": 1851,
      "song": 1852,
      "eye": 1853,
      "hal": 1854,
      "ju": 1855,
      "##iction": 1856,
      "chick": 1857,
      "wr": 1858,
      "ang": 1859,
      "calcul": 1860,
      "cir": 1861,
      "fall": 1862,
      "soft": 1863,
      "mult": 1864,
      "diet": 1865,
      "arm": 1866,
      "university": 1867,
      "degree": 1868,
      "island": 1869,
      "language": 1870,
      "ill": 1871,
      "history": 1872,
      "until": 1873,
      "californ": 1874,
      "hair": 1875,
      "according": 1876,
      "educ": 1877,
      "give": 1878,
      "##ipp": 1879,
      "##lete": 1880,
      "##ancy": 1881,
      "##ling": 1882,
      "##ification": 1883,
      "origin": 1884,
      "caused": 1885,
      "california": 1886,
      "few": 1887,
      "struct": 1888,
      "green": 1889,
      "##tern": 1890,
      "select": 1891,
      "star": 1892,
      "comb": 1893,
      "##son": 1894,
      "##que": 1895,
      "##itive": 1896,
      "mov": 1897,
      "since": 1898,
      "lay": 1899,
      "##ounds": 1900,
      "earn": 1901,
      "##ime": 1902,
      "texas": 1903,
      "early": 1904,
      "¦": 1905,
      "##ada": 1906,
      "##ann": 1907,
      "heat": 1908,
      "##ination": 1909,
      "2015": 1910,
      "##etic": 1911,
      "job": 1912,
      "surg": 1913,
      "offic": 1914,
      "burn": 1915,
      "court": 1916,
      "miss": 1917,
      "beh": 1918,
      "##iven": 1919,
      "tiss": 1920,
      "ple": 1921,
      "still": 1922,
      "--": 1923,
      "##of": 1924,
      "dam": 1925,
      "max": 1926,
      "##ister": 1927,
      "dog": 1928,
      "dry": 1929,
      "popular": 1930,
      "left": 1931,
      "addition": 1932,
      "game": 1933,
      "##aim": 1934,
      "town": 1935,
      "##imate": 1936,
      "##ished": 1937,
      "40": 1938,
      "stor": 1939,
      "quest": 1940,
      "##eds": 1941,
      "doctor": 1942,
      "fire": 1943,
      "mount": 1944,
      "manage": 1945,
      "##ote": 1946,
      "##omm": 1947,
      "##eter": 1948,
      "resear": 1949,
      "key": 1950,
      "due": 1951,
      "sit": 1952,
      "infection": 1953,
      "##hn": 1954,
      "individ": 1955,
      "##ma": 1956,
      "drink": 1957,
      "table": 1958,
      "##here": 1959,
      "worth": 1960,
      "##ences": 1961,
      "super": 1962,
      "fac": 1963,
      "related": 1964,
      "learn": 1965,
      "div": 1966,
      "answer": 1967,
      "pan": 1968,
      "##mit": 1969,
      "chemical": 1970,
      "profess": 1971,
      "##ov": 1972,
      "project": 1973,
      "provide": 1974,
      "##ony": 1975,
      "kid": 1976,
      "property": 1977,
      "24": 1978,
      "##iated": 1979,
      "months": 1980,
      "##ender": 1981,
      "germ": 1982,
      "##ways": 1983,
      "natural": 1984,
      "specific": 1985,
      "iss": 1986,
      "hold": 1987,
      "address": 1988,
      "bacter": 1989,
      "##ule": 1990,
      "##eth": 1991,
      "##ables": 1992,
      "repres": 1993,
      "death": 1994,
      "##face": 1995,
      "individual": 1996,
      "##roid": 1997,
      "##hol": 1998,
      "feel": 1999,
      "too": 2000,
      "nut": 2001,
      "mal": 2002,
      "network": 2003,
      "##omy": 2004,
      "college": 2005,
      "blue": 2006,
      "today": 2007,
      "required": 2008,
      "wat": 2009,
      "interest": 2010,
      "##ially": 2011,
      "##und": 2012,
      "little": 2013,
      "exam": 2014,
      "local": 2015,
      "dia": 2016,
      "york": 2017,
      "contract": 2018,
      "access": 2019,
      "vide": 2020,
      "stay": 2021,
      "et": 2022,
      "online": 2023,
      "dna": 2024,
      "clean": 2025,
      "florida": 2026,
      "##atures": 2027,
      "rout": 2028,
      "trad": 2029,
      "docum": 2030,
      "east": 2031,
      "##vert": 2032,
      "search": 2033,
      "scre": 2034,
      "measure": 2035,
      "##....": 2036,
      "redu": 2037,
      "single": 2038,
      "loss": 2039,
      "##idge": 2040,
      "ra": 2041,
      "remove": 2042,
      "cold": 2043,
      "drive": 2044,
      "though": 2045,
      "..": 2046,
      "##ains": 2047,
      "travel": 2048,
      "##ese": 2049,
      "2016": 2050,
      "someone": 2051,
      "##xic": 2052,
      "##ato": 2053,
      "begin": 2054,
      "opt": 2055,
      "##bon": 2056,
      "ident": 2057,
      "levels": 2058,
      "face": 2059,
      "wall": 2060,
      "chicken": 2061,
      "next": 2062,
      "adult": 2063,
      "##imes": 2064,
      "##phone": 2065,
      "base": 2066,
      "method": 2067,
      "##ips": 2068,
      "anal": 2069,
      "pract": 2070,
      "##ume": 2071,
      "##tery": 2072,
      "music": 2073,
      "describ": 2074,
      "##ograph": 2075,
      "products": 2076,
      "stop": 2077,
      "case": 2078,
      "##atory": 2079,
      "##ended": 2080,
      "##pper": 2081,
      "##elling": 2082,
      "##order": 2083,
      "##ived": 2084,
      "tv": 2085,
      "subst": 2086,
      "##cles": 2087,
      "john": 2088,
      "##ama": 2089,
      "words": 2090,
      "##yn": 2091,
      "##ills": 2092,
      "several": 2093,
      "plants": 2094,
      "##ends": 2095,
      "bal": 2096,
      "sle": 2097,
      "think": 2098,
      "##po": 2099,
      "##sc": 2100,
      "acid": 2101,
      "summ": 2102,
      "##sh": 2103,
      "once": 2104,
      "##aries": 2105,
      "weeks": 2106,
      "ide": 2107,
      "claim": 2108,
      "##aste": 2109,
      "given": 2110,
      "tur": 2111,
      "above": 2112,
      "allow": 2113,
      "##ently": 2114,
      "million": 2115,
      "distance": 2116,
      "king": 2117,
      "##ench": 2118,
      "indust": 2119,
      "##ither": 2120,
      "auth": 2121,
      "##ych": 2122,
      "fem": 2123,
      "tit": 2124,
      "bad": 2125,
      "##me": 2126,
      "oh": 2127,
      "original": 2128,
      "##ler": 2129,
      "break": 2130,
      "##ured": 2131,
      "abs": 2132,
      "link": 2133,
      "create": 2134,
      "block": 2135,
      "00": 2136,
      "hol": 2137,
      "199": 2138,
      "##ef": 2139,
      "invol": 2140,
      "experience": 2141,
      "might": 2142,
      "manag": 2143,
      "##aring": 2144,
      "##ples": 2145,
      "research": 2146,
      "dom": 2147,
      "vac": 2148,
      "web": 2149,
      "birth": 2150,
      "##row": 2151,
      "stock": 2152,
      "gir": 2153,
      "box": 2154,
      "field": 2155,
      "something": 2156,
      "paid": 2157,
      "night": 2158,
      "highest": 2159,
      "##lor": 2160,
      "##ex": 2161,
      "least": 2162,
      "vers": 2163,
      "##50": 2164,
      "hyd": 2165,
      "##ung": 2166,
      "##ails": 2167,
      "flo": 2168,
      "sat": 2169,
      "won": 2170,
      "##ared": 2171,
      "##ateg": 2172,
      "fish": 2173,
      "country": 2174,
      "apply": 2175,
      "airport": 2176,
      "quick": 2177,
      "##aves": 2178,
      "aust": 2179,
      "personal": 2180,
      "legal": 2181,
      "sil": 2182,
      "present": 2183,
      "offer": 2184,
      "text": 2185,
      "increase": 2186,
      "unit": 2187,
      "things": 2188,
      "certain": 2189,
      "##ai": 2190,
      "education": 2191,
      "mix": 2192,
      "ce": 2193,
      "source": 2194,
      "##esh": 2195,
      "conditions": 2196,
      "euro": 2197,
      "##bur": 2198,
      "location": 2199,
      "replace": 2200,
      "##af": 2201,
      "##rodu": 2202,
      "##oma": 2203,
      "##ilar": 2204,
      "study": 2205,
      "cast": 2206,
      "alco": 2207,
      "surgery": 2208,
      "mole": 2209,
      "veh": 2210,
      "charge": 2211,
      "oxy": 2212,
      "management": 2213,
      "ess": 2214,
      "##ges": 2215,
      "##umb": 2216,
      "##over": 2217,
      "alcohol": 2218,
      "gar": 2219,
      "##li": 2220,
      "members": 2221,
      "##ances": 2222,
      "##ici": 2223,
      "##dle": 2224,
      "washing": 2225,
      "##erv": 2226,
      "conc": 2227,
      "liver": 2228,
      "depart": 2229,
      "object": 2230,
      "license": 2231,
      "sens": 2232,
      "sex": 2233,
      "provid": 2234,
      "fee": 2235,
      "cra": 2236,
      "higher": 2237,
      "psych": 2238,
      "half": 2239,
      "minimum": 2240,
      "living": 2241,
      "##ission": 2242,
      "500": 2243,
      "lot": 2244,
      "making": 2245,
      "problems": 2246,
      "better": 2247,
      "map": 2248,
      "sales": 2249,
      "respons": 2250,
      "env": 2251,
      "nu": 2252,
      "horm": 2253,
      "pack": 2254,
      "numbers": 2255,
      "##bol": 2256,
      "try": 2257,
      "##yle": 2258,
      "river": 2259,
      "##cy": 2260,
      "dail": 2261,
      "assist": 2262,
      "surface": 2263,
      "san": 2264,
      "author": 2265,
      "pregnancy": 2266,
      "hosp": 2267,
      "##uit": 2268,
      "speed": 2269,
      "civ": 2270,
      "##ush": 2271,
      "60": 2272,
      "bur": 2273,
      "##ret": 2274,
      "annual": 2275,
      "five": 2276,
      "indic": 2277,
      "##be": 2278,
      "##ription": 2279,
      "21": 2280,
      "electric": 2281,
      "##action": 2282,
      "limit": 2283,
      "prom": 2284,
      "represent": 2285,
      "admin": 2286,
      "daily": 2287,
      "##ively": 2288,
      "length": 2289,
      "ded": 2290,
      "either": 2291,
      "##dom": 2292,
      "log": 2293,
      "physical": 2294,
      "purpose": 2295,
      "econ": 2296,
      "deb": 2297,
      "terms": 2298,
      "die": 2299,
      "marri": 2300,
      "space": 2301,
      "cit": 2302,
      "tool": 2303,
      "site": 2304,
      "##ula": 2305,
      "similar": 2306,
      "##hern": 2307,
      "##iron": 2308,
      "tissue": 2309,
      "names": 2310,
      "sometimes": 2311,
      "therap": 2312,
      "having": 2313,
      "needed": 2314,
      "customer": 2315,
      "risk": 2316,
      "inj": 2317,
      "said": 2318,
      "eggs": 2319,
      "##fl": 2320,
      "movie": 2321,
      "expect": 2322,
      "##ta": 2323,
      "##ask": 2324,
      "ul": 2325,
      "##--": 2326,
      "financ": 2327,
      "gold": 2328,
      "je": 2329,
      "cult": 2330,
      "review": 2331,
      "##ape": 2332,
      "fri": 2333,
      "flow": 2334,
      "polic": 2335,
      "##amed": 2336,
      "##ilt": 2337,
      "invest": 2338,
      "series": 2339,
      "building": 2340,
      "##ember": 2341,
      "geor": 2342,
      "development": 2343,
      "video": 2344,
      "away": 2345,
      "##ield": 2346,
      "bow": 2347,
      "cam": 2348,
      "stra": 2349,
      "team": 2350,
      "##go": 2351,
      "typically": 2352,
      "hem": 2353,
      "##pr": 2354,
      "always": 2355,
      "canada": 2356,
      "stom": 2357,
      "possible": 2358,
      "##anch": 2359,
      "works": 2360,
      "results": 2361,
      "coun": 2362,
      "prevent": 2363,
      "##istics": 2364,
      "##gether": 2365,
      "##fact": 2366,
      "together": 2367,
      "species": 2368,
      "girl": 2369,
      "sche": 2370,
      "tell": 2371,
      "hydro": 2372,
      "prob": 2373,
      "central": 2374,
      "##ze": 2375,
      "er": 2376,
      "##ement": 2377,
      "ny": 2378,
      "plac": 2379,
      "visit": 2380,
      "along": 2381,
      "grad": 2382,
      "muscles": 2383,
      "sleep": 2384,
      "parts": 2385,
      "environ": 2386,
      "screen": 2387,
      "sure": 2388,
      "labor": 2389,
      "ut": 2390,
      "##book": 2391,
      "##rict": 2392,
      "share": 2393,
      "milk": 2394,
      "happens": 2395,
      "civil": 2396,
      "##mber": 2397,
      "##itch": 2398,
      "tele": 2399,
      "##stand": 2400,
      "##ram": 2401,
      "corn": 2402,
      "cann": 2403,
      "students": 2404,
      "##ression": 2405,
      "aug": 2406,
      "##ude": 2407,
      "##ems": 2408,
      "webs": 2409,
      "international": 2410,
      "##sa": 2411,
      "##ension": 2412,
      "news": 2413,
      "##asc": 2414,
      "mac": 2415,
      "##ester": 2416,
      "##oph": 2417,
      "joint": 2418,
      "##ged": 2419,
      "film": 2420,
      "urine": 2421,
      "priv": 2422,
      "changes": 2423,
      "##wood": 2424,
      "##ope": 2425,
      "gener": 2426,
      "past": 2427,
      "generally": 2428,
      "##to": 2429,
      "du": 2430,
      "primary": 2431,
      "stomach": 2432,
      "america": 2433,
      "invent": 2434,
      "washington": 2435,
      "oven": 2436,
      "##mon": 2437,
      "role": 2438,
      "oxygen": 2439,
      "transfer": 2440,
      "mess": 2441,
      "vari": 2442,
      "degrees": 2443,
      "lake": 2444,
      "wood": 2445,
      "position": 2446,
      "dogs": 2447,
      "##pec": 2448,
      "purch": 2449,
      "carbon": 2450,
      "hor": 2451,
      "bond": 2452,
      "rat": 2453,
      "fig": 2454,
      "created": 2455,
      "drug": 2456,
      "europe": 2457,
      "##odes": 2458,
      "needs": 2459,
      "clos": 2460,
      "thir": 2461,
      "opp": 2462,
      "afric": 2463,
      "liqu": 2464,
      "patients": 2465,
      "tall": 2466,
      "contrib": 2467,
      "six": 2468,
      "##tic": 2469,
      "diff": 2470,
      "growth": 2471,
      "##itution": 2472,
      "vitamin": 2473,
      "quality": 2474,
      "swe": 2475,
      "training": 2476,
      "##side": 2477,
      "lik": 2478,
      "bit": 2479,
      "dou": 2480,
      "##acy": 2481,
      "youâ": 2482,
      "safe": 2483,
      "room": 2484,
      "##ires": 2485,
      "##by": 2486,
      "follow": 2487,
      "nucle": 2488,
      "records": 2489,
      "frequ": 2490,
      "easy": 2491,
      "##nes": 2492,
      "22": 2493,
      "itâ": 2494,
      "apr": 2495,
      "ter": 2496,
      "##omic": 2497,
      "ask": 2498,
      "meat": 2499,
      "gall": 2500,
      "complete": 2501,
      "mel": 2502,
      "tree": 2503,
      "gree": 2504,
      "tre": 2505,
      "walk": 2506,
      "##aut": 2507,
      "please": 2508,
      "jan": 2509,
      "2010": 2510,
      "symbol": 2511,
      "pen": 2512,
      "mail": 2513,
      "sen": 2514,
      "electr": 2515,
      "associated": 2516,
      "community": 2517,
      "comes": 2518,
      "youn": 2519,
      "##ably": 2520,
      "##lished": 2521,
      "##tt": 2522,
      "##ift": 2523,
      "impro": 2524,
      "environment": 2525,
      "medication": 2526,
      "oct": 2527,
      "##iate": 2528,
      "prop": 2529,
      "recomm": 2530,
      "really": 2531,
      "diagn": 2532,
      "clear": 2533,
      "##ysis": 2534,
      "##ruction": 2535,
      "depending": 2536,
      "##val": 2537,
      "##ees": 2538,
      "rights": 2539,
      "##icult": 2540,
      "brand": 2541,
      "problem": 2542,
      "prices": 2543,
      "application": 2544,
      "him": 2545,
      "suc": 2546,
      "##iger": 2547,
      "##ores": 2548,
      "eff": 2549,
      "sent": 2550,
      "##ding": 2551,
      "appear": 2552,
      "done": 2553,
      "mich": 2554,
      "upd": 2555,
      "##though": 2556,
      "device": 2557,
      "gland": 2558,
      "rain": 2559,
      "pet": 2560,
      "corre": 2561,
      "bacteria": 2562,
      "pow": 2563,
      "fit": 2564,
      "multip": 2565,
      "mi": 2566,
      "nerve": 2567,
      "manu": 2568,
      "aud": 2569,
      "able": 2570,
      "financial": 2571,
      "areas": 2572,
      "fluid": 2573,
      "##gon": 2574,
      "taxes": 2575,
      "simple": 2576,
      "systems": 2577,
      "basic": 2578,
      "forms": 2579,
      "board": 2580,
      "mouth": 2581,
      "pu": 2582,
      "contains": 2583,
      "against": 2584,
      "uses": 2585,
      "tom": 2586,
      "store": 2587,
      "##ole": 2588,
      "commonly": 2589,
      "expens": 2590,
      "camp": 2591,
      "##avor": 2592,
      "includes": 2593,
      "##ba": 2594,
      "produce": 2595,
      "ground": 2596,
      "##itor": 2597,
      "structure": 2598,
      "excel": 2599,
      "strong": 2600,
      "mexic": 2601,
      "exerc": 2602,
      "note": 2603,
      "sav": 2604,
      "proced": 2605,
      "brown": 2606,
      "going": 2607,
      "arr": 2608,
      "course": 2609,
      "##isc": 2610,
      "2014": 2611,
      "##ters": 2612,
      "although": 2613,
      "198": 2614,
      "wed": 2615,
      "##yroid": 2616,
      "##ache": 2617,
      "inside": 2618,
      "french": 2619,
      "##itary": 2620,
      "science": 2621,
      "nurs": 2622,
      "meet": 2623,
      "middle": 2624,
      "manufact": 2625,
      "requirements": 2626,
      "breat": 2627,
      "approx": 2628,
      "provides": 2629,
      "pie": 2630,
      "website": 2631,
      "sand": 2632,
      "region": 2633,
      "height": 2634,
      "flight": 2635,
      "dedu": 2636,
      "diab": 2637,
      "##ado": 2638,
      "2017": 2639,
      "leave": 2640,
      "##iff": 2641,
      "cases": 2642,
      "##gress": 2643,
      "##ches": 2644,
      "mach": 2645,
      "later": 2646,
      "##bre": 2647,
      "wal": 2648,
      "##ological": 2649,
      "front": 2650,
      "##aster": 2651,
      "healthy": 2652,
      "beach": 2653,
      "maximum": 2654,
      "23": 2655,
      "fix": 2656,
      "inches": 2657,
      "kit": 2658,
      ".,": 2659,
      "document": 2660,
      "takes": 2661,
      "rib": 2662,
      "##ellow": 2663,
      "patient": 2664,
      "##usion": 2665,
      "##aken": 2666,
      "##ules": 2667,
      "doll": 2668,
      "force": 2669,
      "adj": 2670,
      "score": 2671,
      "calc": 2672,
      "paper": 2673,
      "email": 2674,
      "##eding": 2675,
      "boil": 2676,
      "ly": 2677,
      "coll": 2678,
      "road": 2679,
      "austral": 2680,
      "loan": 2681,
      "department": 2682,
      "neg": 2683,
      "consum": 2684,
      "##thing": 2685,
      "##ique": 2686,
      "helps": 2687,
      "happen": 2688,
      "damage": 2689,
      "hospital": 2690,
      "love": 2691,
      "kill": 2692,
      "mor": 2693,
      "##pa": 2694,
      "eyes": 2695,
      "##ised": 2696,
      "sept": 2697,
      "software": 2698,
      "tick": 2699,
      "close": 2700,
      "vehicle": 2701,
      "##ster": 2702,
      "hun": 2703,
      "final": 2704,
      "pal": 2705,
      "##iana": 2706,
      "ways": 2707,
      "diction": 2708,
      "sport": 2709,
      "particular": 2710,
      "zip": 2711,
      "iron": 2712,
      "receive": 2713,
      "rich": 2714,
      "tub": 2715,
      "##ibr": 2716,
      "collect": 2717,
      "others": 2718,
      "brit": 2719,
      "cup": 2720,
      "##arr": 2721,
      "egg": 2722,
      "taking": 2723,
      "disorder": 2724,
      "##ians": 2725,
      "salt": 2726,
      "##itical": 2727,
      "working": 2728,
      "occurs": 2729,
      "separ": 2730,
      "roast": 2731,
      "understand": 2732,
      "espec": 2733,
      "##ault": 2734,
      "##ming": 2735,
      "especially": 2736,
      "internet": 2737,
      "fill": 2738,
      "print": 2739,
      "##ival": 2740,
      "lym": 2741,
      "sea": 2742,
      "examples": 2743,
      "whether": 2744,
      "rates": 2745,
      "policy": 2746,
      "jack": 2747,
      "autom": 2748,
      "##ering": 2749,
      "##imately": 2750,
      "creat": 2751,
      "zone": 2752,
      "##otic": 2753,
      "scient": 2754,
      "animals": 2755,
      "motor": 2756,
      "host": 2757,
      "late": 2758,
      "##oud": 2759,
      "der": 2760,
      "points": 2761,
      "##ending": 2762,
      "medicine": 2763,
      "model": 2764,
      "##dule": 2765,
      "defined": 2766,
      "##ief": 2767,
      "##idence": 2768,
      "bott": 2769,
      "##ching": 2770,
      "ital": 2771,
      "drugs": 2772,
      "##ica": 2773,
      "corpor": 2774,
      "##ieve": 2775,
      "diseases": 2776,
      "¢": 2777,
      "regular": 2778,
      "clin": 2779,
      "##cover": 2780,
      "estab": 2781,
      "teeth": 2782,
      "196": 2783,
      "##den": 2784,
      "2013": 2785,
      "ok": 2786,
      "##ops": 2787,
      "mer": 2788,
      "section": 2789,
      "##key": 2790,
      "schedule": 2791,
      "span": 2792,
      "oce": 2793,
      "uk": 2794,
      "jud": 2795,
      "##uation": 2796,
      "seat": 2797,
      "hyp": 2798,
      "28": 2799,
      "sod": 2800,
      "##ention": 2801,
      "necess": 2802,
      "copy": 2803,
      "sell": 2804,
      "##aches": 2805,
      "##rum": 2806,
      "veget": 2807,
      "whole": 2808,
      "kidney": 2809,
      "##uel": 2810,
      "cool": 2811,
      "floor": 2812,
      "factors": 2813,
      "##arm": 2814,
      "administ": 2815,
      "sound": 2816,
      "dictionary": 2817,
      "anc": 2818,
      "##rete": 2819,
      "##for": 2820,
      "prem": 2821,
      "##load": 2822,
      "produced": 2823,
      "##ties": 2824,
      "professional": 2825,
      "##hydr": 2826,
      "path": 2827,
      "dead": 2828,
      "##ae": 2829,
      "march": 2830,
      "soil": 2831,
      "il": 2832,
      "##room": 2833,
      "##avy": 2834,
      "wid": 2835,
      "nc": 2836,
      "deep": 2837,
      "##epend": 2838,
      "amaz": 2839,
      "payment": 2840,
      "effective": 2841,
      "bud": 2842,
      "never": 2843,
      "fees": 2844,
      "enough": 2845,
      "glass": 2846,
      "determine": 2847,
      "glob": 2848,
      "##ronic": 2849,
      "syndr": 2850,
      "animal": 2851,
      "august": 2852,
      "##ensus": 2853,
      "success": 2854,
      "april": 2855,
      "noun": 2856,
      "##iting": 2857,
      "movement": 2858,
      "yellow": 2859,
      "various": 2860,
      "arch": 2861,
      "compan": 2862,
      "colon": 2863,
      "bone": 2864,
      "likely": 2865,
      "##ators": 2866,
      "aff": 2867,
      "##ros": 2868,
      "##soft": 2869,
      "deal": 2870,
      "alm": 2871,
      "usa": 2872,
      "estim": 2873,
      "wide": 2874,
      "90": 2875,
      "shows": 2876,
      "mg": 2877,
      "band": 2878,
      "event": 2879,
      "choose": 2880,
      "vi": 2881,
      "sho": 2882,
      "cycle": 2883,
      "##ipe": 2884,
      "##ring": 2885,
      "##che": 2886,
      "resour": 2887,
      "cross": 2888,
      "gluc": 2889,
      "##ona": 2890,
      "relations": 2891,
      "virus": 2892,
      "liquid": 2893,
      "26": 2894,
      "register": 2895,
      "mc": 2896,
      "independ": 2897,
      "save": 2898,
      "reason": 2899,
      "active": 2900,
      "jap": 2901,
      "##light": 2902,
      "pred": 2903,
      "estate": 2904,
      "cab": 2905,
      "syndrome": 2906,
      "files": 2907,
      "wire": 2908,
      "bul": 2909,
      "quiz": 2910,
      "##aff": 2911,
      "etc": 2912,
      "##astic": 2913,
      "across": 2914,
      "##lement": 2915,
      "repair": 2916,
      "variety": 2917,
      "woman": 2918,
      "den": 2919,
      "mineral": 2920,
      "production": 2921,
      "fiber": 2922,
      "microsoft": 2923,
      "transl": 2924,
      "inflamm": 2925,
      "##ays": 2926,
      "##utions": 2927,
      "july": 2928,
      "iphone": 2929,
      "pict": 2930,
      "##wards": 2931,
      "mob": 2932,
      "##ites": 2933,
      "action": 2934,
      "ohio": 2935,
      "essential": 2936,
      "lun": 2937,
      "typical": 2938,
      "assess": 2939,
      "played": 2940,
      "": 2941,
      "pron": 2942,
      "japan": 2943,
      "getting": 2944,
      "deliver": 2945,
      "##self": 2946,
      "digest": 2947,
      ".)": 2948,
      "bed": 2949,
      "phil": 2950,
      "outside": 2951,
      "pick": 2952,
      "spring": 2953,
      "nort": 2954,
      "true": 2955,
      "##anger": 2956,
      "signific": 2957,
      "tar": 2958,
      "complet": 2959,
      "actually": 2960,
      "behav": 2961,
      "equal": 2962,
      "routing": 2963,
      "##uary": 2964,
      "census": 2965,
      "bag": 2966,
      "built": 2967,
      "dark": 2968,
      "##inary": 2969,
      "ice": 2970,
      "org": 2971,
      "mort": 2972,
      "presc": 2973,
      "employees": 2974,
      "third": 2975,
      "##bor": 2976,
      "written": 2977,
      "upper": 2978,
      "christ": 2979,
      "eating": 2980,
      "industry": 2981,
      "hyper": 2982,
      "##ij": 2983,
      "197": 2984,
      "alb": 2985,
      "photos": 2986,
      "##etes": 2987,
      "thing": 2988,
      "pc": 2989,
      "##hers": 2990,
      "longer": 2991,
      "tradition": 2992,
      "##roll": 2993,
      "##chan": 2994,
      "80": 2995,
      "medicare": 2996,
      "ten": 2997,
      "released": 2998,
      "manager": 2999,
      "##itude": 3000,
      "displ": 3001,
      "percentage": 3002,
      "27": 3003,
      "self": 3004,
      "military": 3005,
      "ben": 3006,
      "##ife": 3007,
      "potato": 3008,
      "summer": 3009,
      "##cel": 3010,
      "##ript": 3011,
      "##ilities": 3012,
      "signs": 3013,
      "ml": 3014,
      "##olution": 3015,
      "discover": 3016,
      "cannot": 3017,
      "commerc": 3018,
      "##ead": 3019,
      "##ogn": 3020,
      "party": 3021,
      "communic": 3022,
      "eth": 3023,
      "among": 3024,
      "vary": 3025,
      "ble": 3026,
      "35": 3027,
      "sout": 3028,
      "attack": 3029,
      "stri": 3030,
      "grand": 3031,
      "kids": 3032,
      "exec": 3033,
      "apple": 3034,
      "approximately": 3035,
      "exist": 3036,
      "regul": 3037,
      "extra": 3038,
      "female": 3039,
      "formed": 3040,
      "therapy": 3041,
      "init": 3042,
      "thick": 3043,
      "tend": 3044,
      "##________": 3045,
      "cub": 3046,
      "##fect": 3047,
      "doesn": 3048,
      "45": 3049,
      "##vious": 3050,
      "stress": 3051,
      "release": 3052,
      "element": 3053,
      "reduce": 3054,
      "died": 3055,
      "express": 3056,
      "accept": 3057,
      "fail": 3058,
      "princ": 3059,
      "neck": 3060,
      "union": 3061,
      "##aur": 3062,
      "ocean": 3063,
      "##ena": 3064,
      "##hold": 3065,
      "subject": 3066,
      "32": 3067,
      "tour": 3068,
      "track": 3069,
      "fair": 3070,
      "style": 3071,
      "rot": 3072,
      "70": 3073,
      "##uff": 3074,
      "ww": 3075,
      "wage": 3076,
      "##asons": 3077,
      "colors": 3078,
      "warm": 3079,
      "format": 3080,
      "##fort": 3081,
      "##ologist": 3082,
      "named": 3083,
      "36": 3084,
      "distrib": 3085,
      "pul": 3086,
      "technology": 3087,
      "vo": 3088,
      "spread": 3089,
      "influ": 3090,
      "son": 3091,
      "button": 3092,
      "fresh": 3093,
      "##ician": 3094,
      "battery": 3095,
      "##ota": 3096,
      "virgin": 3097,
      "##ising": 3098,
      "##ety": 3099,
      "tu": 3100,
      "india": 3101,
      "pork": 3102,
      "capital": 3103,
      "chrom": 3104,
      "##duct": 3105,
      "##otes": 3106,
      "convert": 3107,
      "dest": 3108,
      "##ius": 3109,
      "ip": 3110,
      "suff": 3111,
      "companies": 3112,
      "rom": 3113,
      "player": 3114,
      "##icles": 3115,
      "appl": 3116,
      "tx": 3117,
      "employee": 3118,
      "mexico": 3119,
      "foc": 3120,
      "question": 3121,
      "cities": 3122,
      "circ": 3123,
      "ingr": 3124,
      "subs": 3125,
      "laws": 3126,
      "countries": 3127,
      "says": 3128,
      "rev": 3129,
      "tests": 3130,
      "version": 3131,
      "sem": 3132,
      "nurse": 3133,
      "male": 3134,
      "smok": 3135,
      "theory": 3136,
      "story": 3137,
      "ira": 3138,
      "ago": 3139,
      "ham": 3140,
      "grams": 3141,
      "greek": 3142,
      "dut": 3143,
      "talk": 3144,
      "vs": 3145,
      "##ises": 3146,
      "calculate": 3147,
      "sale": 3148,
      "chest": 3149,
      "carol": 3150,
      "fort": 3151,
      "las": 3152,
      "exercise": 3153,
      "##istic": 3154,
      "commercial": 3155,
      "temp": 3156,
      "plus": 3157,
      "29": 3158,
      "##gia": 3159,
      "student": 3160,
      "ga": 3161,
      "31": 3162,
      "rid": 3163,
      "taken": 3164,
      "carry": 3165,
      "antib": 3166,
      "##board": 3167,
      "article": 3168,
      "june": 3169,
      "##ey": 3170,
      "correct": 3171,
      "introdu": 3172,
      "option": 3173,
      "enc": 3174,
      "##oses": 3175,
      "##riger": 3176,
      "chann": 3177,
      "activity": 3178,
      "##ha": 3179,
      "volume": 3180,
      "##isms": 3181,
      "functions": 3182,
      "##lin": 3183,
      "january": 3184,
      "fly": 3185,
      "injury": 3186,
      "sold": 3187,
      "##oo": 3188,
      "mechan": 3189,
      "roof": 3190,
      "##ibility": 3191,
      "quizlet": 3192,
      "gal": 3193,
      "##olf": 3194,
      "fra": 3195,
      "young": 3196,
      "write": 3197,
      "lou": 3198,
      "bring": 3199,
      "title": 3200,
      "ec": 3201,
      "butter": 3202,
      "congress": 3203,
      "elements": 3204,
      "paint": 3205,
      "##ober": 3206,
      "rank": 3207,
      "humans": 3208,
      "severe": 3209,
      "median": 3210,
      "constitution": 3211,
      "responsible": 3212,
      "download": 3213,
      "cry": 3214,
      "content": 3215,
      "respir": 3216,
      "additional": 3217,
      "metal": 3218,
      "solar": 3219,
      "refriger": 3220,
      "maintain": 3221,
      "plate": 3222,
      "benefit": 3223,
      "round": 3224,
      "irs": 3225,
      "##gage": 3226,
      "looking": 3227,
      "transport": 3228,
      "cash": 3229,
      "rent": 3230,
      "improve": 3231,
      "chart": 3232,
      "fur": 3233,
      "##rote": 3234,
      "categ": 3235,
      "##iter": 3236,
      "roll": 3237,
      "questions": 3238,
      "va": 3239,
      "october": 3240,
      "thyroid": 3241,
      "safety": 3242,
      "medium": 3243,
      "relationship": 3244,
      "hur": 3245,
      "homes": 3246,
      "serious": 3247,
      "ast": 3248,
      "materials": 3249,
      "adults": 3250,
      "beaut": 3251,
      "2012": 3252,
      "##ought": 3253,
      "organization": 3254,
      "brok": 3255,
      "hormone": 3256,
      "##asing": 3257,
      "##raft": 3258,
      "biggest": 3259,
      "##umn": 3260,
      "##burg": 3261,
      "lymph": 3262,
      "concrete": 3263,
      "##gar": 3264,
      "km": 3265,
      "avoid": 3266,
      "flag": 3267,
      "speak": 3268,
      "member": 3269,
      "sett": 3270,
      "membr": 3271,
      "soon": 3272,
      "fro": 3273,
      "##ging": 3274,
      "cand": 3275,
      "temperatures": 3276,
      "goog": 3277,
      "got": 3278,
      "feed": 3279,
      "potential": 3280,
      "fol": 3281,
      "bottom": 3282,
      "princip": 3283,
      "ho": 3284,
      "##uate": 3285,
      "tea": 3286,
      "htt": 3287,
      "##ford": 3288,
      "diabetes": 3289,
      "driving": 3290,
      "kil": 3291,
      "official": 3292,
      "##head": 3293,
      "prec": 3294,
      "reaction": 3295,
      "##omb": 3296,
      "broad": 3297,
      "slow": 3298,
      "double": 3299,
      "gard": 3300,
      "programs": 3301,
      "##where": 3302,
      "beef": 3303,
      "resid": 3304,
      "shar": 3305,
      "starting": 3306,
      "bath": 3307,
      "##zym": 3308,
      "letter": 3309,
      "infections": 3310,
      "##uk": 3311,
      "climate": 3312,
      "layer": 3313,
      "driver": 3314,
      "difficult": 3315,
      "user": 3316,
      "necessary": 3317,
      "lines": 3318,
      "draw": 3319,
      "google": 3320,
      "pound": 3321,
      "wear": 3322,
      "lip": 3323,
      "compet": 3324,
      "apart": 3325,
      "hotel": 3326,
      "century": 3327,
      "street": 3328,
      "chol": 3329,
      "features": 3330,
      "glucose": 3331,
      "fing": 3332,
      "hom": 3333,
      "recover": 3334,
      "nursing": 3335,
      "september": 3336,
      "send": 3337,
      "##ham": 3338,
      "almost": 3339,
      "ft": 3340,
      "vess": 3341,
      "amend": 3342,
      "##verse": 3343,
      "##ulf": 3344,
      "media": 3345,
      "##ued": 3346,
      "fore": 3347,
      "ol": 3348,
      "private": 3349,
      "mile": 3350,
      "##da": 3351,
      "focus": 3352,
      "detect": 3353,
      "##ritis": 3354,
      "ult": 3355,
      "army": 3356,
      "married": 3357,
      "famous": 3358,
      "vacc": 3359,
      "penn": 3360,
      "root": 3361,
      "breast": 3362,
      "oun": 3363,
      "ach": 3364,
      "##oming": 3365,
      "##ils": 3366,
      "obs": 3367,
      "load": 3368,
      "directly": 3369,
      "remo": 3370,
      "rh": 3371,
      "sq": 3372,
      "status": 3373,
      "##ership": 3374,
      "depos": 3375,
      "prior": 3376,
      "##ania": 3377,
      "##ogen": 3378,
      "plays": 3379,
      "##40": 3380,
      "##itation": 3381,
      "ingred": 3382,
      "games": 3383,
      "simply": 3384,
      "options": 3385,
      "notice": 3386,
      "ball": 3387,
      "positive": 3388,
      "practice": 3389,
      "dav": 3390,
      "dece": 3391,
      "cart": 3392,
      "mother": 3393,
      "##//": 3394,
      "##ached": 3395,
      "entire": 3396,
      "coc": 3397,
      "rene": 3398,
      "amazon": 3399,
      "##oles": 3400,
      "histor": 3401,
      "mind": 3402,
      "complex": 3403,
      "mountain": 3404,
      "cm": 3405,
      "##pat": 3406,
      "pool": 3407,
      "##oster": 3408,
      "liter": 3409,
      "pounds": 3410,
      "absor": 3411,
      "cd": 3412,
      "request": 3413,
      "##izz": 3414,
      "##........": 3415,
      "sus": 3416,
      "##20": 3417,
      "steps": 3418,
      "teac": 3419,
      "monthly": 3420,
      "##rim": 3421,
      "wild": 3422,
      "##iciency": 3423,
      "feb": 3424,
      "smell": 3425,
      "instead": 3426,
      "spanish": 3427,
      "command": 3428,
      "agre": 3429,
      "execut": 3430,
      "##care": 3431,
      "py": 3432,
      "perfect": 3433,
      "drop": 3434,
      "arth": 3435,
      "behavior": 3436,
      "##bl": 3437,
      "throughout": 3438,
      "guide": 3439,
      "300": 3440,
      "district": 3441,
      "resist": 3442,
      "##ux": 3443,
      "##ror": 3444,
      "##char": 3445,
      "statement": 3446,
      "figure": 3447,
      "mobile": 3448,
      "door": 3449,
      "radio": 3450,
      "procedure": 3451,
      "##ago": 3452,
      "##izes": 3453,
      "allows": 3454,
      "australia": 3455,
      "started": 3456,
      "##ano": 3457,
      "fund": 3458,
      "reach": 3459,
      "coff": 3460,
      "://": 3461,
      "divid": 3462,
      "explain": 3463,
      "dim": 3464,
      "multiple": 3465,
      "thro": 3466,
      "offers": 3467,
      "virginia": 3468,
      "grill": 3469,
      "describe": 3470,
      "running": 3471,
      "trees": 3472,
      "seen": 3473,
      "regard": 3474,
      "bor": 3475,
      "##put": 3476,
      "weigh": 3477,
      "fever": 3478,
      "auto": 3479,
      "##iday": 3480,
      "##igan": 3481,
      "german": 3482,
      "tou": 3483,
      "refers": 3484,
      "retire": 3485,
      "passport": 3486,
      "altern": 3487,
      "ii": 3488,
      "##uana": 3489,
      "haw": 3490,
      "solution": 3491,
      "designed": 3492,
      "impl": 3493,
      "consist": 3494,
      "internal": 3495,
      "writing": 3496,
      "75": 3497,
      "enzym": 3498,
      "global": 3499,
      "willi": 3500,
      "##ography": 3501,
      "horse": 3502,
      "tooth": 3503,
      "ov": 3504,
      "emerg": 3505,
      "##oups": 3506,
      "secret": 3507,
      "wrote": 3508,
      "taste": 3509,
      "##leg": 3510,
      "carolina": 3511,
      "##lines": 3512,
      "modern": 3513,
      "latin": 3514,
      "##iat": 3515,
      "ms": 3516,
      "station": 3517,
      "units": 3518,
      "impact": 3519,
      "##inois": 3520,
      "dur": 3521,
      "watch": 3522,
      "elev": 3523,
      "currently": 3524,
      "china": 3525,
      "gene": 3526,
      "dental": 3527,
      "gain": 3528,
      "##iac": 3529,
      "extre": 3530,
      "molec": 3531,
      "rob": 3532,
      "##emon": 3533,
      "knee": 3534,
      "##pan": 3535,
      "##hel": 3536,
      "magn": 3537,
      "tow": 3538,
      "##change": 3539,
      "controll": 3540,
      "trump": 3541,
      "dose": 3542,
      "items": 3543,
      "machine": 3544,
      "disney": 3545,
      "schools": 3546,
      "friend": 3547,
      "##craft": 3548,
      "formula": 3549,
      "##arily": 3550,
      "##ublic": 3551,
      "remain": 3552,
      "club": 3553,
      "window": 3554,
      "ore": 3555,
      "balance": 3556,
      "##tes": 3557,
      "##rm": 3558,
      "##ste": 3559,
      "##rial": 3560,
      "cream": 3561,
      "calcium": 3562,
      "excess": 3563,
      "poly": 3564,
      "##ijuana": 3565,
      "pull": 3566,
      "jer": 3567,
      "values": 3568,
      "hit": 3569,
      "##ched": 3570,
      "##hea": 3571,
      "pharm": 3572,
      "matter": 3573,
      "jobs": 3574,
      "provided": 3575,
      "##word": 3576,
      "respon": 3577,
      "citiz": 3578,
      "republic": 3579,
      "hous": 3580,
      "russ": 3581,
      "significant": 3582,
      "obtain": 3583,
      "stage": 3584,
      "coast": 3585,
      "illinois": 3586,
      "renew": 3587,
      "adjust": 3588,
      "los": 3589,
      "##ny": 3590,
      "az": 3591,
      "##bit": 3592,
      "listed": 3593,
      "##ses": 3594,
      "marijuana": 3595,
      "pit": 3596,
      "##nam": 3597,
      "trust": 3598,
      "branch": 3599,
      "became": 3600,
      "ren": 3601,
      "famil": 3602,
      "decre": 3603,
      "increased": 3604,
      "##rics": 3605,
      "%)": 3606,
      "mad": 3607,
      "##ream": 3608,
      "compon": 3609,
      "lose": 3610,
      "##west": 3611,
      "##vey": 3612,
      "surr": 3613,
      "##empt": 3614,
      "genetic": 3615,
      "god": 3616,
      "##adder": 3617,
      "vent": 3618,
      "response": 3619,
      "coffee": 3620,
      "##hib": 3621,
      "ability": 3622,
      "suggest": 3623,
      "added": 3624,
      "wedding": 3625,
      "##state": 3626,
      "football": 3627,
      "covered": 3628,
      "hands": 3629,
      "fut": 3630,
      "sodium": 3631,
      "favor": 3632,
      "exact": 3633,
      "cort": 3634,
      "growing": 3635,
      "##cules": 3636,
      "fuel": 3637,
      "stick": 3638,
      "flat": 3639,
      "purchase": 3640,
      "grass": 3641,
      "prepar": 3642,
      "cheese": 3643,
      "inte": 3644,
      "2000": 3645,
      "construction": 3646,
      "winter": 3647,
      "tum": 3648,
      "hall": 3649,
      "stone": 3650,
      "upon": 3651,
      "performance": 3652,
      "##ald": 3653,
      "##anced": 3654,
      "father": 3655,
      "stim": 3656,
      "probably": 3657,
      "sweet": 3658,
      "##ening": 3659,
      "##orders": 3660,
      "africa": 3661,
      "scale": 3662,
      "fib": 3663,
      "acad": 3664,
      "limited": 3665,
      "##ocol": 3666,
      "leaves": 3667,
      "moon": 3668,
      "abdom": 3669,
      "rules": 3670,
      "medications": 3671,
      "sam": 3672,
      "##rition": 3673,
      "legs": 3674,
      "counter": 3675,
      "rang": 3676,
      "tenn": 3677,
      "salaries": 3678,
      "33": 3679,
      "pump": 3680,
      "shop": 3681,
      "##emia": 3682,
      "included": 3683,
      "bay": 3684,
      "##la": 3685,
      "##field": 3686,
      "##rupt": 3687,
      "groups": 3688,
      "parents": 3689,
      "surv": 3690,
      "larger": 3691,
      "invented": 3692,
      "##ket": 3693,
      "##ague": 3694,
      "sky": 3695,
      "##hesis": 3696,
      "referred": 3697,
      "western": 3698,
      "inflammation": 3699,
      "emb": 3700,
      "police": 3701,
      "nit": 3702,
      "##actions": 3703,
      "donâ": 3704,
      "louis": 3705,
      "server": 3706,
      "##abol": 3707,
      "older": 3708,
      "##box": 3709,
      "pregnant": 3710,
      "northern": 3711,
      "bot": 3712,
      "learning": 3713,
      "behind": 3714,
      "graph": 3715,
      "bon": 3716,
      "depends": 3717,
      "ax": 3718,
      "rule": 3719,
      "wait": 3720,
      "display": 3721,
      "testing": 3722,
      "properties": 3723,
      "##ready": 3724,
      "inch": 3725,
      "culture": 3726,
      "##rant": 3727,
      "##10": 3728,
      "##ls": 3729,
      "sports": 3730,
      "www": 3731,
      "tab": 3732,
      "##bert": 3733,
      "developed": 3734,
      "certific": 3735,
      "channel": 3736,
      "contra": 3737,
      "gro": 3738,
      "already": 3739,
      "image": 3740,
      "goes": 3741,
      "analysis": 3742,
      "intest": 3743,
      "sources": 3744,
      "trip": 3745,
      "column": 3746,
      "ring": 3747,
      "nutri": 3748,
      "##oon": 3749,
      "##ocr": 3750,
      "##ground": 3751,
      "rub": 3752,
      "idea": 3753,
      "analy": 3754,
      "discuss": 3755,
      "chromos": 3756,
      "##ship": 3757,
      "spl": 3758,
      "conduct": 3759,
      "trade": 3760,
      "bound": 3761,
      "therm": 3762,
      "index": 3763,
      "georgia": 3764,
      "cro": 3765,
      "##istry": 3766,
      "quickly": 3767,
      "michigan": 3768,
      "supply": 3769,
      "##str": 3770,
      "##ulin": 3771,
      "concent": 3772,
      "##uce": 3773,
      "negative": 3774,
      "##ensity": 3775,
      "##aska": 3776,
      "ton": 3777,
      "diam": 3778,
      "concept": 3779,
      "resources": 3780,
      "mary": 3781,
      "academ": 3782,
      "hat": 3783,
      "##amins": 3784,
      "powder": 3785,
      "southern": 3786,
      "ari": 3787,
      "previous": 3788,
      "agent": 3789,
      "steel": 3790,
      "inject": 3791,
      "illness": 3792,
      "##roph": 3793,
      "##augh": 3794,
      "##ansas": 3795,
      "##ards": 3796,
      "skills": 3797,
      "career": 3798,
      "##edia": 3799,
      "##opl": 3800,
      "disability": 3801,
      "##athy": 3802,
      "farm": 3803,
      "cooking": 3804,
      "wi": 3805,
      "pin": 3806,
      "##asm": 3807,
      "mut": 3808,
      "##look": 3809,
      "thin": 3810,
      "strateg": 3811,
      "ratio": 3812,
      "rap": 3813,
      "facebook": 3814,
      "december": 3815,
      "came": 3816,
      "spir": 3817,
      "led": 3818,
      "##sey": 3819,
      "cards": 3820,
      "##ipment": 3821,
      "tools": 3822,
      "established": 3823,
      "##osure": 3824,
      "##ella": 3825,
      "swelling": 3826,
      "epis": 3827,
      "wik": 3828,
      "##ropri": 3829,
      "currency": 3830,
      "chlor": 3831,
      "vitamins": 3832,
      "menu": 3833,
      "voice": 3834,
      "##ooth": 3835,
      "founded": 3836,
      "dro": 3837,
      "angel": 3838,
      "weak": 3839,
      "nutrition": 3840,
      "ic": 3841,
      "##rogen": 3842,
      "yourself": 3843,
      "##the": 3844,
      "##inate": 3845,
      "shot": 3846,
      "nation": 3847,
      "##osph": 3848,
      "atl": 3849,
      "##aps": 3850,
      "storage": 3851,
      "vict": 3852,
      "##amb": 3853,
      "neuro": 3854,
      "http": 3855,
      "mit": 3856,
      "2011": 3857,
      "anx": 3858,
      "silver": 3859,
      "##esterol": 3860,
      "exchange": 3861,
      "atm": 3862,
      "electrical": 3863,
      "##raw": 3864,
      "chic": 3865,
      "spot": 3866,
      "harm": 3867,
      "involved": 3868,
      "lungs": 3869,
      "throat": 3870,
      "##apt": 3871,
      "staff": 3872,
      "traditional": 3873,
      "cholesterol": 3874,
      "##ivity": 3875,
      "800": 3876,
      "veter": 3877,
      "unc": 3878,
      "deduct": 3879,
      "##era": 3880,
      "codes": 3881,
      "pac": 3882,
      "details": 3883,
      "via": 3884,
      "##icient": 3885,
      "seed": 3886,
      "parent": 3887,
      "sin": 3888,
      "emp": 3889,
      "held": 3890,
      "viol": 3891,
      "ban": 3892,
      "ancient": 3893,
      "james": 3894,
      "##ston": 3895,
      "commit": 3896,
      "##time": 3897,
      "molecules": 3898,
      "aid": 3899,
      "van": 3900,
      "rather": 3901,
      "vill": 3902,
      "installation": 3903,
      "easily": 3904,
      "hab": 3905,
      "##vis": 3906,
      "carp": 3907,
      "mental": 3908,
      "conver": 3909,
      "##unk": 3910,
      "os": 3911,
      "##ara": 3912,
      "itself": 3913,
      "ven": 3914,
      "##ech": 3915,
      "pok": 3916,
      "rare": 3917,
      "coverage": 3918,
      "smaller": 3919,
      "snow": 3920,
      "dv": 3921,
      "native": 3922,
      "seeds": 3923,
      "provider": 3924,
      "requires": 3925,
      "political": 3926,
      "particip": 3927,
      "##ands": 3928,
      "poison": 3929,
      "train": 3930,
      "cooked": 3931,
      "cu": 3932,
      "nove": 3933,
      "membrane": 3934,
      "37": 3935,
      "##iment": 3936,
      "##teries": 3937,
      "##bc": 3938,
      "users": 3939,
      "places": 3940,
      "truck": 3941,
      "sense": 3942,
      "depression": 3943,
      "organisms": 3944,
      "heavy": 3945,
      "plat": 3946,
      "registered": 3947,
      "forec": 3948,
      "unique": 3949,
      "longest": 3950,
      "protection": 3951,
      "gives": 3952,
      "##ette": 3953,
      "##umin": 3954,
      "fer": 3955,
      "##izing": 3956,
      "shoulder": 3957,
      "##hood": 3958,
      "##arter": 3959,
      "pair": 3960,
      "hen": 3961,
      "shape": 3962,
      "##30": 3963,
      "insert": 3964,
      "colorado": 3965,
      "replacement": 3966,
      "minute": 3967,
      "##----": 3968,
      "blo": 3969,
      "carbo": 3970,
      "individuals": 3971,
      "serve": 3972,
      "reported": 3973,
      "forecast": 3974,
      "tank": 3975,
      "recogn": 3976,
      "mortgage": 3977,
      "fel": 3978,
      "ens": 3979,
      "reading": 3980,
      "od": 3981,
      "recent": 3982,
      "cord": 3983,
      "wine": 3984,
      "amendment": 3985,
      "coup": 3986,
      "doing": 3987,
      "steak": 3988,
      "##ales": 3989,
      "carri": 3990,
      "##ias": 3991,
      "-$": 3992,
      "fert": 3993,
      "##amps": 3994,
      "british": 3995,
      "bake": 3996,
      "##back": 3997,
      "##ocy": 3998,
      "prep": 3999,
      "boy": 4000,
      "november": 4001,
      "sed": 4002,
      "expensive": 4003,
      "tuition": 4004,
      "mart": 4005,
      "useful": 4006,
      "diarr": 4007,
      "allerg": 4008,
      "cele": 4009,
      "inn": 4010,
      "##set": 4011,
      "activities": 4012,
      "basis": 4013,
      "causing": 4014,
      "occup": 4015,
      "restaur": 4016,
      "carbohydr": 4017,
      "dial": 4018,
      "germany": 4019,
      "##cus": 4020,
      "pm": 4021,
      "##anta": 4022,
      "equipment": 4023,
      "veg": 4024,
      "ct": 4025,
      "frame": 4026,
      "carbs": 4027,
      "detail": 4028,
      "anti": 4029,
      "photo": 4030,
      "##mission": 4031,
      "pronoun": 4032,
      "future": 4033,
      "chronic": 4034,
      "##aged": 4035,
      "grant": 4036,
      "lond": 4037,
      "##iles": 4038,
      "issues": 4039,
      "99": 4040,
      "fa": 4041,
      "##itute": 4042,
      "frank": 4043,
      "guid": 4044,
      "reference": 4045,
      "##come": 4046,
      "##zer": 4047,
      "fung": 4048,
      "pattern": 4049,
      "leading": 4050,
      "seven": 4051,
      "withd": 4052,
      "tract": 4053,
      "factor": 4054,
      "switch": 4055,
      "edit": 4056,
      "cas": 4057,
      "##oxide": 4058,
      "division": 4059,
      "##aker": 4060,
      "48": 4061,
      "mom": 4062,
      "mis": 4063,
      "disp": 4064,
      "economic": 4065,
      "##12": 4066,
      "greater": 4067,
      "prefer": 4068,
      "valley": 4069,
      "recommended": 4070,
      "london": 4071,
      "##erson": 4072,
      "shown": 4073,
      "compared": 4074,
      "elig": 4075,
      "65": 4076,
      "##vision": 4077,
      "eval": 4078,
      "metabol": 4079,
      "##osphere": 4080,
      "wave": 4081,
      "##do": 4082,
      "aw": 4083,
      "immed": 4084,
      "stimul": 4085,
      "disorders": 4086,
      "accur": 4087,
      "france": 4088,
      "##atives": 4089,
      "poll": 4090,
      "tin": 4091,
      "##ruary": 4092,
      "events": 4093,
      "arg": 4094,
      "anxiety": 4095,
      "##lar": 4096,
      "reven": 4097,
      "pap": 4098,
      "americans": 4099,
      "##ka": 4100,
      "association": 4101,
      "retirement": 4102,
      "):": 4103,
      "master": 4104,
      "pd": 4105,
      "february": 4106,
      "dip": 4107,
      "##pped": 4108,
      "hp": 4109,
      "nj": 4110,
      "tor": 4111,
      "babies": 4112,
      "compos": 4113,
      "trig": 4114,
      "cats": 4115,
      "nose": 4116,
      "enj": 4117,
      "affected": 4118,
      "estimated": 4119,
      "friends": 4120,
      "##iot": 4121,
      "diarrhea": 4122,
      "##zz": 4123,
      "concer": 4124,
      "##vity": 4125,
      "##ception": 4126,
      "quant": 4127,
      "ye": 4128,
      "##hem": 4129,
      "devices": 4130,
      "george": 4131,
      "beg": 4132,
      "further": 4133,
      "organs": 4134,
      "target": 4135,
      "tong": 4136,
      "drain": 4137,
      "##ady": 4138,
      "settings": 4139,
      "lack": 4140,
      "ped": 4141,
      "##pm": 4142,
      "neut": 4143,
      "appropri": 4144,
      "anything": 4145,
      "gets": 4146,
      "mr": 4147,
      "##ns": 4148,
      "workers": 4149,
      "##ests": 4150,
      "ord": 4151,
      "drinking": 4152,
      "assistant": 4153,
      "danger": 4154,
      "stool": 4155,
      "39": 4156,
      "documents": 4157,
      "dress": 4158,
      "que": 4159,
      "withdraw": 4160,
      "core": 4161,
      "clinical": 4162,
      "bones": 4163,
      "##iful": 4164,
      "nar": 4165,
      "combination": 4166,
      "began": 4167,
      "prin": 4168,
      "society": 4169,
      "beginning": 4170,
      "tables": 4171,
      "wheel": 4172,
      "operating": 4173,
      "beans": 4174,
      "##estic": 4175,
      "##pre": 4176,
      "##ledge": 4177,
      "celebr": 4178,
      "##mark": 4179,
      "moving": 4180,
      "trail": 4181,
      "statistics": 4182,
      "gm": 4183,
      "##aming": 4184,
      "integr": 4185,
      "##see": 4186,
      "smart": 4187,
      "flex": 4188,
      "oz": 4189,
      "##ero": 4190,
      "##onym": 4191,
      "hearing": 4192,
      "former": 4193,
      "lock": 4194,
      "advant": 4195,
      "##ava": 4196,
      "##ping": 4197,
      "capt": 4198,
      "employer": 4199,
      "officer": 4200,
      "substance": 4201,
      "##ban": 4202,
      "isn": 4203,
      "cars": 4204,
      "hip": 4205,
      "iv": 4206,
      "orange": 4207,
      "estimate": 4208,
      "characteristics": 4209,
      "budget": 4210,
      "##oting": 4211,
      "sings": 4212,
      "##aces": 4213,
      "actor": 4214,
      ".": 4215,
      "datab": 4216,
      "agreement": 4217,
      "message": 4218,
      "##active": 4219,
      "piece": 4220,
      "sheet": 4221,
      "ingredients": 4222,
      "chicago": 4223,
      "34": 4224,
      "fight": 4225,
      "##ga": 4226,
      "pun": 4227,
      "experi": 4228,
      "##cing": 4229,
      "##zen": 4230,
      "crim": 4231,
      "##aint": 4232,
      "owner": 4233,
      "proteins": 4234,
      "##ades": 4235,
      "cable": 4236,
      "fruit": 4237,
      "##arian": 4238,
      "progress": 4239,
      "oregon": 4240,
      "continue": 4241,
      "##ata": 4242,
      "studies": 4243,
      "licens": 4244,
      "ow": 4245,
      "issue": 4246,
      "indiana": 4247,
      "##encies": 4248,
      "stored": 4249,
      "bridge": 4250,
      "resident": 4251,
      "choice": 4252,
      "##igation": 4253,
      "increases": 4254,
      "battle": 4255,
      "yet": 4256,
      "##mb": 4257,
      "plans": 4258,
      "certificate": 4259,
      "cere": 4260,
      "wil": 4261,
      "strength": 4262,
      "##hens": 4263,
      "garden": 4264,
      "ariz": 4265,
      "##unction": 4266,
      "description": 4267,
      "identify": 4268,
      "scan": 4269,
      "verb": 4270,
      "agency": 4271,
      "##ios": 4272,
      "##gl": 4273,
      "announ": 4274,
      "cough": 4275,
      "##vous": 4276,
      "slight": 4277,
      "mir": 4278,
      "mont": 4279,
      "capac": 4280,
      "cryst": 4281,
      "55": 4282,
      "gi": 4283,
      "##isl": 4284,
      "outlook": 4285,
      "falls": 4286,
      "album": 4287,
      "panc": 4288,
      "rice": 4289,
      "expenses": 4290,
      "##uous": 4291,
      "respect": 4292,
      "##omp": 4293,
      "serving": 4294,
      "players": 4295,
      "latest": 4296,
      "entry": 4297,
      "wel": 4298,
      "phosph": 4299,
      "arizona": 4300,
      "morn": 4301,
      "##oul": 4302,
      "##igr": 4303,
      "published": 4304,
      "reasons": 4305,
      "phr": 4306,
      "memory": 4307,
      "150": 4308,
      "hon": 4309,
      "##amine": 4310,
      "vision": 4311,
      "affects": 4312,
      "nature": 4313,
      "wife": 4314,
      "hawai": 4315,
      "eight": 4316,
      "##met": 4317,
      "surround": 4318,
      "executive": 4319,
      "400": 4320,
      "sud": 4321,
      "sher": 4322,
      "processes": 4323,
      "fab": 4324,
      "jour": 4325,
      "rose": 4326,
      "lapt": 4327,
      "motion": 4328,
      "lyrics": 4329,
      "lung": 4330,
      "bread": 4331,
      "md": 4332,
      "normally": 4333,
      "immune": 4334,
      "consult": 4335,
      "profit": 4336,
      "received": 4337,
      "jackson": 4338,
      "applied": 4339,
      "enjoy": 4340,
      "lost": 4341,
      "thought": 4342,
      "director": 4343,
      "vessels": 4344,
      "pad": 4345,
      "##ael": 4346,
      "##pping": 4347,
      "hill": 4348,
      "organic": 4349,
      "debt": 4350,
      "##iology": 4351,
      "constant": 4352,
      "ber": 4353,
      "variable": 4354,
      "turkey": 4355,
      "bowl": 4356,
      "##uted": 4357,
      "gly": 4358,
      "golf": 4359,
      "legisl": 4360,
      "certified": 4361,
      "independent": 4362,
      "##onyms": 4363,
      "scientific": 4364,
      "%.": 4365,
      "tun": 4366,
      "speech": 4367,
      "consists": 4368,
      "evidence": 4369,
      "failure": 4370,
      "nick": 4371,
      "pupp": 4372,
      "38": 4373,
      "household": 4374,
      "sac": 4375,
      "##ciation": 4376,
      "potatoes": 4377,
      "tongue": 4378,
      "touch": 4379,
      "cyst": 4380,
      "##oint": 4381,
      "collection": 4382,
      "symptom": 4383,
      "##chen": 4384,
      "perman": 4385,
      "therefore": 4386,
      "##ml": 4387,
      "refund": 4388,
      "billion": 4389,
      "arthritis": 4390,
      "##roke": 4391,
      "coord": 4392,
      "submit": 4393,
      "wonder": 4394,
      "math": 4395,
      "##omas": 4396,
      "##wide": 4397,
      "shap": 4398,
      "##enced": 4399,
      "nervous": 4400,
      "42": 4401,
      "##atively": 4402,
      "##aging": 4403,
      "direction": 4404,
      "customers": 4405,
      "straight": 4406,
      "sequ": 4407,
      "unl": 4408,
      "vegetables": 4409,
      "beautiful": 4410,
      "##ria": 4411,
      "##imal": 4412,
      "solid": 4413,
      "##pir": 4414,
      "valid": 4415,
      "foreign": 4416,
      "accounts": 4417,
      "thous": 4418,
      "default": 4419,
      "indian": 4420,
      "belong": 4421,
      "planning": 4422,
      "##reg": 4423,
      "visa": 4424,
      "prime": 4425,
      "picture": 4426,
      "tips": 4427,
      "reser": 4428,
      "remember": 4429,
      "stores": 4430,
      "domin": 4431,
      "gast": 4432,
      "pil": 4433,
      "ss": 4434,
      "waste": 4435,
      "libr": 4436,
      "rab": 4437,
      "##onic": 4438,
      "ship": 4439,
      "##oke": 4440,
      "hormones": 4441,
      "dy": 4442,
      "spend": 4443,
      "refrigerator": 4444,
      "##cin": 4445,
      "methods": 4446,
      "satur": 4447,
      "morning": 4448,
      "rail": 4449,
      "##vania": 4450,
      "##eration": 4451,
      "facts": 4452,
      "##norm": 4453,
      "originally": 4454,
      "african": 4455,
      "italy": 4456,
      "phase": 4457,
      "hourly": 4458,
      "mur": 4459,
      "ray": 4460,
      "raw": 4461,
      "sample": 4462,
      "arri": 4463,
      "payments": 4464,
      "rough": 4465,
      "opening": 4466,
      "corporation": 4467,
      "separate": 4468,
      "compar": 4469,
      "##inct": 4470,
      "##rol": 4471,
      "columb": 4472,
      "airlines": 4473,
      "everything": 4474,
      "##ami": 4475,
      "##wh": 4476,
      "##inese": 4477,
      "neur": 4478,
      "attorn": 4479,
      "shel": 4480,
      "##ca": 4481,
      "bri": 4482,
      "overall": 4483,
      "burning": 4484,
      "##gment": 4485,
      "virt": 4486,
      "mine": 4487,
      "##ored": 4488,
      "setting": 4489,
      "cloud": 4490,
      "cru": 4491,
      "opport": 4492,
      "vine": 4493,
      "##60": 4494,
      "locations": 4495,
      "abnorm": 4496,
      "instrum": 4497,
      "derived": 4498,
      "molecule": 4499,
      "opportun": 4500,
      "monitor": 4501,
      "breath": 4502,
      "##oe": 4503,
      "stars": 4504,
      "chinese": 4505,
      "composed": 4506,
      "dent": 4507,
      "reprodu": 4508,
      "nearly": 4509,
      "##11": 4510,
      "##edy": 4511,
      "biology": 4512,
      "##och": 4513,
      "retail": 4514,
      "sick": 4515,
      "##pes": 4516,
      "else": 4517,
      "##thesis": 4518,
      "##stone": 4519,
      "item": 4520,
      "warrant": 4521,
      "esc": 4522,
      "##lection": 4523,
      "oral": 4524,
      "##ylvania": 4525,
      "dollar": 4526,
      "chur": 4527,
      "administr": 4528,
      "took": 4529,
      "england": 4530,
      "chain": 4531,
      "195": 4532,
      "anywhere": 4533,
      "approved": 4534,
      "ire": 4535,
      "eastern": 4536,
      "database": 4537,
      "flower": 4538,
      "installed": 4539,
      "acute": 4540,
      "surn": 4541,
      "vag": 4542,
      "quarter": 4543,
      "_____": 4544,
      "insulin": 4545,
      "radiation": 4546,
      "alt": 4547,
      "##ipation": 4548,
      "##assium": 4549,
      "penns": 4550,
      "broken": 4551,
      "kitchen": 4552,
      "bleeding": 4553,
      "administration": 4554,
      "vote": 4555,
      "47": 4556,
      "glands": 4557,
      "seal": 4558,
      "plastic": 4559,
      "recorded": 4560,
      "juice": 4561,
      "mand": 4562,
      "tender": 4563,
      "jew": 4564,
      "ara": 4565,
      "convers": 4566,
      "##born": 4567,
      "##odies": 4568,
      "chief": 4569,
      "hotels": 4570,
      "potassium": 4571,
      "communication": 4572,
      "league": 4573,
      "194": 4574,
      "minor": 4575,
      "regist": 4576,
      "ready": 4577,
      "allowed": 4578,
      "emergency": 4579,
      "coming": 4580,
      "##erate": 4581,
      "crime": 4582,
      "produces": 4583,
      "update": 4584,
      "##sp": 4585,
      "electricity": 4586,
      "moist": 4587,
      "knowledge": 4588,
      "synonyms": 4589,
      "criminal": 4590,
      "forward": 4591,
      "acqu": 4592,
      "accounting": 4593,
      "employment": 4594,
      "divor": 4595,
      "##used": 4596,
      "passed": 4597,
      "television": 4598,
      "vaccine": 4599,
      "canc": 4600,
      "spinal": 4601,
      "diss": 4602,
      "engineering": 4603,
      "books": 4604,
      "champ": 4605,
      "teach": 4606,
      "##cast": 4607,
      "meal": 4608,
      "brows": 4609,
      "2008": 4610,
      "##att": 4611,
      "roy": 4612,
      "reports": 4613,
      "rash": 4614,
      "dependent": 4615,
      "revenue": 4616,
      "cod": 4617,
      "mild": 4618,
      "premium": 4619,
      "pel": 4620,
      "tap": 4621,
      "##ipping": 4622,
      "appropriate": 4623,
      "excl": 4624,
      "recommend": 4625,
      "nav": 4626,
      "digital": 4627,
      "##olar": 4628,
      "subsc": 4629,
      "thus": 4630,
      "##urs": 4631,
      "clot": 4632,
      "actual": 4633,
      "certification": 4634,
      "##unt": 4635,
      "bron": 4636,
      "waves": 4637,
      "##ky": 4638,
      "differences": 4639,
      "##brev": 4640,
      "desert": 4641,
      "frequency": 4642,
      "pennsylvania": 4643,
      "##osc": 4644,
      "nic": 4645,
      "distribution": 4646,
      "images": 4647,
      "acids": 4648,
      "##ructions": 4649,
      "penal": 4650,
      "##ners": 4651,
      "##ament": 4652,
      "##neys": 4653,
      "healthcare": 4654,
      "filter": 4655,
      "furn": 4656,
      "##imm": 4657,
      "limits": 4658,
      "wireless": 4659,
      "##iers": 4660,
      "laun": 4661,
      "successful": 4662,
      "ful": 4663,
      "abbrev": 4664,
      "baseball": 4665,
      "##aa": 4666,
      "##isp": 4667,
      "repe": 4668,
      "goal": 4669,
      "quart": 4670,
      "brother": 4671,
      "delivery": 4672,
      "tear": 4673,
      "adop": 4674,
      "salmon": 4675,
      "basket": 4676,
      "diagnosis": 4677,
      "laptop": 4678,
      "feature": 4679,
      "walking": 4680,
      "michael": 4681,
      "gum": 4682,
      "begins": 4683,
      "prostate": 4684,
      "islands": 4685,
      "##bi": 4686,
      "girls": 4687,
      "award": 4688,
      "hd": 4689,
      "##rate": 4690,
      "##lets": 4691,
      "##ascular": 4692,
      "rapid": 4693,
      "##isions": 4694,
      "japanese": 4695,
      "gift": 4696,
      "commission": 4697,
      "lives": 4698,
      "mode": 4699,
      "compens": 4700,
      "##ensive": 4701,
      "applications": 4702,
      "dollars": 4703,
      "ank": 4704,
      "gran": 4705,
      "poor": 4706,
      "portion": 4707,
      "marriage": 4708,
      "emot": 4709,
      "suppl": 4710,
      "password": 4711,
      "removed": 4712,
      "leader": 4713,
      "mamm": 4714,
      "except": 4715,
      "engineer": 4716,
      "archit": 4717,
      "cabin": 4718,
      "cer": 4719,
      "breathing": 4720,
      "density": 4721,
      "yes": 4722,
      "advert": 4723,
      "fridge": 4724,
      "believe": 4725,
      "owns": 4726,
      "absorb": 4727,
      "mast": 4728,
      "sar": 4729,
      "##antic": 4730,
      "survey": 4731,
      "teacher": 4732,
      "dan": 4733,
      "volc": 4734,
      "tal": 4735,
      "##bra": 4736,
      "european": 4737,
      "harv": 4738,
      "nas": 4739,
      "##hab": 4740,
      "##acing": 4741,
      "firm": 4742,
      "##orial": 4743,
      "initial": 4744,
      "##force": 4745,
      "connection": 4746,
      "na": 4747,
      "pig": 4748,
      "##water": 4749,
      "earned": 4750,
      "abnormal": 4751,
      "starts": 4752,
      "completely": 4753,
      "reb": 4754,
      "alaska": 4755,
      "marketing": 4756,
      "nutrients": 4757,
      "##va": 4758,
      "rating": 4759,
      "##alth": 4760,
      "recovery": 4761,
      "expected": 4762,
      "manufactur": 4763,
      "tight": 4764,
      "##house": 4765,
      "grade": 4766,
      "quite": 4767,
      "reflect": 4768,
      "feeling": 4769,
      "delete": 4770,
      "sentence": 4771,
      "ireland": 4772,
      "ash": 4773,
      "psychology": 4774,
      "44": 4775,
      "##het": 4776,
      "liber": 4777,
      "linc": 4778,
      "##net": 4779,
      "##aid": 4780,
      "##heast": 4781,
      "permit": 4782,
      "oldest": 4783,
      "hydrogen": 4784,
      "pacific": 4785,
      "##town": 4786,
      "##irm": 4787,
      "david": 4788,
      "##olve": 4789,
      "artery": 4790,
      "changed": 4791,
      "architect": 4792,
      "shall": 4793,
      "demand": 4794,
      "mold": 4795,
      "##oln": 4796,
      "qualify": 4797,
      "stret": 4798,
      "telephone": 4799,
      "prescrib": 4800,
      "##ypt": 4801,
      "##phal": 4802,
      "residents": 4803,
      "citizens": 4804,
      "smooth": 4805,
      "kidneys": 4806,
      "ske": 4807,
      "tissues": 4808,
      "habit": 4809,
      "domestic": 4810,
      "dys": 4811,
      "fle": 4812,
      "tn": 4813,
      "##band": 4814,
      "android": 4815,
      "assign": 4816,
      "minerals": 4817,
      "ford": 4818,
      "chall": 4819,
      "anyone": 4820,
      "##aughter": 4821,
      "panel": 4822,
      "##right": 4823,
      "2007": 4824,
      "##uits": 4825,
      "adapt": 4826,
      "compound": 4827,
      "translation": 4828,
      "relig": 4829,
      "'.": 4830,
      "economy": 4831,
      "##top": 4832,
      "cos": 4833,
      "##fall": 4834,
      "neigh": 4835,
      "kingdom": 4836,
      "##icial": 4837,
      "attend": 4838,
      "deposit": 4839,
      "lincoln": 4840,
      "##ture": 4841,
      "definitions": 4842,
      "width": 4843,
      "mostly": 4844,
      "italian": 4845,
      "lact": 4846,
      "sides": 4847,
      "##app": 4848,
      "extrem": 4849,
      "phen": 4850,
      "instructions": 4851,
      "foundation": 4852,
      "fine": 4853,
      "##ned": 4854,
      "spect": 4855,
      "oppos": 4856,
      "95": 4857,
      "franc": 4858,
      "tempor": 4859,
      "organiz": 4860,
      "operation": 4861,
      "canad": 4862,
      "250": 4863,
      "remov": 4864,
      "tomato": 4865,
      "alone": 4866,
      "bure": 4867,
      "hus": 4868,
      "mm": 4869,
      "##rew": 4870,
      "##ference": 4871,
      "chap": 4872,
      "edge": 4873,
      "vin": 4874,
      "##umps": 4875,
      "majority": 4876,
      "border": 4877,
      "dc": 4878,
      "mn": 4879,
      "calor": 4880,
      "amounts": 4881,
      "pdf": 4882,
      "boat": 4883,
      "irish": 4884,
      "resort": 4885,
      "mainten": 4886,
      "frozen": 4887,
      "pret": 4888,
      "##atically": 4889,
      "deficiency": 4890,
      "owned": 4891,
      "church": 4892,
      "nom": 4893,
      "background": 4894,
      "measured": 4895,
      "46": 4896,
      "jail": 4897,
      "becomes": 4898,
      "fixed": 4899,
      "category": 4900,
      "##80": 4901,
      "##de": 4902,
      "dish": 4903,
      "claims": 4904,
      "##fish": 4905,
      "doctors": 4906,
      "##uries": 4907,
      "##illa": 4908,
      "ticket": 4909,
      "spirit": 4910,
      "fully": 4911,
      "maintenance": 4912,
      "##essee": 4913,
      "spain": 4914,
      "indicate": 4915,
      "nuclear": 4916,
      "rocks": 4917,
      "din": 4918,
      "rou": 4919,
      "explor": 4920,
      "52": 4921,
      "vert": 4922,
      "##ema": 4923,
      "bear": 4924,
      "##ternal": 4925,
      "ounces": 4926,
      "fertil": 4927,
      "pink": 4928,
      "structures": 4929,
      "steam": 4930,
      "match": 4931,
      "appears": 4932,
      "rise": 4933,
      "parking": 4934,
      "vegas": 4935,
      "paul": 4936,
      "##cher": 4937,
      "2009": 4938,
      "jersey": 4939,
      "usb": 4940,
      "peak": 4941,
      "planet": 4942,
      "wet": 4943,
      "paying": 4944,
      "determined": 4945,
      "appoint": 4946,
      "copper": 4947,
      "hiv": 4948,
      "##eline": 4949,
      "numer": 4950,
      "critical": 4951,
      "singer": 4952,
      "surname": 4953,
      "##hal": 4954,
      "##elves": 4955,
      "##urally": 4956,
      "pepper": 4957,
      "bil": 4958,
      "##iring": 4959,
      "##sect": 4960,
      "aer": 4961,
      "sauce": 4962,
      "##isco": 4963,
      "investment": 4964,
      "om": 4965,
      "##eless": 4966,
      "answers": 4967,
      "##zing": 4968,
      "buff": 4969,
      "##point": 4970,
      "favorite": 4971,
      "##aph": 4972,
      "savings": 4973,
      "##cut": 4974,
      "recip": 4975,
      "traff": 4976,
      "respiratory": 4977,
      "haz": 4978,
      "purposes": 4979,
      "earnings": 4980,
      "reviews": 4981,
      "dangerous": 4982,
      "tile": 4983,
      "##sequ": 4984,
      "##iqu": 4985,
      "##onia": 4986,
      "tube": 4987,
      "assessment": 4988,
      "tennessee": 4989,
      "sudden": 4990,
      "tag": 4991,
      "cow": 4992,
      "shell": 4993,
      "effort": 4994,
      "hu": 4995,
      "actress": 4996,
      "killed": 4997,
      "cocon": 4998,
      "85": 4999,
      "##kes": 5000,
      "william": 5001,
      "mt": 5002,
      "##amic": 5003,
      "calculator": 5004,
      "profile": 5005,
      "performed": 5006,
      "##gg": 5007,
      "joints": 5008,
      "dates": 5009,
      "##iest": 5010,
      "##inated": 5011,
      "wash": 5012,
      "whose": 5013,
      "organism": 5014,
      "housing": 5015,
      "inner": 5016,
      "coconut": 5017,
      "tip": 5018,
      "##ike": 5019,
      "incor": 5020,
      "##iar": 5021,
      "dos": 5022,
      "shing": 5023,
      "swim": 5024,
      "attorney": 5025,
      "alex": 5026,
      "##orr": 5027,
      "thor": 5028,
      "supplement": 5029,
      "standards": 5030,
      "##nal": 5031,
      "##iding": 5032,
      "cou": 5033,
      "alab": 5034,
      "lowest": 5035,
      "township": 5036,
      "nfl": 5037,
      "everyone": 5038,
      "##rie": 5039,
      "industrial": 5040,
      "oste": 5041,
      "##tub": 5042,
      "ky": 5043,
      "existing": 5044,
      "##ras": 5045,
      "##ession": 5046,
      "divided": 5047,
      "cloth": 5048,
      "valve": 5049,
      "finish": 5050,
      "##nel": 5051,
      "marine": 5052,
      "breed": 5053,
      "treated": 5054,
      "roth": 5055,
      "trop": 5056,
      "decision": 5057,
      "measures": 5058,
      "raise": 5059,
      "rod": 5060,
      "beat": 5061,
      "sinus": 5062,
      "cel": 5063,
      "honey": 5064,
      "##ened": 5065,
      "digestive": 5066,
      "properly": 5067,
      "physician": 5068,
      "hind": 5069,
      "threat": 5070,
      "##berry": 5071,
      "desk": 5072,
      "walls": 5073,
      "eligible": 5074,
      "went": 5075,
      "leaf": 5076,
      "profession": 5077,
      "bacterial": 5078,
      "package": 5079,
      "golden": 5080,
      "guard": 5081,
      "unless": 5082,
      "highly": 5083,
      "##ometer": 5084,
      "oak": 5085,
      "43": 5086,
      "flavor": 5087,
      "library": 5088,
      "rand": 5089,
      "##ahren": 5090,
      "yeast": 5091,
      "paral": 5092,
      "containing": 5093,
      "faster": 5094,
      "slightly": 5095,
      "plug": 5096,
      "##ensions": 5097,
      "alabama": 5098,
      "eb": 5099,
      "visual": 5100,
      "generation": 5101,
      "derm": 5102,
      "bladder": 5103,
      "fastest": 5104,
      "ze": 5105,
      "trying": 5106,
      "understanding": 5107,
      "row": 5108,
      "folder": 5109,
      "transform": 5110,
      "##ucky": 5111,
      "capacity": 5112,
      "gross": 5113,
      "pages": 5114,
      "##za": 5115,
      "##down": 5116,
      "##uth": 5117,
      "##king": 5118,
      "languages": 5119,
      "ones": 5120,
      "comfort": 5121,
      "classes": 5122,
      "label": 5123,
      "primarily": 5124,
      "##ora": 5125,
      "mountains": 5126,
      "discovered": 5127,
      "nba": 5128,
      "flowers": 5129,
      "abdominal": 5130,
      "deck": 5131,
      "shut": 5132,
      "wisc": 5133,
      "##ffe": 5134,
      "irrit": 5135,
      "seconds": 5136,
      "movies": 5137,
      "carbohydrates": 5138,
      "pure": 5139,
      "##wise": 5140,
      "##etts": 5141,
      "bright": 5142,
      "193": 5143,
      "synonym": 5144,
      "72": 5145,
      "cake": 5146,
      "basketball": 5147,
      "sore": 5148,
      "convent": 5149,
      "connected": 5150,
      "approach": 5151,
      "sexual": 5152,
      "regions": 5153,
      "springs": 5154,
      "41": 5155,
      "bost": 5156,
      "fract": 5157,
      "##pro": 5158,
      "aver": 5159,
      "##ris": 5160,
      "##**": 5161,
      "stain": 5162,
      "##terior": 5163,
      "##place": 5164,
      "54": 5165,
      "##gers": 5166,
      "magnes": 5167,
      "ideal": 5168,
      "corporate": 5169,
      "served": 5170,
      "egypt": 5171,
      "prescription": 5172,
      "electron": 5173,
      "angeles": 5174,
      "64": 5175,
      "##perm": 5176,
      "##poon": 5177,
      "##anes": 5178,
      "##onsin": 5179,
      "bac": 5180,
      "frequently": 5181,
      "##heit": 5182,
      "mission": 5183,
      "hors": 5184,
      "compr": 5185,
      "bowel": 5186,
      "mun": 5187,
      "##ophy": 5188,
      "bache": 5189,
      "scott": 5190,
      "dioxide": 5191,
      "draft": 5192,
      "examin": 5193,
      "scores": 5194,
      "trim": 5195,
      "bonds": 5196,
      "describes": 5197,
      "wisconsin": 5198,
      "external": 5199,
      "removal": 5200,
      "facility": 5201,
      "duty": 5202,
      "boston": 5203,
      "##agen": 5204,
      "exposure": 5205,
      "##igue": 5206,
      "##achus": 5207,
      "placed": 5208,
      "couple": 5209,
      "wrong": 5210,
      "dream": 5211,
      "signed": 5212,
      "episode": 5213,
      "registration": 5214,
      "##cs": 5215,
      "providing": 5216,
      "ensure": 5217,
      "transc": 5218,
      "operations": 5219,
      "": 5220,
      "humid": 5221,
      "##ervation": 5222,
      "49": 5223,
      "ath": 5224,
      "nause": 5225,
      "##ico": 5226,
      "forces": 5227,
      "##roy": 5228,
      "constipation": 5229,
      "bird": 5230,
      "angle": 5231,
      "permanent": 5232,
      "fahren": 5233,
      "join": 5234,
      "race": 5235,
      "voc": 5236,
      "##irt": 5237,
      "complic": 5238,
      "funds": 5239,
      "herb": 5240,
      "ranges": 5241,
      "atmosphere": 5242,
      "magnesium": 5243,
      "##achusetts": 5244,
      "pine": 5245,
      "stem": 5246,
      "finger": 5247,
      "fahrenheit": 5248,
      "sams": 5249,
      "meant": 5250,
      "##ogram": 5251,
      "recently": 5252,
      "massachusetts": 5253,
      "missou": 5254,
      "jeff": 5255,
      "ribs": 5256,
      "split": 5257,
      "fif": 5258,
      "por": 5259,
      "##charge": 5260,
      "fear": 5261,
      "##dd": 5262,
      "earl": 5263,
      "canadian": 5264,
      "##arant": 5265,
      "beer": 5266,
      "##ander": 5267,
      "drivers": 5268,
      "600": 5269,
      "toxic": 5270,
      "##ogl": 5271,
      "empire": 5272,
      "##erk": 5273,
      "caffe": 5274,
      "bind": 5275,
      "kent": 5276,
      "uter": 5277,
      "forest": 5278,
      "string": 5279,
      "advanced": 5280,
      "dvd": 5281,
      "fax": 5282,
      "tail": 5283,
      "historical": 5284,
      "##well": 5285,
      "village": 5286,
      "mig": 5287,
      "##ola": 5288,
      "##lying": 5289,
      "shock": 5290,
      "hepat": 5291,
      "equival": 5292,
      "headache": 5293,
      "hou": 5294,
      "ram": 5295,
      "##vin": 5296,
      "scot": 5297,
      "ages": 5298,
      "components": 5299,
      "osc": 5300,
      "measurement": 5301,
      "sort": 5302,
      "rect": 5303,
      "adding": 5304,
      "issued": 5305,
      "ot": 5306,
      "filing": 5307,
      "circuit": 5308,
      "exactly": 5309,
      "hawaii": 5310,
      "cancel": 5311,
      "spok": 5312,
      "cellular": 5313,
      "meeting": 5314,
      "59": 5315,
      "lin": 5316,
      "welcome": 5317,
      "hope": 5318,
      "periods": 5319,
      "selection": 5320,
      "volt": 5321,
      "situ": 5322,
      "families": 5323,
      "flash": 5324,
      "##grad": 5325,
      "looks": 5326,
      "fal": 5327,
      "rental": 5328,
      "described": 5329,
      "graduate": 5330,
      "daughter": 5331,
      "blu": 5332,
      "arms": 5333,
      "colour": 5334,
      "powerful": 5335,
      "updated": 5336,
      "vinegar": 5337,
      "##fe": 5338,
      "naturally": 5339,
      "involves": 5340,
      "57": 5341,
      "trib": 5342,
      "##dy": 5343,
      "bey": 5344,
      "asia": 5345,
      "compare": 5346,
      "teas": 5347,
      "trial": 5348,
      "duct": 5349,
      "ros": 5350,
      "##eness": 5351,
      "hear": 5352,
      "widely": 5353,
      "enzyme": 5354,
      "##vant": 5355,
      "nh": 5356,
      "##ini": 5357,
      "fabric": 5358,
      "dyn": 5359,
      "##off": 5360,
      "attempt": 5361,
      "abuse": 5362,
      "acre": 5363,
      "originate": 5364,
      "aqu": 5365,
      "giving": 5366,
      "transmission": 5367,
      "holiday": 5368,
      "##ality": 5369,
      "alumin": 5370,
      "meter": 5371,
      "happened": 5372,
      "bottle": 5373,
      "##lements": 5374,
      "programm": 5375,
      "pieces": 5376,
      "respiration": 5377,
      "gender": 5378,
      "guarant": 5379,
      "divorce": 5380,
      "senate": 5381,
      "##orms": 5382,
      "revolution": 5383,
      "##iotics": 5384,
      "followed": 5385,
      "appearance": 5386,
      "membership": 5387,
      "authority": 5388,
      "samsung": 5389,
      "cot": 5390,
      "dol": 5391,
      "ster": 5392,
      "traffic": 5393,
      "sang": 5394,
      "##yer": 5395,
      "influence": 5396,
      "nausea": 5397,
      "caffeine": 5398,
      "##dale": 5399,
      "##aced": 5400,
      "changing": 5401,
      "dance": 5402,
      "##asma": 5403,
      "spin": 5404,
      "missouri": 5405,
      "##kal": 5406,
      "##icul": 5407,
      "cham": 5408,
      "interview": 5409,
      "nail": 5410,
      "ta": 5411,
      "##ication": 5412,
      "overview": 5413,
      "120": 5414,
      "gh": 5415,
      "ht": 5416,
      "ark": 5417,
      "chromosomes": 5418,
      "_________": 5419,
      "##mia": 5420,
      "seem": 5421,
      "intake": 5422,
      "reactions": 5423,
      "playing": 5424,
      "alph": 5425,
      "recipe": 5426,
      "##iatric": 5427,
      "browser": 5428,
      "calorie": 5429,
      "##aving": 5430,
      "votes": 5431,
      "thems": 5432,
      "usage": 5433,
      "vom": 5434,
      "##0s": 5435,
      "##owa": 5436,
      "atoms": 5437,
      "bureau": 5438,
      "kg": 5439,
      "les": 5440,
      "##ita": 5441,
      "##oper": 5442,
      "charl": 5443,
      "compensation": 5444,
      "houston": 5445,
      "chemistry": 5446,
      "phrase": 5447,
      "bull": 5448,
      "gun": 5449,
      "rna": 5450,
      "gallon": 5451,
      "environmental": 5452,
      "arteries": 5453,
      "contribute": 5454,
      "themselves": 5455,
      "si": 5456,
      "##apor": 5457,
      "tat": 5458,
      "meanings": 5459,
      "mini": 5460,
      "closing": 5461,
      "detailed": 5462,
      "enroll": 5463,
      "substances": 5464,
      "##enders": 5465,
      "processing": 5466,
      "summary": 5467,
      "ba": 5468,
      "ket": 5469,
      "##my": 5470,
      "withdrawal": 5471,
      "arab": 5472,
      "foss": 5473,
      "thomas": 5474,
      "##lands": 5475,
      "attach": 5476,
      "links": 5477,
      "chair": 5478,
      "prison": 5479,
      "robert": 5480,
      "territ": 5481,
      "restaurant": 5482,
      "baking": 5483,
      "kansas": 5484,
      "sperm": 5485,
      "suit": 5486,
      "accom": 5487,
      "spray": 5488,
      "epid": 5489,
      "roman": 5490,
      "nothing": 5491,
      "linked": 5492,
      "prepare": 5493,
      "specif": 5494,
      "prince": 5495,
      "##izer": 5496,
      "stroke": 5497,
      "chocol": 5498,
      "increasing": 5499,
      "specialist": 5500,
      "cleaning": 5501,
      "mixture": 5502,
      "senior": 5503,
      "##oglob": 5504,
      "obama": 5505,
      "immedi": 5506,
      "chance": 5507,
      "hern": 5508,
      "birds": 5509,
      "bachelor": 5510,
      "cerv": 5511,
      "hundr": 5512,
      "dies": 5513,
      "yog": 5514,
      "presence": 5515,
      "independence": 5516,
      "exclus": 5517,
      "bell": 5518,
      "##ala": 5519,
      "##rehens": 5520,
      "##opy": 5521,
      "##plo": 5522,
      "immediately": 5523,
      "covers": 5524,
      "transmit": 5525,
      "respond": 5526,
      "fatigue": 5527,
      "messages": 5528,
      "iowa": 5529,
      "##ceed": 5530,
      "##aked": 5531,
      "##chers": 5532,
      "##ieved": 5533,
      "##axy": 5534,
      "technical": 5535,
      "llc": 5536,
      "inher": 5537,
      "##asion": 5538,
      "thatâ": 5539,
      "plane": 5540,
      "##sel": 5541,
      "resistance": 5542,
      "##ingu": 5543,
      "confirm": 5544,
      "ell": 5545,
      "lee": 5546,
      "62": 5547,
      "verte": 5548,
      "bc": 5549,
      "bun": 5550,
      "cs": 5551,
      "dil": 5552,
      "toile": 5553,
      "##ologists": 5554,
      "##icians": 5555,
      "camera": 5556,
      "attached": 5557,
      "electro": 5558,
      "pictures": 5559,
      "##oli": 5560,
      "lig": 5561,
      "##rine": 5562,
      "prol": 5563,
      "treatments": 5564,
      "uns": 5565,
      "obser": 5566,
      "closed": 5567,
      "powers": 5568,
      "navy": 5569,
      "onto": 5570,
      "chemicals": 5571,
      "minnes": 5572,
      "surge": 5573,
      "signal": 5574,
      "crack": 5575,
      "##mp": 5576,
      "##elly": 5577,
      "grown": 5578,
      "peace": 5579,
      "gel": 5580,
      "task": 5581,
      "##mic": 5582,
      "##employ": 5583,
      "charges": 5584,
      "accurate": 5585,
      "sulf": 5586,
      "nerves": 5587,
      "nucleus": 5588,
      "penalty": 5589,
      "era": 5590,
      "fet": 5591,
      "scal": 5592,
      "roots": 5593,
      "monday": 5594,
      "route": 5595,
      "garlic": 5596,
      "error": 5597,
      "achieve": 5598,
      "diamond": 5599,
      "chocolate": 5600,
      "##anna": 5601,
      "client": 5602,
      "worked": 5603,
      "domain": 5604,
      "saw": 5605,
      "##rid": 5606,
      "coat": 5607,
      "icon": 5608,
      "medicaid": 5609,
      "extract": 5610,
      "minnesota": 5611,
      "agr": 5612,
      "yard": 5613,
      "##seum": 5614,
      "loans": 5615,
      "##issions": 5616,
      "secondary": 5617,
      "].": 5618,
      "ger": 5619,
      "##unes": 5620,
      "coach": 5621,
      "zero": 5622,
      "combined": 5623,
      "particularly": 5624,
      "ru": 5625,
      "190": 5626,
      "attention": 5627,
      "lawn": 5628,
      "introduced": 5629,
      "kenn": 5630,
      "stream": 5631,
      "procedures": 5632,
      "intestine": 5633,
      "runs": 5634,
      "letters": 5635,
      "vehicles": 5636,
      "bathroom": 5637,
      "output": 5638,
      "genes": 5639,
      "relative": 5640,
      "lights": 5641,
      "consumer": 5642,
      "printer": 5643,
      "##inger": 5644,
      "1000": 5645,
      "assistance": 5646,
      "fold": 5647,
      "53": 5648,
      "##enty": 5649,
      "generic": 5650,
      "excell": 5651,
      "##nic": 5652,
      "flour": 5653,
      "scr": 5654,
      "terminal": 5655,
      "sunday": 5656,
      "##icated": 5657,
      "electronic": 5658,
      "delta": 5659,
      "personality": 5660,
      "businesses": 5661,
      "recept": 5662,
      "##ura": 5663,
      "##like": 5664,
      "tickets": 5665,
      "##inder": 5666,
      "controls": 5667,
      "sizes": 5668,
      "supre": 5669,
      "outer": 5670,
      "situation": 5671,
      "equivalent": 5672,
      "dall": 5673,
      "##kn": 5674,
      "unemploy": 5675,
      "formation": 5676,
      "polym": 5677,
      "mississ": 5678,
      "56": 5679,
      "##atin": 5680,
      "lease": 5681,
      "freed": 5682,
      "##cil": 5683,
      "info": 5684,
      "relatively": 5685,
      "guit": 5686,
      "garage": 5687,
      "audio": 5688,
      "aspect": 5689,
      "louisiana": 5690,
      "friday": 5691,
      "##acle": 5692,
      "returns": 5693,
      "##ographic": 5694,
      "easier": 5695,
      "hepatitis": 5696,
      "##icing": 5697,
      "stands": 5698,
      "caps": 5699,
      "introduction": 5700,
      "cree": 5701,
      "enh": 5702,
      "sched": 5703,
      "assets": 5704,
      "establish": 5705,
      "advantage": 5706,
      "##iotic": 5707,
      "compl": 5708,
      "didn": 5709,
      "goods": 5710,
      "royal": 5711,
      "fest": 5712,
      "hond": 5713,
      "amb": 5714,
      "characterized": 5715,
      "democr": 5716,
      "##pi": 5717,
      "jose": 5718,
      "viet": 5719,
      "literature": 5720,
      "controlled": 5721,
      "eag": 5722,
      "lived": 5723,
      "##ya": 5724,
      "seasons": 5725,
      "##ollen": 5726,
      "justice": 5727,
      "180": 5728,
      "neighbor": 5729,
      "settle": 5730,
      "objects": 5731,
      "filmed": 5732,
      "opposite": 5733,
      "pretty": 5734,
      "##iling": 5735,
      "brake": 5736,
      "##aver": 5737,
      "##iary": 5738,
      "reduced": 5739,
      "candid": 5740,
      "earlier": 5741,
      "tons": 5742,
      "mes": 5743,
      "comprehens": 5744,
      "depth": 5745,
      "immun": 5746,
      "mention": 5747,
      "2005": 5748,
      "flights": 5749,
      "illeg": 5750,
      "hay": 5751,
      "##elines": 5752,
      "ends": 5753,
      "fourth": 5754,
      "surgical": 5755,
      "decrease": 5756,
      "mississipp": 5757,
      "mos": 5758,
      "varies": 5759,
      "barb": 5760,
      "represents": 5761,
      "fan": 5762,
      "config": 5763,
      "headqu": 5764,
      "afford": 5765,
      "toll": 5766,
      "##rel": 5767,
      "shipping": 5768,
      "gray": 5769,
      "swollen": 5770,
      "glyc": 5771,
      "dallas": 5772,
      "anemia": 5773,
      "##iced": 5774,
      "asse": 5775,
      "expand": 5776,
      "concentration": 5777,
      "deductible": 5778,
      "##mer": 5779,
      "cyt": 5780,
      "##ario": 5781,
      "stones": 5782,
      "courses": 5783,
      "creating": 5784,
      "bol": 5785,
      "jump": 5786,
      "kore": 5787,
      "atom": 5788,
      "layers": 5789,
      "enzymes": 5790,
      "anat": 5791,
      "formal": 5792,
      "##uma": 5793,
      "crust": 5794,
      "plasma": 5795,
      "defense": 5796,
      "thinking": 5797,
      "vomiting": 5798,
      "##inity": 5799,
      "##umber": 5800,
      "clock": 5801,
      "buck": 5802,
      "urban": 5803,
      "asked": 5804,
      "tet": 5805,
      "##road": 5806,
      "seiz": 5807,
      "wound": 5808,
      "taxable": 5809,
      "painful": 5810,
      "mississippi": 5811,
      "iâ": 5812,
      "##rage": 5813,
      "perm": 5814,
      "##acters": 5815,
      "boys": 5816,
      "supplements": 5817,
      "judge": 5818,
      "ancest": 5819,
      "router": 5820,
      "##inations": 5821,
      "biological": 5822,
      "thousands": 5823,
      "theme": 5824,
      "lemon": 5825,
      "stuff": 5826,
      "##uts": 5827,
      "##aneous": 5828,
      "##prise": 5829,
      "maryland": 5830,
      "77": 5831,
      "pne": 5832,
      "characters": 5833,
      "directions": 5834,
      "nitrogen": 5835,
      "hop": 5836,
      "charles": 5837,
      "charged": 5838,
      "essay": 5839,
      "##................": 5840,
      "selling": 5841,
      "torn": 5842,
      "##ishes": 5843,
      "crown": 5844,
      "platform": 5845,
      "hr": 5846,
      "##lah": 5847,
      "mainly": 5848,
      "sites": 5849,
      "spine": 5850,
      "disk": 5851,
      "jet": 5852,
      "pill": 5853,
      "insect": 5854,
      "lb": 5855,
      "##ped": 5856,
      "##inson": 5857,
      "kinds": 5858,
      "nationality": 5859,
      "##cular": 5860,
      "acet": 5861,
      "shingles": 5862,
      "react": 5863,
      "contag": 5864,
      "2018": 5865,
      "technician": 5866,
      "pronun": 5867,
      "pulmon": 5868,
      "pneum": 5869,
      "alternative": 5870,
      "solutions": 5871,
      "classified": 5872,
      "absol": 5873,
      "mechanical": 5874,
      "aluminum": 5875,
      "pros": 5876,
      "##uses": 5877,
      "defect": 5878,
      "automatically": 5879,
      "susp": 5880,
      "warranty": 5881,
      "volcano": 5882,
      "agricult": 5883,
      "soap": 5884,
      "counsel": 5885,
      "weakness": 5886,
      "earthqu": 5887,
      "ign": 5888,
      "##ested": 5889,
      "attract": 5890,
      "##aryn": 5891,
      "counties": 5892,
      "equation": 5893,
      "catal": 5894,
      "01": 5895,
      "##berg": 5896,
      "teen": 5897,
      "healing": 5898,
      "##ien": 5899,
      "anth": 5900,
      "alg": 5901,
      "implement": 5902,
      "oklah": 5903,
      "supreme": 5904,
      "##).": 5905,
      "conv": 5906,
      "acts": 5907,
      "secure": 5908,
      "##don": 5909,
      "##oty": 5910,
      "##osing": 5911,
      "shower": 5912,
      "heater": 5913,
      "##asty": 5914,
      "relax": 5915,
      "oklahoma": 5916,
      "cig": 5917,
      "##isher": 5918,
      "youtub": 5919,
      "interior": 5920,
      "wikip": 5921,
      "ride": 5922,
      "alle": 5923,
      "shr": 5924,
      "salad": 5925,
      "specifically": 5926,
      "merc": 5927,
      "amino": 5928,
      "finance": 5929,
      "itch": 5930,
      "cardiac": 5931,
      "circum": 5932,
      "ecl": 5933,
      "##reas": 5934,
      "##itan": 5935,
      "popul": 5936,
      "decl": 5937,
      "minecraft": 5938,
      "opened": 5939,
      "artist": 5940,
      "immig": 5941,
      "galaxy": 5942,
      "wikipedia": 5943,
      "78": 5944,
      "sink": 5945,
      "compress": 5946,
      "novel": 5947,
      "java": 5948,
      "toward": 5949,
      "completed": 5950,
      "ounce": 5951,
      "tatto": 5952,
      "pension": 5953,
      "##tr": 5954,
      "anest": 5955,
      "lean": 5956,
      "worldwide": 5957,
      "shaped": 5958,
      "stir": 5959,
      "distinct": 5960,
      "sir": 5961,
      "##angle": 5962,
      "shoes": 5963,
      "cubic": 5964,
      "87": 5965,
      "apps": 5966,
      "##obic": 5967,
      "buying": 5968,
      "beyond": 5969,
      "##acco": 5970,
      "heav": 5971,
      "##oglobin": 5972,
      "##uing": 5973,
      "deduction": 5974,
      "51": 5975,
      "retain": 5976,
      "econom": 5977,
      "##ext": 5978,
      "##othe": 5979,
      "resource": 5980,
      "cups": 5981,
      "##icks": 5982,
      "prescribed": 5983,
      "dehydr": 5984,
      "atp": 5985,
      "thanks": 5986,
      "wars": 5987,
      "ebay": 5988,
      "util": 5989,
      "spots": 5990,
      "outdo": 5991,
      "injection": 5992,
      "orth": 5993,
      "teams": 5994,
      "##anic": 5995,
      "smith": 5996,
      "corner": 5997,
      "cruise": 5998,
      "cc": 5999,
      "hi": 6000,
      "ideas": 6001,
      "reli": 6002,
      "2006": 6003,
      "nine": 6004,
      "wish": 6005,
      "gram": 6006,
      "universal": 6007,
      "academy": 6008,
      "elim": 6009,
      "happy": 6010,
      "67": 6011,
      "dub": 6012,
      "urinary": 6013,
      "contagious": 6014,
      "eld": 6015,
      "gear": 6016,
      "##99": 6017,
      "##elle": 6018,
      "articles": 6019,
      "toilet": 6020,
      "bm": 6021,
      "##com": 6022,
      "tob": 6023,
      "reve": 6024,
      "reset": 6025,
      "daylight": 6026,
      "##enger": 6027,
      "functional": 6028,
      "residential": 6029,
      "coordin": 6030,
      "##cal": 6031,
      "##anda": 6032,
      "incorpor": 6033,
      "mood": 6034,
      "compounds": 6035,
      "russia": 6036,
      "component": 6037,
      "youtube": 6038,
      "dair": 6039,
      "cramps": 6040,
      "checks": 6041,
      "facilities": 6042,
      "clerk": 6043,
      "sets": 6044,
      "advance": 6045,
      "pear": 6046,
      "script": 6047,
      "calls": 6048,
      "henry": 6049,
      "husband": 6050,
      "pulmonary": 6051,
      "86": 6052,
      "southwest": 6053,
      "utah": 6054,
      "seattle": 6055,
      "##nd": 6056,
      "##ugh": 6057,
      "martin": 6058,
      "##oz": 6059,
      "spent": 6060,
      "museum": 6061,
      "calend": 6062,
      "regarding": 6063,
      "journal": 6064,
      "82": 6065,
      "ib": 6066,
      "##rix": 6067,
      "numb": 6068,
      "##ocket": 6069,
      "associate": 6070,
      "dairy": 6071,
      "leak": 6072,
      "##outs": 6073,
      "extension": 6074,
      "cure": 6075,
      "tire": 6076,
      "##agus": 6077,
      "trou": 6078,
      "mucus": 6079,
      "veins": 6080,
      "expression": 6081,
      "resulting": 6082,
      "hurt": 6083,
      "announced": 6084,
      "horses": 6085,
      "sd": 6086,
      "sor": 6087,
      "tie": 6088,
      "fruits": 6089,
      "##elled": 6090,
      "becoming": 6091,
      "extremely": 6092,
      "sci": 6093,
      "remote": 6094,
      "radi": 6095,
      "drops": 6096,
      "conversion": 6097,
      "##oria": 6098,
      "clim": 6099,
      "institute": 6100,
      "remains": 6101,
      "microw": 6102,
      "photosyn": 6103,
      "theat": 6104,
      "told": 6105,
      "##ument": 6106,
      "carpet": 6107,
      "kentucky": 6108,
      "##mart": 6109,
      "alkal": 6110,
      "notes": 6111,
      "classic": 6112,
      "pra": 6113,
      "##cers": 6114,
      "birthday": 6115,
      "atlanta": 6116,
      "duck": 6117,
      "protocol": 6118,
      "australian": 6119,
      "precip": 6120,
      "chapter": 6121,
      "66": 6122,
      "##burn": 6123,
      "pokemon": 6124,
      "88": 6125,
      "hole": 6126,
      "rome": 6127,
      "posted": 6128,
      "coal": 6129,
      "criter": 6130,
      "guy": 6131,
      "calculated": 6132,
      "fishing": 6133,
      "miami": 6134,
      "##oted": 6135,
      "conven": 6136,
      "partner": 6137,
      "holding": 6138,
      "banks": 6139,
      "dizz": 6140,
      "moves": 6141,
      "pronunciation": 6142,
      "350": 6143,
      "##mas": 6144,
      "moment": 6145,
      "rn": 6146,
      "wages": 6147,
      "##agon": 6148,
      "manufacturing": 6149,
      "mol": 6150,
      "xbox": 6151,
      "##writ": 6152,
      "shared": 6153,
      "flood": 6154,
      "developing": 6155,
      "puppy": 6156,
      "jones": 6157,
      "pipe": 6158,
      "##eed": 6159,
      "##ims": 6160,
      "191": 6161,
      "sql": 6162,
      "pharmac": 6163,
      "academic": 6164,
      "strategy": 6165,
      "dar": 6166,
      "##asis": 6167,
      "blog": 6168,
      "visible": 6169,
      "excessive": 6170,
      "harmful": 6171,
      "##olved": 6172,
      "sty": 6173,
      "showing": 6174,
      "linear": 6175,
      "electrons": 6176,
      "models": 6177,
      "da": 6178,
      "lens": 6179,
      "cavity": 6180,
      "192": 6181,
      "guidelines": 6182,
      "worker": 6183,
      "vacation": 6184,
      "cultural": 6185,
      "williams": 6186,
      "vel": 6187,
      "therapist": 6188,
      "guitar": 6189,
      "pizz": 6190,
      "stamp": 6191,
      "requirement": 6192,
      "roughly": 6193,
      "organizations": 6194,
      "ry": 6195,
      "##ashes": 6196,
      "##irect": 6197,
      "owners": 6198,
      "##mar": 6199,
      "yearly": 6200,
      "sheriff": 6201,
      "unemployment": 6202,
      "##gu": 6203,
      "disab": 6204,
      "assum": 6205,
      "hero": 6206,
      "studio": 6207,
      "##ipped": 6208,
      "philos": 6209,
      "kar": 6210,
      "advice": 6211,
      "continuous": 6212,
      "songs": 6213,
      "principal": 6214,
      "clar": 6215,
      "viral": 6216,
      "continental": 6217,
      "jun": 6218,
      "adren": 6219,
      "##ibly": 6220,
      "bob": 6221,
      "fatty": 6222,
      "bankrupt": 6223,
      "antibiotics": 6224,
      "##bral": 6225,
      "##atch": 6226,
      "##icip": 6227,
      "freedom": 6228,
      "pip": 6229,
      "carb": 6230,
      "infected": 6231,
      "dragon": 6232,
      "##hyth": 6233,
      "02": 6234,
      "##rier": 6235,
      "und": 6236,
      "twice": 6237,
      "paralle": 6238,
      "moved": 6239,
      "##uble": 6240,
      "analyst": 6241,
      "##etime": 6242,
      "##ighter": 6243,
      "weâ": 6244,
      "##fully": 6245,
      "##pload": 6246,
      "anton": 6247,
      "seems": 6248,
      "paris": 6249,
      "expert": 6250,
      "greatest": 6251,
      ");": 6252,
      "dw": 6253,
      "##grade": 6254,
      "discount": 6255,
      "videos": 6256,
      "hurric": 6257,
      "champions": 6258,
      "##more": 6259,
      "extended": 6260,
      "investig": 6261,
      "##night": 6262,
      "##ito": 6263,
      "##ided": 6264,
      "filled": 6265,
      "##itter": 6266,
      "canal": 6267,
      "clinic": 6268,
      "olive": 6269,
      "##ener": 6270,
      "toy": 6271,
      "accident": 6272,
      "centers": 6273,
      "186": 6274,
      "circle": 6275,
      "($": 6276,
      "cheap": 6277,
      "lists": 6278,
      "headaches": 6279,
      "upload": 6280,
      "##ilit": 6281,
      "franch": 6282,
      "meters": 6283,
      "apa": 6284,
      "viruses": 6285,
      "##ifi": 6286,
      "goals": 6287,
      "holds": 6288,
      "survive": 6289,
      "comprehensive": 6290,
      "illegal": 6291,
      "agents": 6292,
      "##ifications": 6293,
      "##aho": 6294,
      "mixed": 6295,
      "##bles": 6296,
      "##igo": 6297,
      "comments": 6298,
      "blank": 6299,
      "kept": 6300,
      "implant": 6301,
      "enlar": 6302,
      "scar": 6303,
      "liability": 6304,
      "construct": 6305,
      "determines": 6306,
      "##iques": 6307,
      "athlet": 6308,
      "##men": 6309,
      "##tered": 6310,
      "committe": 6311,
      "##ii": 6312,
      "##lywood": 6313,
      "heating": 6314,
      "finding": 6315,
      "portug": 6316,
      "metabolism": 6317,
      "fash": 6318,
      "mist": 6319,
      "nations": 6320,
      "##fa": 6321,
      "dosage": 6322,
      "lu": 6323,
      "mph": 6324,
      "##win": 6325,
      "input": 6326,
      "intell": 6327,
      "skill": 6328,
      "##ropol": 6329,
      "importance": 6330,
      "virtual": 6331,
      "bio": 6332,
      "##urop": 6333,
      "decide": 6334,
      "freeze": 6335,
      "restrict": 6336,
      "weekend": 6337,
      "purple": 6338,
      "atomic": 6339,
      "pulse": 6340,
      "duration": 6341,
      "##cod": 6342,
      "producing": 6343,
      "demon": 6344,
      "contributions": 6345,
      "tumor": 6346,
      "tiny": 6347,
      "##ett": 6348,
      "myth": 6349,
      "agencies": 6350,
      "regulation": 6351,
      "raised": 6352,
      "contribution": 6353,
      "08": 6354,
      "hills": 6355,
      "tut": 6356,
      "simpl": 6357,
      "sap": 6358,
      "yield": 6359,
      "##kin": 6360,
      "context": 6361,
      "surf": 6362,
      "sharp": 6363,
      "##press": 6364,
      "blind": 6365,
      "##plant": 6366,
      "magaz": 6367,
      "efficient": 6368,
      "beauty": 6369,
      "serves": 6370,
      "continent": 6371,
      "fitness": 6372,
      "rog": 6373,
      "shift": 6374,
      "spons": 6375,
      "##izon": 6376,
      "otherwise": 6377,
      "##resp": 6378,
      "##uled": 6379,
      "airline": 6380,
      "highway": 6381,
      "##rapy": 6382,
      "som": 6383,
      "aren": 6384,
      "polit": 6385,
      "##airs": 6386,
      "straw": 6387,
      "scientists": 6388,
      "voltage": 6389,
      "fats": 6390,
      "##aign": 6391,
      "##bow": 6392,
      "appar": 6393,
      "hardware": 6394,
      "divide": 6395,
      "richard": 6396,
      "helpful": 6397,
      "##ieties": 6398,
      "closest": 6399,
      "humidity": 6400,
      "gate": 6401,
      "lots": 6402,
      "##mm": 6403,
      "##haps": 6404,
      "intel": 6405,
      "brought": 6406,
      "container": 6407,
      "movements": 6408,
      "injuries": 6409,
      "brief": 6410,
      "spoken": 6411,
      "intended": 6412,
      "ears": 6413,
      "##encing": 6414,
      "cp": 6415,
      "jul": 6416,
      "##inine": 6417,
      "##idents": 6418,
      "polar": 6419,
      "97": 6420,
      "imag": 6421,
      "categories": 6422,
      "explorer": 6423,
      "63": 6424,
      "plural": 6425,
      "clint": 6426,
      "allergic": 6427,
      "surrounding": 6428,
      "fashion": 6429,
      "aids": 6430,
      "lady": 6431,
      "perhaps": 6432,
      "institution": 6433,
      "columbia": 6434,
      "##bing": 6435,
      "##flix": 6436,
      "estimates": 6437,
      "familiar": 6438,
      "fasc": 6439,
      "ont": 6440,
      "heard": 6441,
      "lift": 6442,
      "classification": 6443,
      "cutting": 6444,
      "selected": 6445,
      "##etics": 6446,
      "plates": 6447,
      "soy": 6448,
      "technique": 6449,
      "fibr": 6450,
      "##___": 6451,
      "remed": 6452,
      "relief": 6453,
      "handle": 6454,
      "driveway": 6455,
      "deer": 6456,
      "##ipher": 6457,
      "obl": 6458,
      "catch": 6459,
      "shares": 6460,
      "instrument": 6461,
      "abbreviation": 6462,
      "ankle": 6463,
      "mp": 6464,
      "ure": 6465,
      "ups": 6466,
      "digit": 6467,
      "tro": 6468,
      "##itic": 6469,
      "##igence": 6470,
      "purchased": 6471,
      "fibers": 6472,
      "calendar": 6473,
      "gest": 6474,
      "##orph": 6475,
      "##iture": 6476,
      "conj": 6477,
      "netflix": 6478,
      "bankruptcy": 6479,
      "##ayer": 6480,
      "lob": 6481,
      "##liance": 6482,
      "diameter": 6483,
      "saturday": 6484,
      "manufacturer": 6485,
      "deed": 6486,
      "arts": 6487,
      "boiled": 6488,
      "sounds": 6489,
      "##hi": 6490,
      "marks": 6491,
      "standing": 6492,
      "leadership": 6493,
      "entertain": 6494,
      "pharmacy": 6495,
      "pilot": 6496,
      "conference": 6497,
      "unlike": 6498,
      "quad": 6499,
      "representatives": 6500,
      "nurses": 6501,
      "reserve": 6502,
      "nest": 6503,
      "##iel": 6504,
      "##ilton": 6505,
      "itching": 6506,
      "manual": 6507,
      "##ipse": 6508,
      "paras": 6509,
      "instant": 6510,
      "opin": 6511,
      "credits": 6512,
      "extreme": 6513,
      "##oplasm": 6514,
      "supplies": 6515,
      "##adium": 6516,
      "oils": 6517,
      "sequence": 6518,
      "84": 6519,
      "gon": 6520,
      "rig": 6521,
      "dod": 6522,
      "gov": 6523,
      "##anches": 6524,
      "keeping": 6525,
      "johnson": 6526,
      "elevation": 6527,
      "##enth": 6528,
      "techniques": 6529,
      "rar": 6530,
      "##greg": 6531,
      "sole": 6532,
      "corp": 6533,
      "dimensions": 6534,
      "##awn": 6535,
      "cigar": 6536,
      "##ray": 6537,
      "##iates": 6538,
      "thigh": 6539,
      "2003": 6540,
      "cite": 6541,
      "dm": 6542,
      "ech": 6543,
      "acres": 6544,
      "regional": 6545,
      "employers": 6546,
      "indicates": 6547,
      "arkansas": 6548,
      "awards": 6549,
      "##arts": 6550,
      "adject": 6551,
      "bodies": 6552,
      "##lers": 6553,
      "entity": 6554,
      "##brew": 6555,
      "copyright": 6556,
      "actions": 6557,
      "##bir": 6558,
      "##log": 6559,
      "drag": 6560,
      "cotton": 6561,
      "cogn": 6562,
      "##isf": 6563,
      "persons": 6564,
      "freezer": 6565,
      "practition": 6566,
      "collected": 6567,
      "digestion": 6568,
      "pour": 6569,
      "reverse": 6570,
      "##poons": 6571,
      "saving": 6572,
      "transportation": 6573,
      "dust": 6574,
      "jur": 6575,
      "ron": 6576,
      "tan": 6577,
      "##ifies": 6578,
      "##plate": 6579,
      "prepared": 6580,
      "##ih": 6581,
      "stages": 6582,
      "##arters": 6583,
      "eyel": 6584,
      "array": 6585,
      "desktop": 6586,
      "honda": 6587,
      "fda": 6588,
      "mas": 6589,
      "parties": 6590,
      "christian": 6591,
      "francisco": 6592,
      "inhib": 6593,
      "##ifer": 6594,
      "keyboard": 6595,
      "vietnam": 6596,
      "idaho": 6597,
      "follows": 6598,
      "##letal": 6599,
      "sensor": 6600,
      "teachers": 6601,
      "trigger": 6602,
      "##ered": 6603,
      "discharge": 6604,
      "treas": 6605,
      "predict": 6606,
      "##--------": 6607,
      "photosynthesis": 6608,
      "luc": 6609,
      "##itals": 6610,
      "##ifier": 6611,
      "lev": 6612,
      "swit": 6613,
      "identity": 6614,
      "vacu": 6615,
      "fields": 6616,
      "frequent": 6617,
      "poisoning": 6618,
      "assemb": 6619,
      "700": 6620,
      "##oh": 6621,
      "##iva": 6622,
      "newborn": 6623,
      "microwave": 6624,
      "##ulate": 6625,
      "encou": 6626,
      "excellent": 6627,
      "pizza": 6628,
      "##urt": 6629,
      "sha": 6630,
      "empt": 6631,
      "regulations": 6632,
      "tam": 6633,
      "aircraft": 6634,
      "listing": 6635,
      "moderate": 6636,
      "popularity": 6637,
      "projects": 6638,
      "headquarters": 6639,
      "##rd": 6640,
      "uterus": 6641,
      "##akers": 6642,
      "exception": 6643,
      "instance": 6644,
      "blocks": 6645,
      "campaign": 6646,
      "pancreas": 6647,
      "temporary": 6648,
      "##ropolitan": 6649,
      "##itors": 6650,
      "export": 6651,
      "68": 6652,
      "##tles": 6653,
      "nev": 6654,
      "recon": 6655,
      "transition": 6656,
      "-.": 6657,
      "storm": 6658,
      "proof": 6659,
      "##under": 6660,
      "random": 6661,
      "alert": 6662,
      "feat": 6663,
      "northwest": 6664,
      "britain": 6665,
      "smoke": 6666,
      "tropical": 6667,
      "58": 6668,
      "##ador": 6669,
      "pref": 6670,
      "##ontin": 6671,
      "##lord": 6672,
      "##wall": 6673,
      "hebrew": 6674,
      "fox": 6675,
      "....": 6676,
      "##cycl": 6677,
      "fingers": 6678,
      "desp": 6679,
      "courts": 6680,
      "teaching": 6681,
      "false": 6682,
      "parallel": 6683,
      "mouse": 6684,
      "##pn": 6685,
      "##ystem": 6686,
      "##ati": 6687,
      "pean": 6688,
      "combine": 6689,
      "ken": 6690,
      "##orter": 6691,
      "seats": 6692,
      "tower": 6693,
      "vaginal": 6694,
      "criteria": 6695,
      "##heim": 6696,
      "##rect": 6697,
      "##icular": 6698,
      "##olic": 6699,
      "##agn": 6700,
      "offered": 6701,
      "69": 6702,
      "bile": 6703,
      "boost": 6704,
      "election": 6705,
      "hemoglobin": 6706,
      "hang": 6707,
      "##oral": 6708,
      "##ari": 6709,
      "##uls": 6710,
      "interp": 6711,
      "rhe": 6712,
      "expense": 6713,
      "gallons": 6714,
      "inflammatory": 6715,
      "accepted": 6716,
      "tobacco": 6717,
      "fry": 6718,
      "##iform": 6719,
      "factory": 6720,
      "multi": 6721,
      "greece": 6722,
      "laser": 6723,
      "ak": 6724,
      "elevated": 6725,
      "opportunity": 6726,
      "61": 6727,
      "roles": 6728,
      "thumb": 6729,
      "directed": 6730,
      "vegetable": 6731,
      "71": 6732,
      "council": 6733,
      "font": 6734,
      "lie": 6735,
      "filed": 6736,
      "landsc": 6737,
      "representative": 6738,
      "finally": 6739,
      "bronch": 6740,
      "fm": 6741,
      "lord": 6742,
      "tort": 6743,
      "forming": 6744,
      "equity": 6745,
      "palm": 6746,
      "jr": 6747,
      "lith": 6748,
      "##omer": 6749,
      "forum": 6750,
      "donald": 6751,
      "¦.": 6752,
      "consumption": 6753,
      "##icate": 6754,
      "##stream": 6755,
      "##oline": 6756,
      "tablet": 6757,
      "hypot": 6758,
      "republican": 6759,
      "bang": 6760,
      "cn": 6761,
      "mb": 6762,
      "##card": 6763,
      "##ho": 6764,
      "elected": 6765,
      "corresp": 6766,
      "illust": 6767,
      "hatch": 6768,
      "immigration": 6769,
      "74": 6770,
      "lbs": 6771,
      "correspond": 6772,
      "73": 6773,
      "andrew": 6774,
      "treaty": 6775,
      "benz": 6776,
      "yah": 6777,
      "transaction": 6778,
      "ipad": 6779,
      "citizen": 6780,
      "gases": 6781,
      "##istan": 6782,
      "enforce": 6783,
      "decor": 6784,
      "chrome": 6785,
      "smoking": 6786,
      "kilomet": 6787,
      "houses": 6788,
      "queen": 6789,
      "gut": 6790,
      "mri": 6791,
      "vice": 6792,
      "##bal": 6793,
      "##wich": 6794,
      "conflic": 6795,
      "identification": 6796,
      "crystal": 6797,
      "ahead": 6798,
      "pic": 6799,
      "ric": 6800,
      "##heet": 6801,
      "##onin": 6802,
      "##isters": 6803,
      "contractor": 6804,
      "ethnic": 6805,
      "asset": 6806,
      "involve": 6807,
      "broker": 6808,
      "thread": 6809,
      "itunes": 6810,
      "##osition": 6811,
      "administrative": 6812,
      "ion": 6813,
      "##ua": 6814,
      "nov": 6815,
      "epit": 6816,
      "protected": 6817,
      "bought": 6818,
      "damaged": 6819,
      "%),": 6820,
      "tattoo": 6821,
      "lam": 6822,
      "wheat": 6823,
      "shrim": 6824,
      "advis": 6825,
      "allergies": 6826,
      "habitat": 6827,
      "vinyl": 6828,
      "nice": 6829,
      "sharing": 6830,
      "licensed": 6831,
      "au": 6832,
      "bite": 6833,
      "##oring": 6834,
      "clay": 6835,
      "bike": 6836,
      "snap": 6837,
      "policies": 6838,
      "campus": 6839,
      "vessel": 6840,
      "abdomen": 6841,
      "contrast": 6842,
      "updates": 6843,
      "christmas": 6844,
      "composition": 6845,
      "tas": 6846,
      "vet": 6847,
      "##icy": 6848,
      "spark": 6849,
      "painting": 6850,
      "saying": 6851,
      "administer": 6852,
      "83": 6853,
      "mcc": 6854,
      "whit": 6855,
      "##iled": 6856,
      "clause": 6857,
      "arc": 6858,
      "obst": 6859,
      "79": 6860,
      "cad": 6861,
      "fault": 6862,
      "butt": 6863,
      "marg": 6864,
      "crow": 6865,
      "spectrum": 6866,
      "pus": 6867,
      "exempt": 6868,
      "##pton": 6869,
      "genre": 6870,
      "genus": 6871,
      "utility": 6872,
      "brands": 6873,
      "##thetic": 6874,
      "##heat": 6875,
      "##veland": 6876,
      "sensitive": 6877,
      "carrier": 6878,
      "franchise": 6879,
      "euk": 6880,
      "ou": 6881,
      "rated": 6882,
      "##equ": 6883,
      "aspir": 6884,
      "intra": 6885,
      "views": 6886,
      "##rus": 6887,
      "##pal": 6888,
      "##osa": 6889,
      "inspe": 6890,
      "distingu": 6891,
      "maps": 6892,
      "ventric": 6893,
      "jaw": 6894,
      "anch": 6895,
      "##rain": 6896,
      "##berries": 6897,
      "recy": 6898,
      "reporting": 6899,
      "cycl": 6900,
      "characteristic": 6901,
      "mexican": 6902,
      "push": 6903,
      "##ek": 6904,
      "##icide": 6905,
      "chip": 6906,
      "occasion": 6907,
      "leads": 6908,
      "walmart": 6909,
      "stretch": 6910,
      "professionals": 6911,
      "remedies": 6912,
      "shrimp": 6913,
      "lux": 6914,
      "##osal": 6915,
      "worse": 6916,
      "branches": 6917,
      "satisf": 6918,
      "providers": 6919,
      "##ogenic": 6920,
      "axis": 6921,
      "##oa": 6922,
      "rehab": 6923,
      "peripher": 6924,
      "grain": 6925,
      "##rium": 6926,
      "audit": 6927,
      "chromosome": 6928,
      "sear": 6929,
      "sust": 6930,
      "gramm": 6931,
      "annually": 6932,
      "##fast": 6933,
      "indo": 6934,
      "2004": 6935,
      "particles": 6936,
      "html": 6937,
      "neighborhood": 6938,
      "committee": 6939,
      "eukary": 6940,
      "cyl": 6941,
      "##bury": 6942,
      "rear": 6943,
      "cardio": 6944,
      "talking": 6945,
      "emotional": 6946,
      "hub": 6947,
      "plain": 6948,
      "acron": 6949,
      "colleges": 6950,
      "huge": 6951,
      "05": 6952,
      "##inn": 6953,
      "##orth": 6954,
      "ana": 6955,
      "##opathy": 6956,
      "shakes": 6957,
      "infant": 6958,
      "workout": 6959,
      "grey": 6960,
      "edition": 6961,
      "brook": 6962,
      "tablets": 6963,
      "superior": 6964,
      "eclipse": 6965,
      "elder": 6966,
      "ker": 6967,
      "wax": 6968,
      "##tion": 6969,
      "##bits": 6970,
      "##med": 6971,
      "consequ": 6972,
      "rainfall": 6973,
      "southeast": 6974,
      "friendly": 6975,
      "adrenal": 6976,
      "76": 6977,
      "98": 6978,
      "##list": 6979,
      "gam": 6980,
      "hid": 6981,
      "lor": 6982,
      "sores": 6983,
      "wolf": 6984,
      "##oen": 6985,
      "leaving": 6986,
      "pepp": 6987,
      "coron": 6988,
      "managers": 6989,
      "##ochond": 6990,
      "dizziness": 6991,
      "rural": 6992,
      "##uration": 6993,
      "peel": 6994,
      "veterans": 6995,
      "##esis": 6996,
      "drum": 6997,
      "esoph": 6998,
      "statist": 6999,
      "reveal": 7000,
      "rivers": 7001,
      "##omfort": 7002,
      "##opause": 7003,
      "privacy": 7004,
      "attacks": 7005,
      "drill": 7006,
      "poster": 7007,
      "creek": 7008,
      "gave": 7009,
      "wis": 7010,
      "creates": 7011,
      "##obe": 7012,
      "trading": 7013,
      "comparison": 7014,
      "ontario": 7015,
      "81": 7016,
      "##rom": 7017,
      "##zil": 7018,
      "##odel": 7019,
      "boot": 7020,
      "lawyer": 7021,
      "educational": 7022,
      "russian": 7023,
      "horn": 7024,
      "##bar": 7025,
      "##rais": 7026,
      "confidence": 7027,
      "ceo": 7028,
      "franklin": 7029,
      "##body": 7030,
      "beta": 7031,
      "pant": 7032,
      "##gy": 7033,
      "##hetic": 7034,
      "##ococ": 7035,
      "wanted": 7036,
      "restore": 7037,
      "applying": 7038,
      "bench": 7039,
      "dl": 7040,
      "sad": 7041,
      "ts": 7042,
      "supposed": 7043,
      "everyday": 7044,
      "weekly": 7045,
      "atlantic": 7046,
      "evaluation": 7047,
      "neutral": 7048,
      "aort": 7049,
      "##di": 7050,
      "calling": 7051,
      "topic": 7052,
      "buildings": 7053,
      "computers": 7054,
      "burned": 7055,
      "boundary": 7056,
      "gastro": 7057,
      "empty": 7058,
      "##rick": 7059,
      "resolution": 7060,
      "metropolitan": 7061,
      "concentr": 7062,
      "orders": 7063,
      "yahoo": 7064,
      "santa": 7065,
      "tel": 7066,
      "vul": 7067,
      "##alo": 7068,
      "spouse": 7069,
      "musical": 7070,
      "matt": 7071,
      "nevada": 7072,
      "gout": 7073,
      "hell": 7074,
      "##organ": 7075,
      "leuk": 7076,
      "grows": 7077,
      "scen": 7078,
      "accred": 7079,
      "treating": 7080,
      "slowly": 7081,
      "##rist": 7082,
      "##pass": 7083,
      "towards": 7084,
      "##estyle": 7085,
      "spending": 7086,
      "fracture": 7087,
      "##rin": 7088,
      "imper": 7089,
      "prev": 7090,
      "turns": 7091,
      "dietary": 7092,
      "tues": 7093,
      "thurs": 7094,
      "pronounce": 7095,
      "clothing": 7096,
      "bb": 7097,
      "rack": 7098,
      "##wing": 7099,
      "##olis": 7100,
      "##ellular": 7101,
      "doesnâ": 7102,
      "##osterone": 7103,
      "sediment": 7104,
      "fence": 7105,
      "grape": 7106,
      "choices": 7107,
      "craft": 7108,
      "hook": 7109,
      "apartment": 7110,
      "territory": 7111,
      "sel": 7112,
      "saint": 7113,
      "##rooms": 7114,
      "ridge": 7115,
      "¢": 7116,
      "joe": 7117,
      "deaths": 7118,
      "nickn": 7119,
      "kin": 7120,
      "##rot": 7121,
      "comment": 7122,
      "fred": 7123,
      "giant": 7124,
      "stadium": 7125,
      "thank": 7126,
      "saus": 7127,
      "mathem": 7128,
      "batteries": 7129,
      "principles": 7130,
      "dun": 7131,
      "zo": 7132,
      "brick": 7133,
      "flooring": 7134,
      "tuesday": 7135,
      "nodes": 7136,
      "offices": 7137,
      "dried": 7138,
      "##iasis": 7139,
      "festival": 7140,
      "outdoor": 7141,
      "championship": 7142,
      "##cious": 7143,
      "##adel": 7144,
      "parag": 7145,
      "listings": 7146,
      "magazine": 7147,
      "thursday": 7148,
      "##arth": 7149,
      "##icon": 7150,
      "##urb": 7151,
      "reached": 7152,
      "##unct": 7153,
      "chev": 7154,
      "##pective": 7155,
      "officers": 7156,
      "males": 7157,
      "nails": 7158,
      "belt": 7159,
      "patent": 7160,
      "cleveland": 7161,
      "soda": 7162,
      "##racy": 7163,
      "recre": 7164,
      "specified": 7165,
      "maine": 7166,
      "editor": 7167,
      "governor": 7168,
      "qualified": 7169,
      "pronounced": 7170,
      "narrow": 7171,
      "##bour": 7172,
      "orbit": 7173,
      "lew": 7174,
      "brush": 7175,
      "##strual": 7176,
      "pneumonia": 7177,
      "advent": 7178,
      "checking": 7179,
      "diego": 7180,
      "hypert": 7181,
      "mentioned": 7182,
      "precipitation": 7183,
      "hurricane": 7184,
      "cin": 7185,
      "pier": 7186,
      "zones": 7187,
      "##mond": 7188,
      "allergy": 7189,
      "attrib": 7190,
      "winning": 7191,
      "females": 7192,
      "03": 7193,
      "##rent": 7194,
      "##ima": 7195,
      "turned": 7196,
      "sensation": 7197,
      "innov": 7198,
      "##rence": 7199,
      "##urus": 7200,
      "metals": 7201,
      "millions": 7202,
      "connective": 7203,
      "collagen": 7204,
      "swimming": 7205,
      "narr": 7206,
      "##pers": 7207,
      "##bage": 7208,
      "evolution": 7209,
      "schol": 7210,
      "188": 7211,
      "constit": 7212,
      "magic": 7213,
      "towns": 7214,
      "cartil": 7215,
      "liberty": 7216,
      "fu": 7217,
      "gulf": 7218,
      "stan": 7219,
      "prohib": 7220,
      "neurop": 7221,
      "tendon": 7222,
      "moisture": 7223,
      "hazard": 7224,
      "pills": 7225,
      "speaking": 7226,
      "remodel": 7227,
      "curve": 7228,
      "founder": 7229,
      "##22": 7230,
      "presidential": 7231,
      "experienced": 7232,
      "jam": 7233,
      "nash": 7234,
      "##ruit": 7235,
      "##gram": 7236,
      "producer": 7237,
      "laboratory": 7238,
      "dermat": 7239,
      "##ded": 7240,
      "stiff": 7241,
      "##pson": 7242,
      "promot": 7243,
      "hypoth": 7244,
      "migra": 7245,
      "nap": 7246,
      "till": 7247,
      "##ipt": 7248,
      "wealth": 7249,
      "replaced": 7250,
      "dutch": 7251,
      "subscription": 7252,
      "peripheral": 7253,
      "ka": 7254,
      "rs": 7255,
      "wings": 7256,
      "##asant": 7257,
      "consume": 7258,
      "underlying": 7259,
      "##nesday": 7260,
      "cher": 7261,
      "lakes": 7262,
      "vital": 7263,
      "partial": 7264,
      "##ront": 7265,
      "189": 7266,
      "experts": 7267,
      "flying": 7268,
      "averages": 7269,
      "lion": 7270,
      "accel": 7271,
      "homeown": 7272,
      "winds": 7273,
      "delay": 7274,
      "landlord": 7275,
      "challeng": 7276,
      "scotland": 7277,
      "09": 7278,
      "04": 7279,
      "zinc": 7280,
      "asc": 7281,
      "sprink": 7282,
      "controller": 7283,
      "gap": 7284,
      "rust": 7285,
      "indu": 7286,
      "##ulum": 7287,
      "brow": 7288,
      "quot": 7289,
      "directory": 7290,
      "positions": 7291,
      "diagnosed": 7292,
      "vertical": 7293,
      "cels": 7294,
      "tay": 7295,
      "vascular": 7296,
      "wit": 7297,
      "##ulated": 7298,
      "##opic": 7299,
      "carries": 7300,
      "downtown": 7301,
      "obvious": 7302,
      "soluble": 7303,
      "practices": 7304,
      "hire": 7305,
      "rings": 7306,
      "lex": 7307,
      "responsibility": 7308,
      "destination": 7309,
      "lamb": 7310,
      "##rs": 7311,
      "starch": 7312,
      "##ints": 7313,
      "slang": 7314,
      "wednesday": 7315,
      "fifth": 7316,
      "##fri": 7317,
      "tox": 7318,
      "incub": 7319,
      "##ancing": 7320,
      "brazil": 7321,
      "variables": 7322,
      "eventually": 7323,
      "gone": 7324,
      "weld": 7325,
      "stations": 7326,
      "gravity": 7327,
      "significance": 7328,
      "programming": 7329,
      "##ws": 7330,
      "cooper": 7331,
      "marsh": 7332,
      "##closure": 7333,
      "figures": 7334,
      "arrange": 7335,
      "numerous": 7336,
      "adjective": 7337,
      "jim": 7338,
      "##aine": 7339,
      "##anol": 7340,
      "##icit": 7341,
      "##rof": 7342,
      "exposed": 7343,
      "restaurants": 7344,
      "tomatoes": 7345,
      "##kins": 7346,
      "herpes": 7347,
      "smallest": 7348,
      "##shire": 7349,
      "remaining": 7350,
      "holl": 7351,
      "tires": 7352,
      "contents": 7353,
      "emph": 7354,
      "destroy": 7355,
      "##ocytes": 7356,
      "anesthes": 7357,
      "sustain": 7358,
      "celsius": 7359,
      "bip": 7360,
      "gri": 7361,
      "rac": 7362,
      "ting": 7363,
      "quote": 7364,
      "menstrual": 7365,
      "##iveness": 7366,
      "ranked": 7367,
      "##lim": 7368,
      "phoen": 7369,
      "glut": 7370,
      "physics": 7371,
      "explan": 7372,
      "reduction": 7373,
      "previously": 7374,
      "96": 7375,
      "baked": 7376,
      "orland": 7377,
      "apprais": 7378,
      "bigger": 7379,
      "breaks": 7380,
      "magnetic": 7381,
      "quantity": 7382,
      "##iations": 7383,
      "rein": 7384,
      "lyn": 7385,
      "doors": 7386,
      "communities": 7387,
      "oxid": 7388,
      "lining": 7389,
      "##fr": 7390,
      "canâ": 7391,
      "bru": 7392,
      "twitter": 7393,
      "soccer": 7394,
      "bills": 7395,
      "honor": 7396,
      "07": 7397,
      "isol": 7398,
      "##kee": 7399,
      "parks": 7400,
      "subt": 7401,
      "posts": 7402,
      "wavel": 7403,
      "bes": 7404,
      "##hma": 7405,
      "##''": 7406,
      "##isa": 7407,
      "aden": 7408,
      "memorial": 7409,
      "snake": 7410,
      "identified": 7411,
      "historic": 7412,
      "trailer": 7413,
      "##emption": 7414,
      "declar": 7415,
      "prompt": 7416,
      "molecular": 7417,
      "syll": 7418,
      "wrist": 7419,
      "bags": 7420,
      "iii": 7421,
      "secretary": 7422,
      "episodes": 7423,
      "pairs": 7424,
      "pediatric": 7425,
      "municip": 7426,
      "89": 7427,
      "hc": 7428,
      "##omin": 7429,
      "##ista": 7430,
      "usual": 7431,
      "cris": 7432,
      "seek": 7433,
      "religion": 7434,
      "convention": 7435,
      "bacon": 7436,
      "examination": 7437,
      "circumst": 7438,
      "consent": 7439,
      "closely": 7440,
      "polymer": 7441,
      "clinton": 7442,
      "900": 7443,
      "agree": 7444,
      "passes": 7445,
      "logo": 7446,
      "difficulty": 7447,
      "launch": 7448,
      "rheum": 7449,
      "##fly": 7450,
      "truth": 7451,
      "offering": 7452,
      "##ocrine": 7453,
      "##otype": 7454,
      "refin": 7455,
      "tallest": 7456,
      "dominant": 7457,
      "algae": 7458,
      "ig": 7459,
      "pup": 7460,
      "##lock": 7461,
      "spell": 7462,
      "mars": 7463,
      "pays": 7464,
      "backup": 7465,
      "wells": 7466,
      "castle": 7467,
      "accompl": 7468,
      "transmitted": 7469,
      "##aland": 7470,
      "##igen": 7471,
      "poet": 7472,
      "antibiotic": 7473,
      "jury": 7474,
      "highlight": 7475,
      "lifetime": 7476,
      "2002": 7477,
      "##brid": 7478,
      "turning": 7479,
      "statistical": 7480,
      "##vascular": 7481,
      "meg": 7482,
      "enable": 7483,
      "varieties": 7484,
      "banking": 7485,
      "nasal": 7486,
      "exe": 7487,
      "##weight": 7488,
      "estrogen": 7489,
      "professor": 7490,
      "##stein": 7491,
      "earthquake": 7492,
      "despite": 7493,
      "peter": 7494,
      "##aria": 7495,
      "acne": 7496,
      "interface": 7497,
      "steve": 7498,
      "mechanism": 7499,
      "##oscopy": 7500,
      "skeletal": 7501,
      "orlando": 7502,
      "wavelength": 7503,
      "ced": 7504,
      "jord": 7505,
      "proport": 7506,
      "tried": 7507,
      "hospitals": 7508,
      "seizures": 7509,
      "##asia": 7510,
      "loose": 7511,
      "breaking": 7512,
      "##saurus": 7513,
      "##haust": 7514,
      "##test": 7515,
      "##anus": 7516,
      "todd": 7517,
      "divers": 7518,
      "employed": 7519,
      "literal": 7520,
      "##bridge": 7521,
      "floors": 7522,
      "automatic": 7523,
      "fraud": 7524,
      "demonstr": 7525,
      "gy": 7526,
      "##rad": 7527,
      "stab": 7528,
      "##ibilities": 7529,
      "##phia": 7530,
      "accum": 7531,
      "enterprise": 7532,
      "interested": 7533,
      "mutation": 7534,
      "recognized": 7535,
      "hamm": 7536,
      "jes": 7537,
      "moss": 7538,
      "wy": 7539,
      "##min": 7540,
      "exhaust": 7541,
      "muc": 7542,
      "instit": 7543,
      "impair": 7544,
      "recipes": 7545,
      "bass": 7546,
      "bib": 7547,
      "##lation": 7548,
      "thesaurus": 7549,
      "##ili": 7550,
      "##eters": 7551,
      "##amy": 7552,
      "clients": 7553,
      "rooms": 7554,
      "contacts": 7555,
      "tennis": 7556,
      "shake": 7557,
      "upgrade": 7558,
      "burns": 7559,
      "##bladder": 7560,
      "ginger": 7561,
      "tang": 7562,
      "##sement": 7563,
      "meals": 7564,
      "401": 7565,
      "bid": 7566,
      "sister": 7567,
      "compat": 7568,
      "duties": 7569,
      "principle": 7570,
      "numbness": 7571,
      "06": 7572,
      "dating": 7573,
      "jenn": 7574,
      "##éª": 7575,
      "##abeth": 7576,
      "evolve": 7577,
      "transplant": 7578,
      "belief": 7579,
      "explore": 7580,
      "massage": 7581,
      "circulation": 7582,
      "mileage": 7583,
      "ultras": 7584,
      "immediate": 7585,
      "dinner": 7586,
      "scholars": 7587,
      "gpa": 7588,
      "ranch": 7589,
      "exists": 7590,
      "undergrad": 7591,
      "tradem": 7592,
      "gallbladder": 7593,
      "semi": 7594,
      "rd": 7595,
      "tes": 7596,
      "##bone": 7597,
      "dement": 7598,
      "##aco": 7599,
      "2001": 7600,
      "eliz": 7601,
      "supports": 7602,
      "circul": 7603,
      "ceiling": 7604,
      "horiz": 7605,
      "tracking": 7606,
      "candy": 7607,
      "icd": 7608,
      "##adelphia": 7609,
      "extend": 7610,
      "##azz": 7611,
      "triangle": 7612,
      "applies": 7613,
      "fossil": 7614,
      "affordable": 7615,
      "assembly": 7616,
      "bub": 7617,
      "##mg": 7618,
      "strain": 7619,
      "regardless": 7620,
      "renewal": 7621,
      "korea": 7622,
      "##otherapy": 7623,
      "gym": 7624,
      "margin": 7625,
      "depre": 7626,
      "legend": 7627,
      "operate": 7628,
      "chris": 7629,
      "verizon": 7630,
      "breakdown": 7631,
      "tumors": 7632,
      "montana": 7633,
      "jewel": 7634,
      "jefferson": 7635,
      "rarely": 7636,
      "oly": 7637,
      "##jo": 7638,
      "lasts": 7639,
      "calculation": 7640,
      "##rosis": 7641,
      "renal": 7642,
      "rubber": 7643,
      "buffalo": 7644,
      "interpret": 7645,
      "vein": 7646,
      "expir": 7647,
      "believed": 7648,
      "##ifying": 7649,
      "tells": 7650,
      "##yroidism": 7651,
      "decisions": 7652,
      "synthetic": 7653,
      "waters": 7654,
      "interesting": 7655,
      "thickness": 7656,
      "expressed": 7657,
      "ecos": 7658,
      "shopping": 7659,
      "anatomy": 7660,
      "vacuum": 7661,
      "##13": 7662,
      "##aments": 7663,
      "orient": 7664,
      "whereas": 7665,
      "measuring": 7666,
      "160": 7667,
      "dre": 7668,
      "psychological": 7669,
      "hemisp": 7670,
      "ingredient": 7671,
      "fungi": 7672,
      "cartilage": 7673,
      "ah": 7674,
      "lies": 7675,
      "pod": 7676,
      "##ogy": 7677,
      "competitive": 7678,
      "opportunities": 7679,
      "vene": 7680,
      "##bell": 7681,
      "##gb": 7682,
      "ammon": 7683,
      "acting": 7684,
      "slaver": 7685,
      "equals": 7686,
      "menopause": 7687,
      "installing": 7688,
      "diagnost": 7689,
      "appointment": 7690,
      "##rison": 7691,
      "onions": 7692,
      "maybe": 7693,
      "trauma": 7694,
      "engage": 7695,
      "postal": 7696,
      "denver": 7697,
      "furniture": 7698,
      "assigned": 7699,
      "inspection": 7700,
      "reim": 7701,
      "sect": 7702,
      "setup": 7703,
      "helped": 7704,
      "strand": 7705,
      "facial": 7706,
      "philadelphia": 7707,
      "resistant": 7708,
      "progressive": 7709,
      "settlement": 7710,
      "absolute": 7711,
      "slavery": 7712,
      "rhyth": 7713,
      "sized": 7714,
      "##sec": 7715,
      "pricing": 7716,
      "statements": 7717,
      "medicines": 7718,
      "checked": 7719,
      "promote": 7720,
      "removing": 7721,
      "madison": 7722,
      "cervical": 7723,
      "surgeon": 7724,
      "entertainment": 7725,
      "sausage": 7726,
      "olymp": 7727,
      "youth": 7728,
      "stable": 7729,
      "shad": 7730,
      "##ologies": 7731,
      "younger": 7732,
      "pancreat": 7733,
      "##ran": 7734,
      "##gi": 7735,
      "##ocracy": 7736,
      "unkn": 7737,
      "approval": 7738,
      "possess": 7739,
      "acidic": 7740,
      "glasses": 7741,
      "railroad": 7742,
      "neurons": 7743,
      "arabic": 7744,
      "93": 7745,
      "iq": 7746,
      "ios": 7747,
      "wifi": 7748,
      "##iors": 7749,
      "##una": 7750,
      "##osen": 7751,
      "unf": 7752,
      "signals": 7753,
      "markets": 7754,
      "machines": 7755,
      "hunting": 7756,
      ".).": 7757,
      "pollution": 7758,
      "tornado": 7759,
      "dehydration": 7760,
      "tape": 7761,
      "attra": 7762,
      "swed": 7763,
      "flexible": 7764,
      "harvest": 7765,
      "##roit": 7766,
      "fried": 7767,
      "sections": 7768,
      "leather": 7769,
      "template": 7770,
      "synthesis": 7771,
      "kick": 7772,
      "ome": 7773,
      "##icut": 7774,
      "stru": 7775,
      "onion": 7776,
      "##ograp": 7777,
      "writer": 7778,
      "significantly": 7779,
      "phoenix": 7780,
      "##fs": 7781,
      "##ctive": 7782,
      "cany": 7783,
      "transf": 7784,
      "tested": 7785,
      "##liest": 7786,
      "##rosion": 7787,
      "mcdon": 7788,
      "mitochond": 7789,
      "##untary": 7790,
      "intelligence": 7791,
      "neuropathy": 7792,
      "ecosystem": 7793,
      "paste": 7794,
      "tone": 7795,
      "segment": 7796,
      "unus": 7797,
      "##agram": 7798,
      "drinks": 7799,
      "screening": 7800,
      "unlock": 7801,
      "democratic": 7802,
      "cath": 7803,
      "##mel": 7804,
      "carn": 7805,
      "pole": 7806,
      "keys": 7807,
      "##engers": 7808,
      "designer": 7809,
      "replacing": 7810,
      "pyram": 7811,
      "zealand": 7812,
      "elizabeth": 7813,
      "dad": 7814,
      "vapor": 7815,
      "##idal": 7816,
      "##umes": 7817,
      "abund": 7818,
      "tenant": 7819,
      "phenom": 7820,
      "%,": 7821,
      "92": 7822,
      "session": 7823,
      "centre": 7824,
      "##edge": 7825,
      "toler": 7826,
      "geography": 7827,
      "northeast": 7828,
      "eagle": 7829,
      "1st": 7830,
      "designated": 7831,
      "harbor": 7832,
      "efficiency": 7833,
      "competition": 7834,
      "##ught": 7835,
      "paragraph": 7836,
      "##ki": 7837,
      "deals": 7838,
      "##ennial": 7839,
      "relevant": 7840,
      "ovulation": 7841,
      "epithel": 7842,
      "hide": 7843,
      "recur": 7844,
      "##iano": 7845,
      "basically": 7846,
      "testosterone": 7847,
      "experiment": 7848,
      "advantages": 7849,
      "pt": 7850,
      "##),": 7851,
      "noise": 7852,
      "instruct": 7853,
      "latitude": 7854,
      "bloom": 7855,
      "patterns": 7856,
      "mathemat": 7857,
      "##friend": 7858,
      "94": 7859,
      "anterior": 7860,
      "##apse": 7861,
      "legally": 7862,
      "substitute": 7863,
      "breakfast": 7864,
      "camer": 7865,
      "styles": 7866,
      "cv": 7867,
      "ment": 7868,
      "processed": 7869,
      "strat": 7870,
      "foil": 7871,
      "publ": 7872,
      "harry": 7873,
      "boundaries": 7874,
      "ultrasound": 7875,
      "dementia": 7876,
      "unknown": 7877,
      "gather": 7878,
      "iod": 7879,
      "uber": 7880,
      "##atal": 7881,
      "##rog": 7882,
      "resume": 7883,
      "keeps": 7884,
      "opinion": 7885,
      "inm": 7886,
      "lifes": 7887,
      "receiving": 7888,
      "theatre": 7889,
      "cognitive": 7890,
      "slic": 7891,
      "##fc": 7892,
      "##ectomy": 7893,
      "offenders": 7894,
      "advoc": 7895,
      "determining": 7896,
      "pasta": 7897,
      "consumers": 7898,
      "ks": 7899,
      "##iders": 7900,
      "contamin": 7901,
      "belly": 7902,
      "eleph": 7903,
      "structural": 7904,
      "ferment": 7905,
      "##codone": 7906,
      "bern": 7907,
      "##ean": 7908,
      "##aya": 7909,
      "appet": 7910,
      "mush": 7911,
      "artific": 7912,
      "inventory": 7913,
      "hung": 7914,
      "wrap": 7915,
      "##rams": 7916,
      "##rey": 7917,
      "##illin": 7918,
      "partn": 7919,
      "squash": 7920,
      "##loin": 7921,
      "diabetic": 7922,
      "deriv": 7923,
      "arrive": 7924,
      "advertising": 7925,
      "cock": 7926,
      "##ocation": 7927,
      "##000": 7928,
      "capable": 7929,
      "motiv": 7930,
      "risks": 7931,
      "hs": 7932,
      "rv": 7933,
      "##roe": 7934,
      "##ocity": 7935,
      "insp": 7936,
      "helping": 7937,
      "diagnose": 7938,
      "##valent": 7939,
      "dealer": 7940,
      "cabinet": 7941,
      "bah": 7942,
      "cul": 7943,
      "gab": 7944,
      "dot": 7945,
      "engineers": 7946,
      "objective": 7947,
      "motorcy": 7948,
      "asthma": 7949,
      "nutrient": 7950,
      "clothes": 7951,
      "none": 7952,
      "##car": 7953,
      "##ja": 7954,
      "##bean": 7955,
      "wilson": 7956,
      "partnership": 7957,
      "cla": 7958,
      "cran": 7959,
      "passing": 7960,
      "literary": 7961,
      "##glass": 7962,
      "nin": 7963,
      "haven": 7964,
      "lifestyle": 7965,
      "ended": 7966,
      "matrix": 7967,
      "nucleot": 7968,
      "##ifts": 7969,
      "preser": 7970,
      "turb": 7971,
      "versions": 7972,
      "dedicated": 7973,
      "teaspoon": 7974,
      "diesel": 7975,
      "juris": 7976,
      "circumstances": 7977,
      "gem": 7978,
      "pocket": 7979,
      "thunder": 7980,
      "cape": 7981,
      "flav": 7982,
      "scene": 7983,
      "funeral": 7984,
      "patch": 7985,
      "kindle": 7986,
      "statute": 7987,
      "err": 7988,
      "complications": 7989,
      "##oration": 7990,
      "##ontal": 7991,
      "gradu": 7992,
      "tired": 7993,
      "inhal": 7994,
      "whats": 7995,
      "##rots": 7996,
      "stories": 7997,
      "##asts": 7998,
      "poem": 7999,
      "purs": 8000,
      "satell": 8001,
      "scientist": 8002,
      "embry": 8003,
      "mercury": 8004,
      "prefix": 8005,
      "wisdom": 8006,
      "dell": 8007,
      "nm": 8008,
      "nd": 8009,
      "sne": 8010,
      "mening": 8011,
      "maple": 8012,
      "preparation": 8013,
      "joseph": 8014,
      "trouble": 8015,
      "swall": 8016,
      "explains": 8017,
      "chase": 8018,
      "valu": 8019,
      "condens": 8020,
      "nearby": 8021,
      "suspect": 8022,
      "puppies": 8023,
      "pi": 8024,
      "sail": 8025,
      "vas": 8026,
      "##urance": 8027,
      "shield": 8028,
      "param": 8029,
      "basement": 8030,
      "slide": 8031,
      "grains": 8032,
      "amazing": 8033,
      "kennedy": 8034,
      "crisis": 8035,
      "##eston": 8036,
      "exterior": 8037,
      "sensory": 8038,
      "judgment": 8039,
      "##rophy": 8040,
      "fame": 8041,
      "twe": 8042,
      "²": 8043,
      "compliance": 8044,
      "coin": 8045,
      "contracts": 8046,
      "managed": 8047,
      "fans": 8048,
      "mall": 8049,
      "orle": 8050,
      "carl": 8051,
      "theyâ": 8052,
      "##aware": 8053,
      "snakes": 8054,
      "crab": 8055,
      "##paper": 8056,
      "isnâ": 8057,
      "gang": 8058,
      "lup": 8059,
      "pale": 8060,
      "##vic": 8061,
      "entered": 8062,
      "manufactured": 8063,
      "tunnel": 8064,
      "##reen": 8065,
      "##anged": 8066,
      "187": 8067,
      "##uitary": 8068,
      "electrom": 8069,
      "astron": 8070,
      "frost": 8071,
      "dipl": 8072,
      "npi": 8073,
      "admission": 8074,
      "judicial": 8075,
      "pituitary": 8076,
      "neurolog": 8077,
      "phosphate": 8078,
      "rabbits": 8079,
      "cass": 8080,
      "kat": 8081,
      "##xy": 8082,
      "##itud": 8083,
      "amp": 8084,
      "##ateral": 8085,
      "##ishing": 8086,
      "receives": 8087,
      "supported": 8088,
      "waiting": 8089,
      "hemorr": 8090,
      "himself": 8091,
      "arrest": 8092,
      "boiling": 8093,
      "bulb": 8094,
      "chamber": 8095,
      "unable": 8096,
      "manif": 8097,
      "opens": 8098,
      "microsc": 8099,
      "nyc": 8100,
      "granite": 8101,
      "canyon": 8102,
      "orleans": 8103,
      "gau": 8104,
      "##ji": 8105,
      "chop": 8106,
      "manner": 8107,
      "appeal": 8108,
      "reimbur": 8109,
      "yards": 8110,
      "##opedia": 8111,
      "childhood": 8112,
      "custody": 8113,
      "specialty": 8114,
      "symbols": 8115,
      "shooting": 8116,
      "kh": 8117,
      "sig": 8118,
      "##function": 8119,
      "discip": 8120,
      "reality": 8121,
      "networks": 8122,
      "obtained": 8123,
      "fungus": 8124,
      "hindi": 8125,
      "rheumat": 8126,
      "lod": 8127,
      "inqu": 8128,
      "infer": 8129,
      "##estone": 8130,
      "align": 8131,
      "flows": 8132,
      "partners": 8133,
      "metro": 8134,
      "recording": 8135,
      "presented": 8136,
      "elderly": 8137,
      "junction": 8138,
      "lips": 8139,
      "wants": 8140,
      "##peare": 8141,
      "##iverse": 8142,
      "province": 8143,
      "organized": 8144,
      "origins": 8145,
      "practical": 8146,
      "##aper": 8147,
      "asphal": 8148,
      "slice": 8149,
      "signature": 8150,
      "modified": 8151,
      "140": 8152,
      "sitting": 8153,
      "delivered": 8154,
      "felt": 8155,
      "enforcement": 8156,
      "##oter": 8157,
      "##opath": 8158,
      "weap": 8159,
      "worst": 8160,
      "##apolis": 8161,
      "possibly": 8162,
      "architecture": 8163,
      "aim": 8164,
      "lut": 8165,
      "##icious": 8166,
      "exit": 8167,
      "hydr": 8168,
      "putting": 8169,
      "debit": 8170,
      "constitutional": 8171,
      "experiences": 8172,
      "hundreds": 8173,
      "expiration": 8174,
      "ls": 8175,
      "engines": 8176,
      "110": 8177,
      "hollywood": 8178,
      "merch": 8179,
      "drawing": 8180,
      "chloride": 8181,
      "shakespeare": 8182,
      "beds": 8183,
      "dh": 8184,
      "gor": 8185,
      "hud": 8186,
      "pace": 8187,
      "##sters": 8188,
      "chops": 8189,
      "scope": 8190,
      "expans": 8191,
      "specialized": 8192,
      "doub": 8193,
      "skype": 8194,
      "hernia": 8195,
      "scalp": 8196,
      "conflict": 8197,
      "nashville": 8198,
      "##iosis": 8199,
      "##esity": 8200,
      "##ington": 8201,
      "##stall": 8202,
      "##unately": 8203,
      "entit": 8204,
      "replication": 8205,
      "craw": 8206,
      "preferred": 8207,
      "mant": 8208,
      "feeding": 8209,
      "detroit": 8210,
      "topics": 8211,
      "princess": 8212,
      "recycl": 8213,
      "##erald": 8214,
      "joined": 8215,
      "##paid": 8216,
      "regularly": 8217,
      "reasonable": 8218,
      "carbohydrate": 8219,
      "aspects": 8220,
      "jordan": 8221,
      "##omal": 8222,
      "nebr": 8223,
      "##ruption": 8224,
      "obesity": 8225,
      "periodic": 8226,
      "connecticut": 8227,
      "contraction": 8228,
      "spiritual": 8229,
      "91": 8230,
      "ds": 8231,
      "##life": 8232,
      "stack": 8233,
      "##ushing": 8234,
      "prevention": 8235,
      "generate": 8236,
      "framework": 8237,
      "adopted": 8238,
      "aware": 8239,
      "fant": 8240,
      "sant": 8241,
      "abst": 8242,
      "resem": 8243,
      "hybrid": 8244,
      "democracy": 8245,
      "trem": 8246,
      "nicot": 8247,
      "dak": 8248,
      "oc": 8249,
      "##bu": 8250,
      "classical": 8251,
      "evening": 8252,
      "murder": 8253,
      "exclusive": 8254,
      "velocity": 8255,
      "nebraska": 8256,
      "sab": 8257,
      "##enge": 8258,
      "##asive": 8259,
      "notary": 8260,
      "tru": 8261,
      "carcin": 8262,
      "reduc": 8263,
      "limitations": 8264,
      "concern": 8265,
      "coronary": 8266,
      "taylor": 8267,
      "asphalt": 8268,
      "fell": 8269,
      "##itage": 8270,
      "##issance": 8271,
      "suggests": 8272,
      "anne": 8273,
      "metric": 8274,
      "occupational": 8275,
      "soul": 8276,
      "chips": 8277,
      "bases": 8278,
      "angles": 8279,
      "religious": 8280,
      "hidden": 8281,
      "##py": 8282,
      "##iance": 8283,
      "twin": 8284,
      "traits": 8285,
      "contained": 8286,
      "reader": 8287,
      "hardwood": 8288,
      "mike": 8289,
      "correctly": 8290,
      "dentist": 8291,
      "cents": 8292,
      "kim": 8293,
      "lac": 8294,
      "lag": 8295,
      "defend": 8296,
      "coins": 8297,
      "125": 8298,
      "leaders": 8299,
      "citation": 8300,
      "broadcast": 8301,
      "victoria": 8302,
      "comfortable": 8303,
      "declaration": 8304,
      "encycl": 8305,
      "taxp": 8306,
      "discrim": 8307,
      "fluids": 8308,
      "officially": 8309,
      "metabolic": 8310,
      "tablespoon": 8311,
      "shed": 8312,
      "##inent": 8313,
      "plenty": 8314,
      "blade": 8315,
      "carib": 8316,
      "covering": 8317,
      "melan": 8318,
      "sentences": 8319,
      "elementary": 8320,
      "odor": 8321,
      "binding": 8322,
      "posterior": 8323,
      "',": 8324,
      "bing": 8325,
      "##yms": 8326,
      "whis": 8327,
      "phones": 8328,
      "ending": 8329,
      "digits": 8330,
      "morph": 8331,
      "pulled": 8332,
      "reducing": 8333,
      "##fit": 8334,
      "##fol": 8335,
      "##anium": 8336,
      "spelling": 8337,
      "bug": 8338,
      "corps": 8339,
      "clicking": 8340,
      "carried": 8341,
      "vocal": 8342,
      "agriculture": 8343,
      "browse": 8344,
      "rum": 8345,
      "universe": 8346,
      "append": 8347,
      "holes": 8348,
      "absorption": 8349,
      "rapidly": 8350,
      "pets": 8351,
      "##wa": 8352,
      "chat": 8353,
      "warning": 8354,
      "substant": 8355,
      "reproduction": 8356,
      "diagnostic": 8357,
      "sag": 8358,
      "ink": 8359,
      "##ila": 8360,
      "thym": 8361,
      ".": 8362,
      "ski": 8363,
      "aven": 8364,
      "colored": 8365,
      "##onto": 8366,
      "missing": 8367,
      "suffer": 8368,
      "jama": 8369,
      "lib": 8370,
      "##uity": 8371,
      "##opher": 8372,
      "intensity": 8373,
      "concert": 8374,
      "exercises": 8375,
      "seller": 8376,
      "evalu": 8377,
      "mosqu": 8378,
      "##itely": 8379,
      "##irus": 8380,
      "##riet": 8381,
      "secre": 8382,
      "relieve": 8383,
      "occurring": 8384,
      "industries": 8385,
      "proposed": 8386,
      "roofing": 8387,
      "##immune": 8388,
      "practitioner": 8389,
      "occasionally": 8390,
      "##gments": 8391,
      "beet": 8392,
      "##ads": 8393,
      "adobe": 8394,
      "relation": 8395,
      "static": 8396,
      "allowance": 8397,
      "hemat": 8398,
      "philipp": 8399,
      "felony": 8400,
      "integrated": 8401,
      "dough": 8402,
      "##isone": 8403,
      "oracle": 8404,
      "costa": 8405,
      "infants": 8406,
      "physicians": 8407,
      "antibodies": 8408,
      "nutritional": 8409,
      "##what": 8410,
      "scheduled": 8411,
      "##agnetic": 8412,
      "##osevel": 8413,
      "continues": 8414,
      "falling": 8415,
      "incorporated": 8416,
      "eu": 8417,
      "fern": 8418,
      "##ew": 8419,
      "toe": 8420,
      "##uster": 8421,
      "defines": 8422,
      "arrow": 8423,
      "roosevel": 8424,
      "researchers": 8425,
      "austin": 8426,
      "##going": 8427,
      "theor": 8428,
      "##isition": 8429,
      "##olves": 8430,
      "##rive": 8431,
      "creation": 8432,
      "decided": 8433,
      "lightning": 8434,
      "enrollment": 8435,
      "cedar": 8436,
      "cuc": 8437,
      "rena": 8438,
      "##mat": 8439,
      "##lycer": 8440,
      "surpr": 8441,
      "multiply": 8442,
      "thousand": 8443,
      "absorbed": 8444,
      "masters": 8445,
      "kilometers": 8446,
      "##illes": 8447,
      "shark": 8448,
      "persist": 8449,
      "drawn": 8450,
      "communications": 8451,
      "autoimmune": 8452,
      "ranging": 8453,
      "discussion": 8454,
      "##itz": 8455,
      "##osh": 8456,
      "ownership": 8457,
      "sync": 8458,
      "cortana": 8459,
      "mirror": 8460,
      "artificial": 8461,
      "lt": 8462,
      "##orus": 8463,
      "delet": 8464,
      "##imited": 8465,
      "##rape": 8466,
      "enab": 8467,
      "thereâ": 8468,
      "loop": 8469,
      "extensive": 8470,
      "ulcer": 8471,
      "reproductive": 8472,
      "insects": 8473,
      "cement": 8474,
      "mature": 8475,
      "wing": 8476,
      "wra": 8477,
      "##ori": 8478,
      "exhib": 8479,
      "adh": 8480,
      "originated": 8481,
      "membranes": 8482,
      "saturated": 8483,
      "aspirin": 8484,
      "bomb": 8485,
      "pitch": 8486,
      "soup": 8487,
      "##icillin": 8488,
      "beats": 8489,
      "scler": 8490,
      "##rup": 8491,
      "twitch": 8492,
      "marked": 8493,
      "greatly": 8494,
      "fewer": 8495,
      "##ommod": 8496,
      "affil": 8497,
      "cysts": 8498,
      "tasks": 8499,
      "bt": 8500,
      "wv": 8501,
      "desired": 8502,
      "classroom": 8503,
      "planting": 8504,
      "cattle": 8505,
      "firef": 8506,
      "1999": 8507,
      "clearly": 8508,
      "graphics": 8509,
      "bluet": 8510,
      "peanut": 8511,
      "roosevelt": 8512,
      "hoc": 8513,
      "##can": 8514,
      "##bed": 8515,
      "fraction": 8516,
      "bonus": 8517,
      "shelf": 8518,
      "mammals": 8519,
      "rip": 8520,
      "##iny": 8521,
      "accommod": 8522,
      "aged": 8523,
      "dram": 8524,
      "lesson": 8525,
      "operated": 8526,
      "lyme": 8527,
      "consisting": 8528,
      "repeat": 8529,
      "manufacturers": 8530,
      "kay": 8531,
      "##fo": 8532,
      "##imeter": 8533,
      "improvement": 8534,
      "relationships": 8535,
      "##visor": 8536,
      "administrator": 8537,
      "##heimer": 8538,
      "bipolar": 8539,
      "undergraduate": 8540,
      "lind": 8541,
      "##coming": 8542,
      "allowing": 8543,
      "publish": 8544,
      "exclud": 8545,
      "##boro": 8546,
      "discovery": 8547,
      "ultra": 8548,
      "wiki": 8549,
      "bluetooth": 8550,
      "whatever": 8551,
      "overd": 8552,
      "actors": 8553,
      "lumb": 8554,
      "##15": 8555,
      "sew": 8556,
      "shots": 8557,
      "synt": 8558,
      "cathe": 8559,
      "inflation": 8560,
      "talent": 8561,
      "enlarged": 8562,
      "jurisd": 8563,
      "bean": 8564,
      "capill": 8565,
      "learned": 8566,
      "traveling": 8567,
      "indicated": 8568,
      "represented": 8569,
      "bedroom": 8570,
      "homem": 8571,
      "drainage": 8572,
      "brothers": 8573,
      "challenge": 8574,
      "reliable": 8575,
      "dakota": 8576,
      "bars": 8577,
      "fid": 8578,
      "pse": 8579,
      "##oids": 8580,
      "##worm": 8581,
      "doses": 8582,
      "exceed": 8583,
      "feels": 8584,
      "swell": 8585,
      "ordered": 8586,
      "guarantee": 8587,
      "intent": 8588,
      "somewhat": 8589,
      "brew": 8590,
      "copies": 8591,
      "rainfor": 8592,
      "strip": 8593,
      "thermal": 8594,
      "columbus": 8595,
      "epiderm": 8596,
      "lifespan": 8597,
      "renaissance": 8598,
      "ld": 8599,
      "ran": 8600,
      "alive": 8601,
      "ships": 8602,
      "compact": 8603,
      "spas": 8604,
      "overnight": 8605,
      "instagram": 8606,
      "polish": 8607,
      "##holders": 8608,
      "fairly": 8609,
      "channels": 8610,
      "instruments": 8611,
      "explanation": 8612,
      "hack": 8613,
      "tb": 8614,
      "prost": 8615,
      "alter": 8616,
      "newest": 8617,
      "130": 8618,
      "receptors": 8619,
      "itchy": 8620,
      "iodine": 8621,
      "kl": 8622,
      "payroll": 8623,
      "variation": 8624,
      "snack": 8625,
      "negot": 8626,
      "temple": 8627,
      "soldiers": 8628,
      "legislation": 8629,
      "##cp": 8630,
      "##esc": 8631,
      "nearest": 8632,
      "buyer": 8633,
      "nuts": 8634,
      "creative": 8635,
      "appetite": 8636,
      "pv": 8637,
      "##otive": 8638,
      "##ptic": 8639,
      "personnel": 8640,
      "drama": 8641,
      "subsid": 8642,
      "toyota": 8643,
      "scholarship": 8644,
      "fusion": 8645,
      "##ocard": 8646,
      "caught": 8647,
      "##hester": 8648,
      "deposits": 8649,
      "concepts": 8650,
      "hundred": 8651,
      "##bel": 8652,
      "marrow": 8653,
      "insulation": 8654,
      "foam": 8655,
      "conditioning": 8656,
      "##books": 8657,
      "speaker": 8658,
      "casual": 8659,
      "argument": 8660,
      "heter": 8661,
      "jay": 8662,
      "##orrow": 8663,
      "##struct": 8664,
      "cramp": 8665,
      "facilit": 8666,
      "hpv": 8667,
      "electroly": 8668,
      "lewis": 8669,
      "kelly": 8670,
      "misc": 8671,
      "coating": 8672,
      "herbs": 8673,
      "reflex": 8674,
      "closer": 8675,
      "jon": 8676,
      "##ker": 8677,
      "costco": 8678,
      "occurred": 8679,
      "deviation": 8680,
      "tomorrow": 8681,
      "bloating": 8682,
      "lactose": 8683,
      "carrots": 8684,
      "genital": 8685,
      "warri": 8686,
      "decades": 8687,
      "fargo": 8688,
      "appeared": 8689,
      "combust": 8690,
      "panels": 8691,
      "addresses": 8692,
      "indicator": 8693,
      "ulcers": 8694,
      "assessor": 8695,
      "yogurt": 8696,
      "convenient": 8697,
      "rin": 8698,
      "##rest": 8699,
      "##yg": 8700,
      "##lyn": 8701,
      "uniform": 8702,
      "listen": 8703,
      "confed": 8704,
      "mitosis": 8705,
      "surfaces": 8706,
      "acronym": 8707,
      "unusual": 8708,
      "um": 8709,
      "spider": 8710,
      "preced": 8711,
      "seeing": 8712,
      "discomfort": 8713,
      "sweat": 8714,
      "institutions": 8715,
      "tesla": 8716,
      "sight": 8717,
      "vast": 8718,
      "##tra": 8719,
      "sep": 8720,
      "##agan": 8721,
      "ampl": 8722,
      "extent": 8723,
      "360": 8724,
      "https": 8725,
      "legislative": 8726,
      "cardiovascular": 8727,
      "gd": 8728,
      "maker": 8729,
      "wool": 8730,
      "chosen": 8731,
      "adam": 8732,
      "serum": 8733,
      "heritage": 8734,
      "reform": 8735,
      "combat": 8736,
      "stronger": 8737,
      "saved": 8738,
      "suffix": 8739,
      "inherited": 8740,
      "pseud": 8741,
      "2nd": 8742,
      "crop": 8743,
      "##nie": 8744,
      "stated": 8745,
      "driven": 8746,
      "melt": 8747,
      "merge": 8748,
      "pyth": 8749,
      "crystals": 8750,
      "alkaline": 8751,
      "avenue": 8752,
      "gent": 8753,
      "rays": 8754,
      "tension": 8755,
      "##gent": 8756,
      "##rob": 8757,
      "alz": 8758,
      "shirt": 8759,
      "crest": 8760,
      "##...": 8761,
      "sunlight": 8762,
      "boxes": 8763,
      "mlb": 8764,
      "strike": 8765,
      "alpha": 8766,
      "permits": 8767,
      "esophagus": 8768,
      "##cm": 8769,
      "usps": 8770,
      "instruction": 8771,
      "volun": 8772,
      "rocky": 8773,
      "cuts": 8774,
      "texture": 8775,
      "responsibilities": 8776,
      "visitors": 8777,
      "lateral": 8778,
      "regulate": 8779,
      "survival": 8780,
      "converter": 8781,
      "cerebral": 8782,
      "luck": 8783,
      "rul": 8784,
      "whom": 8785,
      "##isation": 8786,
      "phyl": 8787,
      "bris": 8788,
      "cellul": 8789,
      "##burgh": 8790,
      "monitoring": 8791,
      "nickname": 8792,
      "mosquito": 8793,
      "fiction": 8794,
      "##24": 8795,
      "entering": 8796,
      "uti": 8797,
      "respectively": 8798,
      "##trans": 8799,
      "volunte": 8800,
      "bible": 8801,
      "voting": 8802,
      "##otte": 8803,
      "reserv": 8804,
      "recess": 8805,
      "knowing": 8806,
      "glue": 8807,
      "delaware": 8808,
      "1998": 8809,
      "ultimate": 8810,
      "rabbit": 8811,
      "acquired": 8812,
      "bin": 8813,
      "bund": 8814,
      "##mi": 8815,
      "meiosis": 8816,
      "intr": 8817,
      "endocrine": 8818,
      "gasoline": 8819,
      "ethics": 8820,
      "situated": 8821,
      "coordinator": 8822,
      "encyclopedia": 8823,
      "wake": 8824,
      "##kg": 8825,
      "##sen": 8826,
      "##worms": 8827,
      "##rael": 8828,
      "unt": 8829,
      "brad": 8830,
      "indirect": 8831,
      "throw": 8832,
      "resting": 8833,
      "strep": 8834,
      "screens": 8835,
      "authorized": 8836,
      "thorough": 8837,
      "enhance": 8838,
      "cil": 8839,
      "##erce": 8840,
      "bears": 8841,
      "shorter": 8842,
      "pla": 8843,
      "abra": 8844,
      "colony": 8845,
      "earliest": 8846,
      "almond": 8847,
      "converted": 8848,
      "advertis": 8849,
      "situations": 8850,
      "hypertension": 8851,
      "gb": 8852,
      "lice": 8853,
      "##16": 8854,
      "##gie": 8855,
      "##itus": 8856,
      "benefici": 8857,
      "diagram": 8858,
      "##beat": 8859,
      "pelvic": 8860,
      "motorcycle": 8861,
      "##inating": 8862,
      "##oning": 8863,
      "asp": 8864,
      "adams": 8865,
      "##ocks": 8866,
      "solve": 8867,
      "finished": 8868,
      "billing": 8869,
      "printing": 8870,
      "##opsy": 8871,
      "eligibility": 8872,
      "composite": 8873,
      "##nia": 8874,
      "muscular": 8875,
      "releases": 8876,
      "buried": 8877,
      "premier": 8878,
      "benign": 8879,
      "philosophy": 8880,
      "cylinder": 8881,
      "##die": 8882,
      "##len": 8883,
      "##ouds": 8884,
      "##itted": 8885,
      "##leton": 8886,
      "incident": 8887,
      "##lox": 8888,
      "continuing": 8889,
      "blocked": 8890,
      "colonies": 8891,
      "sufficient": 8892,
      "semester": 8893,
      "horizontal": 8894,
      "##lings": 8895,
      "toes": 8896,
      "plot": 8897,
      "filling": 8898,
      "observ": 8899,
      "##arynx": 8900,
      "ery": 8901,
      "##ui": 8902,
      "israel": 8903,
      "monroe": 8904,
      "##oxy": 8905,
      "protects": 8906,
      "cooling": 8907,
      "apartments": 8908,
      "configuration": 8909,
      "hemisphere": 8910,
      "rows": 8911,
      "##isol": 8912,
      "forg": 8913,
      "##ishment": 8914,
      "##awa": 8915,
      "185": 8916,
      "malt": 8917,
      "##celand": 8918,
      "decreased": 8919,
      "##amas": 8920,
      "##chlor": 8921,
      "chi": 8922,
      "infra": 8923,
      "trap": 8924,
      "returned": 8925,
      "chickens": 8926,
      "##anned": 8927,
      "intestinal": 8928,
      "dialog": 8929,
      "announce": 8930,
      "________": 8931,
      "gums": 8932,
      "expansion": 8933,
      "dir": 8934,
      "jar": 8935,
      "lent": 8936,
      "oat": 8937,
      "##14": 8938,
      "worn": 8939,
      "adequ": 8940,
      "arter": 8941,
      "intervent": 8942,
      "charging": 8943,
      "sugars": 8944,
      "departments": 8945,
      "sleeping": 8946,
      "tubes": 8947,
      "submitted": 8948,
      "harvard": 8949,
      "ghost": 8950,
      "anchor": 8951,
      "nicotine": 8952,
      "##70": 8953,
      "strict": 8954,
      "onset": 8955,
      "usd": 8956,
      "defer": 8957,
      "worry": 8958,
      "aggreg": 8959,
      "airpl": 8960,
      "immigr": 8961,
      "##writer": 8962,
      "dual": 8963,
      "kwh": 8964,
      "##bro": 8965,
      "##25": 8966,
      "operator": 8967,
      "applicable": 8968,
      "massive": 8969,
      "tuna": 8970,
      "shapes": 8971,
      "thorac": 8972,
      "transcription": 8973,
      "oscar": 8974,
      "pharmacist": 8975,
      "tingling": 8976,
      "homemade": 8977,
      "cuff": 8978,
      "##lux": 8979,
      "##76": 8980,
      "##alam": 8981,
      "reaches": 8982,
      "decimal": 8983,
      "mla": 8984,
      "romantic": 8985,
      "adjusted": 8986,
      "thermometer": 8987,
      "furnace": 8988,
      "##chool": 8989,
      "wearing": 8990,
      "apples": 8991,
      "freezing": 8992,
      "biome": 8993,
      "availability": 8994,
      "parkinson": 8995,
      "behavioral": 8996,
      "strategic": 8997,
      "catheter": 8998,
      "pak": 8999,
      "chim": 9000,
      "dishes": 9001,
      "brings": 9002,
      "19th": 9003,
      "inspect": 9004,
      "patio": 9005,
      "##icted": 9006,
      "affecting": 9007,
      "entr": 9008,
      "shoe": 9009,
      "bulk": 9010,
      "cosm": 9011,
      "fisc": 9012,
      "tamp": 9013,
      "tread": 9014,
      "##eland": 9015,
      "forget": 9016,
      "conqu": 9017,
      "prok": 9018,
      "eaten": 9019,
      "stephen": 9020,
      "toronto": 9021,
      "concerned": 9022,
      "fighting": 9023,
      "##regular": 9024,
      "alphab": 9025,
      "literally": 9026,
      "dense": 9027,
      "##van": 9028,
      "fork": 9029,
      "abc": 9030,
      "spaces": 9031,
      "##erto": 9032,
      "relating": 9033,
      "subsequ": 9034,
      "##ometry": 9035,
      "barrier": 9036,
      "connects": 9037,
      "streaming": 9038,
      "references": 9039,
      "measurements": 9040,
      "involving": 9041,
      "butterfly": 9042,
      "##igrams": 9043,
      "tutorial": 9044,
      "##ococcus": 9045,
      "electromagnetic": 9046,
      "cage": 9047,
      "lan": 9048,
      "verm": 9049,
      "##oves": 9050,
      "##enter": 9051,
      "rewards": 9052,
      "unin": 9053,
      "compression": 9054,
      "cruc": 9055,
      "heads": 9056,
      "fatal": 9057,
      "protective": 9058,
      "diffusion": 9059,
      "deductions": 9060,
      "separated": 9061,
      "columns": 9062,
      "aerobic": 9063,
      "economics": 9064,
      "rheumatoid": 9065,
      "ee": 9066,
      "siding": 9067,
      "##ups": 9068,
      "theater": 9069,
      "##itative": 9070,
      "##amental": 9071,
      "trick": 9072,
      "experim": 9073,
      "##works": 9074,
      "spreads": 9075,
      "speakers": 9076,
      "strategies": 9077,
      "banana": 9078,
      "yoga": 9079,
      "intellect": 9080,
      "450": 9081,
      "³": 9082,
      "##nut": 9083,
      "##ela": 9084,
      "exemption": 9085,
      "##ogly": 9086,
      "evapor": 9087,
      "greens": 9088,
      "lime": 9089,
      "confused": 9090,
      "performing": 9091,
      "penins": 9092,
      "sandwich": 9093,
      "documentation": 9094,
      "bands": 9095,
      "illustr": 9096,
      "municipal": 9097,
      "satellite": 9098,
      "##itivity": 9099,
      "alf": 9100,
      "hep": 9101,
      "trend": 9102,
      "crash": 9103,
      "interact": 9104,
      "irregular": 9105,
      "scottish": 9106,
      "oscars": 9107,
      "homeowners": 9108,
      "jewelry": 9109,
      "lad": 9110,
      "##leen": 9111,
      "enem": 9112,
      "serial": 9113,
      "workplace": 9114,
      "hered": 9115,
      "##obile": 9116,
      "maxim": 9117,
      "lottery": 9118,
      "observed": 9119,
      "wheels": 9120,
      "##emony": 9121,
      "noted": 9122,
      "transit": 9123,
      "lighting": 9124,
      "repeated": 9125,
      "disabled": 9126,
      "cbs": 9127,
      "gig": 9128,
      "jazz": 9129,
      "».": 9130,
      "##hr": 9131,
      "elastic": 9132,
      "operational": 9133,
      "slee": 9134,
      "journey": 9135,
      "navig": 9136,
      "gauge": 9137,
      "abraham": 9138,
      "hood": 9139,
      "pand": 9140,
      "vend": 9141,
      "vibr": 9142,
      "##uct": 9143,
      "concl": 9144,
      "##rian": 9145,
      "overtime": 9146,
      "transactions": 9147,
      "metall": 9148,
      "losing": 9149,
      "cabinets": 9150,
      "abundant": 9151,
      "lumbar": 9152,
      "lane": 9153,
      "neon": 9154,
      "cave": 9155,
      "##ously": 9156,
      "trained": 9157,
      "expire": 9158,
      "sheets": 9159,
      "rising": 9160,
      "ratings": 9161,
      "kitt": 9162,
      "potentially": 9163,
      "narc": 9164,
      "pads": 9165,
      "unlimited": 9166,
      "marginal": 9167,
      "prokary": 9168,
      "!!": 9169,
      "##oked": 9170,
      "twenty": 9171,
      "visc": 9172,
      "lunch": 9173,
      "fundamental": 9174,
      "captain": 9175,
      "ligament": 9176,
      "luxury": 9177,
      "alzheimer": 9178,
      "lum": 9179,
      "##no": 9180,
      "congest": 9181,
      "scand": 9182,
      "interval": 9183,
      "trait": 9184,
      "guest": 9185,
      "psychologist": 9186,
      "generated": 9187,
      "influenced": 9188,
      "displayed": 9189,
      "pineapp": 9190,
      "depreciation": 9191,
      "bod": 9192,
      "##33": 9193,
      "##enza": 9194,
      "worms": 9195,
      "##eller": 9196,
      "contem": 9197,
      "##phones": 9198,
      "speeds": 9199,
      "diem": 9200,
      "conscious": 9201,
      "brakes": 9202,
      "develops": 9203,
      "freight": 9204,
      "routine": 9205,
      "stocks": 9206,
      "walt": 9207,
      "feedback": 9208,
      "subscrib": 9209,
      "encourage": 9210,
      "landscape": 9211,
      "pas": 9212,
      "vanc": 9213,
      "##ione": 9214,
      "effectively": 9215,
      "edema": 9216,
      "choosing": 9217,
      "presentation": 9218,
      "printed": 9219,
      "ceremony": 9220,
      "lav": 9221,
      "ads": 9222,
      "carefully": 9223,
      "milligrams": 9224,
      "continued": 9225,
      "faith": 9226,
      "coding": 9227,
      "iceland": 9228,
      "lid": 9229,
      "##ares": 9230,
      "peru": 9231,
      "adhes": 9232,
      "20th": 9233,
      "interc": 9234,
      "needle": 9235,
      "divert": 9236,
      "url": 9237,
      "steaks": 9238,
      "antonio": 9239,
      "rhythm": 9240,
      "shade": 9241,
      "indeed": 9242,
      "buil": 9243,
      "perspective": 9244,
      "receipt": 9245,
      "1990": 9246,
[...]
